unsigned char model_tflite[] = {
  0x1c, 0x00, 0x00, 0x00, 0x54, 0x46, 0x4c, 0x33, 0x14, 0x00, 0x20, 0x00,
  0x1c, 0x00, 0x18, 0x00, 0x14, 0x00, 0x10, 0x00, 0x0c, 0x00, 0x00, 0x00,
  0x08, 0x00, 0x04, 0x00, 0x14, 0x00, 0x00, 0x00, 0x1c, 0x00, 0x00, 0x00,
  0x98, 0x00, 0x00, 0x00, 0xf0, 0x00, 0x00, 0x00, 0xf0, 0x0c, 0x00, 0x00,
  0x00, 0x0d, 0x00, 0x00, 0x64, 0x11, 0x00, 0x00, 0x03, 0x00, 0x00, 0x00,
  0x01, 0x00, 0x00, 0x00, 0x10, 0x00, 0x00, 0x00, 0x00, 0x00, 0x0a, 0x00,
  0x10, 0x00, 0x0c, 0x00, 0x08, 0x00, 0x04, 0x00, 0x0a, 0x00, 0x00, 0x00,
  0x0c, 0x00, 0x00, 0x00, 0x1c, 0x00, 0x00, 0x00, 0x3c, 0x00, 0x00, 0x00,
  0x0f, 0x00, 0x00, 0x00, 0x73, 0x65, 0x72, 0x76, 0x69, 0x6e, 0x67, 0x5f,
  0x64, 0x65, 0x66, 0x61, 0x75, 0x6c, 0x74, 0x00, 0x01, 0x00, 0x00, 0x00,
  0x04, 0x00, 0x00, 0x00, 0x90, 0xff, 0xff, 0xff, 0x07, 0x00, 0x00, 0x00,
  0x04, 0x00, 0x00, 0x00, 0x08, 0x00, 0x00, 0x00, 0x6f, 0x75, 0x74, 0x70,
  0x75, 0x74, 0x5f, 0x30, 0x00, 0x00, 0x00, 0x00, 0x01, 0x00, 0x00, 0x00,
  0x04, 0x00, 0x00, 0x00, 0xfa, 0xf2, 0xff, 0xff, 0x04, 0x00, 0x00, 0x00,
  0x0c, 0x00, 0x00, 0x00, 0x6b, 0x65, 0x72, 0x61, 0x73, 0x5f, 0x74, 0x65,
  0x6e, 0x73, 0x6f, 0x72, 0x00, 0x00, 0x00, 0x00, 0x02, 0x00, 0x00, 0x00,
  0x34, 0x00, 0x00, 0x00, 0x04, 0x00, 0x00, 0x00, 0xdc, 0xff, 0xff, 0xff,
  0x0a, 0x00, 0x00, 0x00, 0x04, 0x00, 0x00, 0x00, 0x13, 0x00, 0x00, 0x00,
  0x43, 0x4f, 0x4e, 0x56, 0x45, 0x52, 0x53, 0x49, 0x4f, 0x4e, 0x5f, 0x4d,
  0x45, 0x54, 0x41, 0x44, 0x41, 0x54, 0x41, 0x00, 0x08, 0x00, 0x0c, 0x00,
  0x08, 0x00, 0x04, 0x00, 0x08, 0x00, 0x00, 0x00, 0x09, 0x00, 0x00, 0x00,
  0x04, 0x00, 0x00, 0x00, 0x13, 0x00, 0x00, 0x00, 0x6d, 0x69, 0x6e, 0x5f,
  0x72, 0x75, 0x6e, 0x74, 0x69, 0x6d, 0x65, 0x5f, 0x76, 0x65, 0x72, 0x73,
  0x69, 0x6f, 0x6e, 0x00, 0x0b, 0x00, 0x00, 0x00, 0xfc, 0x0b, 0x00, 0x00,
  0xf4, 0x0b, 0x00, 0x00, 0xe4, 0x09, 0x00, 0x00, 0xcc, 0x09, 0x00, 0x00,
  0xbc, 0x08, 0x00, 0x00, 0xac, 0x00, 0x00, 0x00, 0xa4, 0x00, 0x00, 0x00,
  0x9c, 0x00, 0x00, 0x00, 0x94, 0x00, 0x00, 0x00, 0x74, 0x00, 0x00, 0x00,
  0x04, 0x00, 0x00, 0x00, 0xa2, 0xf3, 0xff, 0xff, 0x04, 0x00, 0x00, 0x00,
  0x60, 0x00, 0x00, 0x00, 0x10, 0x00, 0x00, 0x00, 0x00, 0x00, 0x00, 0x00,
  0x08, 0x00, 0x0e, 0x00, 0x08, 0x00, 0x04, 0x00, 0x08, 0x00, 0x00, 0x00,
  0x10, 0x00, 0x00, 0x00, 0x24, 0x00, 0x00, 0x00, 0x00, 0x00, 0x06, 0x00,
  0x08, 0x00, 0x04, 0x00, 0x06, 0x00, 0x00, 0x00, 0x04, 0x00, 0x00, 0x00,
  0x00, 0x00, 0x00, 0x00, 0x0c, 0x00, 0x18, 0x00, 0x14, 0x00, 0x10, 0x00,
  0x0c, 0x00, 0x04, 0x00, 0x0c, 0x00, 0x00, 0x00, 0x85, 0x73, 0x1e, 0x36,
  0x90, 0xc6, 0x2e, 0x81, 0x02, 0x00, 0x00, 0x00, 0x02, 0x00, 0x00, 0x00,
  0x04, 0x00, 0x00, 0x00, 0x06, 0x00, 0x00, 0x00, 0x32, 0x2e, 0x31, 0x39,
  0x2e, 0x30, 0x00, 0x00, 0x0e, 0xf4, 0xff, 0xff, 0x04, 0x00, 0x00, 0x00,
  0x10, 0x00, 0x00, 0x00, 0x31, 0x2e, 0x35, 0x2e, 0x30, 0x00, 0x00, 0x00,
  0x00, 0x00, 0x00, 0x00, 0x00, 0x00, 0x00, 0x00, 0x70, 0xf0, 0xff, 0xff,
  0x74, 0xf0, 0xff, 0xff, 0x78, 0xf0, 0xff, 0xff, 0x36, 0xf4, 0xff, 0xff,
  0x04, 0x00, 0x00, 0x00, 0x00, 0x08, 0x00, 0x00, 0xeb, 0x44, 0x59, 0xbe,
  0xd3, 0x64, 0xb0, 0x3e, 0xa5, 0x87, 0x2a, 0x3e, 0x95, 0xbd, 0x7d, 0x3e,
  0xa8, 0x24, 0x90, 0x3e, 0x12, 0x53, 0x1f, 0x3d, 0x5a, 0xd8, 0x9d, 0x3e,
  0xbe, 0x98, 0x9b, 0xbb, 0x77, 0xf6, 0x91, 0x3d, 0x60, 0x87, 0xa8, 0xbe,
  0x23, 0xad, 0xaa, 0x3d, 0xde, 0x37, 0xf1, 0x3d, 0xf2, 0x56, 0xad, 0xbe,
  0xc7, 0x94, 0xb9, 0x3c, 0xb1, 0x9b, 0x9e, 0xbe, 0xd0, 0x69, 0xad, 0xbe,
  0x93, 0xae, 0xa9, 0x3b, 0x90, 0x63, 0x16, 0x3e, 0x51, 0xe2, 0x8d, 0xbe,
  0x8a, 0x6f, 0x5b, 0xbe, 0xbd, 0x86, 0x8e, 0xbe, 0x31, 0x59, 0x43, 0xbc,
  0xa9, 0x6b, 0x04, 0x3e, 0x10, 0x2d, 0x59, 0xbe, 0x97, 0x7c, 0x22, 0xbd,
  0x7c, 0x8e, 0x8e, 0xbe, 0xc5, 0x42, 0x02, 0xbd, 0xed, 0x01, 0x7a, 0xbe,
  0x9b, 0x95, 0xd7, 0x3b, 0xd7, 0xb8, 0x0f, 0xbd, 0x82, 0x06, 0xc2, 0xbe,
  0x67, 0x61, 0xc1, 0xbe, 0x96, 0x27, 0x06, 0xbd, 0x2c, 0x15, 0xf4, 0x3c,
  0x6d, 0x9c, 0xcb, 0xbb, 0x0d, 0xc4, 0xb3, 0x3d, 0x15, 0xb2, 0x94, 0x3e,
  0xf8, 0xa8, 0xb3, 0xbd, 0x28, 0x79, 0xa1, 0xbd, 0x87, 0xac, 0xab, 0x3e,
  0xa6, 0x9e, 0x6c, 0x3e, 0x65, 0x57, 0x04, 0x3e, 0xe3, 0x0e, 0x17, 0xbe,
  0x78, 0x00, 0x00, 0x3b, 0x1e, 0x4d, 0x2c, 0xbe, 0x14, 0x10, 0x16, 0xbb,
  0x8d, 0xd1, 0x80, 0x3c, 0xa8, 0x04, 0xe1, 0xbc, 0x5b, 0xc2, 0xc6, 0x3e,
  0x7b, 0x9b, 0xe0, 0x3c, 0x0b, 0xc7, 0x36, 0x3e, 0xb6, 0x36, 0x9e, 0x3e,
  0x26, 0x38, 0xc4, 0x3d, 0x1e, 0x57, 0x41, 0xbd, 0xa0, 0x63, 0xd7, 0x3d,
  0x85, 0xf5, 0xa9, 0x3e, 0xf5, 0x92, 0x8b, 0x3e, 0x1d, 0xc0, 0xba, 0x3d,
  0x38, 0x78, 0xef, 0x3d, 0x29, 0x3e, 0x1c, 0x3e, 0xb6, 0x45, 0x07, 0xbe,
  0x47, 0x81, 0x74, 0xbe, 0x07, 0xca, 0x15, 0x3d, 0x15, 0x1c, 0x48, 0xbe,
  0x8b, 0x5f, 0x1e, 0xbe, 0x85, 0xe0, 0x8f, 0xbe, 0x1f, 0xd0, 0xf2, 0x3d,
  0x5b, 0xe5, 0x55, 0xbe, 0x43, 0x9e, 0x82, 0xbe, 0x6d, 0xa7, 0x93, 0x3e,
  0xb1, 0x1e, 0xcf, 0xbd, 0xad, 0x69, 0x7d, 0xbd, 0x94, 0x86, 0x95, 0xbd,
  0xcf, 0xf8, 0xa1, 0x3e, 0xfa, 0x2f, 0x8e, 0x3e, 0x24, 0x7d, 0x76, 0x3e,
  0x7a, 0xba, 0x56, 0xbd, 0x40, 0xa5, 0x64, 0x3e, 0x54, 0x8d, 0x6a, 0x3e,
  0xf5, 0x84, 0xc2, 0x3d, 0xbf, 0x98, 0x9f, 0x3e, 0xc6, 0xba, 0xae, 0x3d,
  0x30, 0x9a, 0x0b, 0xbe, 0x40, 0x36, 0xf0, 0x3d, 0xc9, 0xfa, 0x56, 0x3e,
  0x48, 0x15, 0x66, 0xbe, 0xb3, 0xca, 0x72, 0x3e, 0x90, 0x22, 0xa3, 0xbd,
  0xca, 0x90, 0x99, 0x3c, 0xba, 0xbd, 0xb8, 0x3e, 0xa8, 0x18, 0x28, 0x3e,
  0xb3, 0x1f, 0x63, 0x3e, 0x79, 0x13, 0xf5, 0x3e, 0xde, 0x30, 0x1e, 0xbd,
  0x85, 0xc6, 0x56, 0x3e, 0x97, 0x9b, 0x1c, 0x3e, 0xad, 0x71, 0x1a, 0xbe,
  0x7d, 0x7b, 0x42, 0x3e, 0x8e, 0x10, 0x8c, 0x3e, 0xb7, 0x98, 0xd8, 0xbd,
  0x87, 0xea, 0x1e, 0xbe, 0x1a, 0x8c, 0x72, 0xbd, 0x32, 0x63, 0x0e, 0xbe,
  0xf2, 0xbc, 0x90, 0x3d, 0x63, 0xc0, 0x3f, 0xbb, 0xa4, 0x95, 0xa1, 0x3e,
  0x9f, 0x48, 0x50, 0x3e, 0x4d, 0xb6, 0x2f, 0xbe, 0xd8, 0xc4, 0x9e, 0x3e,
  0x89, 0xc9, 0x16, 0x3d, 0x7f, 0x71, 0x60, 0x3e, 0x14, 0xd0, 0x3b, 0x3e,
  0x07, 0x25, 0x23, 0x3e, 0x76, 0xe8, 0x05, 0xbe, 0x40, 0x56, 0xb2, 0x3e,
  0x84, 0xf5, 0x24, 0xbe, 0xf7, 0xa1, 0x16, 0x3e, 0xe4, 0x59, 0xa8, 0xbd,
  0x29, 0x37, 0x2c, 0x3d, 0x71, 0x28, 0x65, 0x3e, 0x7b, 0x55, 0x26, 0x3e,
  0x3b, 0xaa, 0x03, 0x3e, 0xec, 0x09, 0x68, 0xbe, 0xfb, 0x3e, 0x9a, 0xbe,
  0x26, 0x43, 0x5f, 0x3d, 0x0a, 0xe8, 0x46, 0xbe, 0x19, 0x22, 0x30, 0x3e,
  0x70, 0x20, 0x6b, 0x3e, 0x96, 0x6a, 0x83, 0xbe, 0x74, 0x13, 0x86, 0xbc,
  0xe6, 0x7f, 0x3f, 0x3c, 0x4a, 0x62, 0x8f, 0xbe, 0x76, 0xfb, 0xff, 0x3d,
  0x76, 0x94, 0x59, 0x3e, 0xc9, 0x76, 0x4f, 0xbe, 0x26, 0xb6, 0x71, 0xbd,
  0x47, 0xa1, 0xe1, 0x3d, 0xc7, 0xb2, 0x6c, 0x3e, 0x20, 0x46, 0x49, 0xbd,
  0x9c, 0xc1, 0x14, 0xbe, 0x16, 0xff, 0x1e, 0xbe, 0x40, 0xdd, 0x95, 0x3e,
  0x39, 0xbc, 0x74, 0x3e, 0xd4, 0x08, 0x92, 0x3e, 0xe6, 0x69, 0x56, 0xbe,
  0x3b, 0xd5, 0x7e, 0x3e, 0x0b, 0x7f, 0x4a, 0xbe, 0x36, 0xc7, 0xf6, 0x3c,
  0x77, 0xf4, 0x82, 0x3c, 0x78, 0x38, 0xfd, 0x3d, 0x07, 0xc3, 0x3f, 0xbe,
  0x0b, 0x49, 0x52, 0xbd, 0x9d, 0xe0, 0x3f, 0xbe, 0xb4, 0x2e, 0xb0, 0x3e,
  0xa3, 0x81, 0x2f, 0x3e, 0xf5, 0xba, 0x0c, 0xbe, 0xa3, 0x49, 0x60, 0x3e,
  0x8a, 0xd2, 0x5d, 0x3e, 0x82, 0x43, 0x3a, 0x3e, 0x51, 0x0d, 0xbf, 0x3e,
  0x5d, 0x4e, 0x6f, 0x3e, 0xdd, 0x32, 0x05, 0xbd, 0x13, 0x73, 0x49, 0x3e,
  0x87, 0xb6, 0x3e, 0x3e, 0x5e, 0xec, 0xa0, 0xbe, 0xce, 0xe4, 0x57, 0x3e,
  0xa0, 0x0b, 0x6e, 0x3e, 0x8e, 0x68, 0x74, 0x3e, 0x66, 0x0d, 0x81, 0x3e,
  0xea, 0xa9, 0x1d, 0xbd, 0xbb, 0xd6, 0x80, 0x3e, 0x5d, 0xe9, 0x60, 0xbd,
  0x93, 0x14, 0x9c, 0x3e, 0x52, 0x31, 0x91, 0x3d, 0x9d, 0x71, 0x9f, 0x3e,
  0xdb, 0x0b, 0xd8, 0xbb, 0x1e, 0x9f, 0x3d, 0xbe, 0x95, 0xaf, 0x54, 0x3e,
  0x84, 0x24, 0x72, 0x3e, 0x10, 0x32, 0x13, 0xbc, 0xe0, 0xdf, 0x65, 0xbe,
  0xfd, 0x47, 0xbe, 0x3c, 0xbb, 0x22, 0xba, 0x3d, 0x67, 0x81, 0xa7, 0xbd,
  0x71, 0xdf, 0x93, 0x3e, 0xc2, 0x9f, 0x63, 0xbe, 0x5d, 0x01, 0x8f, 0x3c,
  0x73, 0x6e, 0xf3, 0x3d, 0xb3, 0xc5, 0xc1, 0xbc, 0x35, 0x19, 0x6b, 0xbe,
  0x7d, 0xf8, 0x6a, 0xbe, 0x33, 0xde, 0x53, 0xbe, 0xde, 0xa7, 0x84, 0x3e,
  0xfa, 0x56, 0xfe, 0x3c, 0x95, 0xc1, 0xc1, 0x3d, 0x0f, 0xf5, 0x4a, 0x3e,
  0x1a, 0xe6, 0x5d, 0x3e, 0x58, 0x5c, 0x8f, 0xbd, 0x55, 0x3c, 0x91, 0x3e,
  0x9b, 0x81, 0x03, 0x3f, 0x9d, 0x9a, 0x4b, 0xbe, 0xc6, 0x2a, 0x10, 0x3e,
  0x46, 0x83, 0x51, 0xbd, 0x47, 0x5e, 0x73, 0x3e, 0x5e, 0x32, 0x72, 0xbe,
  0xb7, 0x9a, 0x64, 0x3e, 0x99, 0xff, 0x26, 0x3e, 0xe0, 0xe1, 0x0e, 0x3e,
  0xa3, 0xff, 0x68, 0x3e, 0x52, 0x31, 0x2e, 0x3e, 0x21, 0xf3, 0x75, 0x3e,
  0xf7, 0xd3, 0x2e, 0xbd, 0x49, 0xbb, 0x85, 0x3d, 0xf6, 0x28, 0x7a, 0x3e,
  0x88, 0xf0, 0x06, 0xbe, 0x97, 0x8d, 0x19, 0xbe, 0x6d, 0xdf, 0x87, 0xbd,
  0xfd, 0x90, 0xcc, 0xbd, 0xb4, 0x97, 0x0b, 0x3e, 0xac, 0x51, 0xdc, 0xbd,
  0x54, 0x87, 0xed, 0xbd, 0x3f, 0x54, 0x36, 0xbe, 0xdc, 0xa5, 0xa0, 0xbe,
  0x6e, 0x5c, 0xe0, 0xbd, 0x5e, 0xb9, 0xb1, 0xbe, 0x73, 0x02, 0x07, 0x3e,
  0x20, 0x91, 0x95, 0xbe, 0xa0, 0x40, 0xa0, 0xbc, 0x4a, 0xaa, 0x2c, 0xbe,
  0x4e, 0x70, 0x3e, 0xbe, 0xb4, 0xa2, 0x07, 0x3e, 0x87, 0x3e, 0x7f, 0xbd,
  0x45, 0xbc, 0xb6, 0x3d, 0x0d, 0x89, 0x10, 0x3e, 0xd0, 0x1f, 0x4f, 0x3e,
  0x8b, 0x5a, 0x87, 0x3e, 0x95, 0x9c, 0x25, 0x3e, 0x9f, 0x69, 0xbf, 0xbd,
  0x21, 0x2f, 0xac, 0x3e, 0x32, 0xdc, 0x6f, 0x3d, 0x7f, 0x1b, 0xfc, 0xbd,
  0x5f, 0x13, 0x88, 0x3e, 0xea, 0x84, 0x11, 0xbe, 0x49, 0x50, 0x4b, 0x3e,
  0x81, 0xd1, 0x52, 0xbe, 0xa1, 0xb1, 0x47, 0x3d, 0x82, 0x9a, 0xe5, 0xbd,
  0x6c, 0x3e, 0x0c, 0x3e, 0x7a, 0x8e, 0x4b, 0x3e, 0x50, 0x50, 0x3b, 0x3e,
  0x46, 0xb8, 0x6c, 0xbe, 0x24, 0x8b, 0xfe, 0xbd, 0x85, 0x59, 0x54, 0xbe,
  0xfe, 0x0d, 0x51, 0xbe, 0x20, 0x56, 0xe9, 0x3d, 0x54, 0xa8, 0x72, 0xbd,
  0xa2, 0x47, 0x35, 0x3d, 0xe4, 0xc6, 0xd0, 0x3d, 0x98, 0xba, 0x80, 0x3c,
  0x4e, 0x9e, 0x87, 0x3d, 0x04, 0x2e, 0xf9, 0xbd, 0x99, 0x2d, 0x3a, 0x3c,
  0x22, 0x84, 0x84, 0xbd, 0x96, 0x53, 0x47, 0xbd, 0x2f, 0x5b, 0x1f, 0x3e,
  0x33, 0x09, 0x86, 0x3e, 0xcb, 0x99, 0x87, 0x3e, 0x9f, 0x95, 0x9f, 0xbd,
  0x11, 0x7f, 0x98, 0x3e, 0x78, 0xd3, 0x79, 0xbe, 0x0b, 0xca, 0xa1, 0xbd,
  0x27, 0xc0, 0x8b, 0x3c, 0x2c, 0xcd, 0x47, 0xbe, 0x8a, 0x4d, 0xb7, 0xbe,
  0x7d, 0x76, 0x52, 0xbe, 0xf8, 0x2c, 0xa5, 0xbe, 0x39, 0xd6, 0x97, 0xbe,
  0x83, 0x85, 0x07, 0x3e, 0x4e, 0x20, 0x81, 0xbe, 0xb5, 0x2e, 0x85, 0xbe,
  0xaa, 0xa8, 0x63, 0x3e, 0x78, 0x07, 0x94, 0x3e, 0xf1, 0xc6, 0xaf, 0x3e,
  0x91, 0x03, 0xd9, 0x3d, 0x48, 0x18, 0x06, 0xbe, 0x83, 0x2d, 0x9f, 0xbe,
  0x00, 0x9b, 0xb6, 0xbd, 0x1a, 0x55, 0xdd, 0x3d, 0x9a, 0x21, 0xa0, 0x3e,
  0xbc, 0x4e, 0x5b, 0x3d, 0x13, 0x4d, 0xe8, 0xbd, 0x06, 0xe4, 0x2c, 0x3e,
  0x8f, 0x18, 0x92, 0x3e, 0x86, 0x10, 0x81, 0x3e, 0x02, 0xaa, 0xcc, 0xbd,
  0x39, 0x52, 0x83, 0x3e, 0xee, 0xa2, 0x05, 0xbd, 0x5d, 0xd8, 0xda, 0xbc,
  0xee, 0x5d, 0xd9, 0x3c, 0x4b, 0x7b, 0xdb, 0x3d, 0xca, 0xe1, 0xc9, 0xbe,
  0xe7, 0x28, 0x91, 0x3e, 0x00, 0xeb, 0x73, 0xbe, 0x20, 0xab, 0x95, 0xbd,
  0x93, 0x9a, 0x7f, 0xbe, 0x27, 0xe9, 0xb2, 0xbe, 0xe8, 0x4d, 0xa2, 0xbe,
  0xec, 0xf8, 0x56, 0xbe, 0xd1, 0x57, 0x50, 0xbe, 0x38, 0xe5, 0x93, 0x3e,
  0x9f, 0x76, 0xdd, 0xbe, 0xb9, 0xe9, 0x88, 0x3b, 0xeb, 0x04, 0x9c, 0x3e,
  0x3b, 0x9a, 0x1d, 0x3e, 0xfb, 0x0f, 0xa2, 0x3d, 0x88, 0x89, 0xcd, 0x3e,
  0xad, 0x2f, 0x8b, 0xbd, 0xcc, 0x00, 0xca, 0xbd, 0xdc, 0x49, 0x21, 0x3d,
  0xf6, 0x9f, 0xeb, 0xbd, 0xce, 0x0e, 0xb1, 0xbc, 0xc5, 0x17, 0x08, 0xbe,
  0xa3, 0xdf, 0xd7, 0x3c, 0xd0, 0x71, 0x5c, 0x3e, 0x0c, 0xcd, 0xf5, 0xbd,
  0xb2, 0xf0, 0x56, 0x3e, 0x09, 0x0b, 0xc9, 0xbd, 0x98, 0x5b, 0x82, 0x3d,
  0xe2, 0x71, 0x11, 0x3d, 0x16, 0x3e, 0xbd, 0x3d, 0x38, 0x65, 0xa6, 0x3e,
  0xaf, 0xc9, 0xe1, 0x3d, 0x47, 0xae, 0xaa, 0x3e, 0x06, 0x45, 0x99, 0x3c,
  0x8e, 0xb1, 0xa2, 0x3e, 0x98, 0xec, 0x32, 0x3e, 0xf5, 0x8e, 0xa7, 0x3e,
  0x31, 0x03, 0xc1, 0x3e, 0x1e, 0xa0, 0x32, 0xbd, 0x65, 0x07, 0x7b, 0xbd,
  0xff, 0x15, 0xb9, 0x3e, 0xbb, 0xd8, 0x2a, 0x3d, 0x45, 0xf7, 0x5c, 0x3d,
  0xbf, 0xc3, 0xad, 0x3e, 0x5c, 0xdd, 0x18, 0xbe, 0xc9, 0xca, 0xd5, 0x3d,
  0xf7, 0x5e, 0x23, 0xbd, 0xe2, 0x15, 0xb1, 0x3d, 0xd6, 0x38, 0x6b, 0xbe,
  0xf4, 0x43, 0xb3, 0x3e, 0x9c, 0xd7, 0xf4, 0xbd, 0xea, 0x7e, 0x85, 0xbe,
  0xe4, 0x45, 0x71, 0xbd, 0x69, 0x3c, 0x7d, 0xbe, 0x5a, 0x82, 0xcd, 0xbe,
  0xf8, 0xfe, 0x6d, 0xbe, 0x4c, 0x7a, 0x09, 0x3d, 0xd6, 0x09, 0xc7, 0xbd,
  0xe1, 0xd9, 0xbb, 0xbe, 0xf8, 0xc1, 0x3d, 0xbd, 0x28, 0xfa, 0x44, 0xbd,
  0x2b, 0xd0, 0x00, 0x3e, 0x74, 0x54, 0x1a, 0xbe, 0x9f, 0x5b, 0x68, 0x3e,
  0xcd, 0x23, 0x73, 0x3e, 0x40, 0x67, 0xc6, 0xbc, 0x79, 0x49, 0x00, 0xbe,
  0x0b, 0xa9, 0x96, 0xbe, 0x1e, 0x3b, 0x70, 0xbe, 0x77, 0xc2, 0x95, 0xbe,
  0xd7, 0xa7, 0xbb, 0xbe, 0xde, 0xe9, 0x67, 0xbe, 0x43, 0xd8, 0x80, 0xbe,
  0x8f, 0xd6, 0x2b, 0xbd, 0x15, 0xdb, 0xb2, 0xbe, 0x9d, 0xe2, 0x25, 0x3e,
  0xce, 0xe6, 0x0d, 0xbe, 0x3d, 0xce, 0x3e, 0xbd, 0x7c, 0x36, 0x4e, 0x3d,
  0x41, 0x9e, 0xa4, 0x3d, 0xbd, 0x8c, 0xc2, 0x3d, 0xd5, 0xf6, 0xbe, 0x3d,
  0xb5, 0xf0, 0xe5, 0xbd, 0x13, 0xca, 0x72, 0xbe, 0xe2, 0x07, 0xaa, 0xbc,
  0x4f, 0xc4, 0x03, 0x3e, 0x83, 0x68, 0x8f, 0x3c, 0x28, 0x25, 0xa2, 0x3e,
  0xb5, 0xbc, 0x70, 0xbd, 0xd9, 0x50, 0xa8, 0x3d, 0xe5, 0x6c, 0x72, 0x3e,
  0xd3, 0x9e, 0x32, 0xbd, 0x6c, 0x1d, 0xa2, 0x3e, 0x15, 0x64, 0x1e, 0xbe,
  0x28, 0xbd, 0x23, 0x3d, 0x59, 0xf5, 0x86, 0x3e, 0x95, 0x8e, 0x9f, 0x3e,
  0x6b, 0xbc, 0x8f, 0xbe, 0xdc, 0xfc, 0x79, 0x3e, 0x7d, 0xe9, 0x84, 0x3e,
  0xde, 0xec, 0xbf, 0xbe, 0x95, 0x58, 0xc7, 0xbc, 0x70, 0x0e, 0x68, 0x3d,
  0x86, 0x80, 0x2b, 0xbe, 0x32, 0x0a, 0xa4, 0xbe, 0x26, 0x63, 0x68, 0x3e,
  0x3c, 0xab, 0xb3, 0xbe, 0x2f, 0x91, 0x0f, 0xbd, 0x01, 0x26, 0x2c, 0x3e,
  0x0c, 0x7f, 0x5c, 0x3d, 0x1e, 0xd3, 0x10, 0xbe, 0xff, 0xdd, 0x8c, 0xba,
  0xba, 0xba, 0x23, 0xbe, 0x76, 0x83, 0x4a, 0xbe, 0x08, 0x39, 0xbf, 0xbe,
  0xea, 0x40, 0x82, 0xbe, 0x9b, 0x28, 0x3c, 0x3e, 0xfe, 0x7e, 0x0e, 0xbe,
  0xe4, 0xcc, 0xe8, 0xbd, 0xdd, 0x6d, 0xa2, 0x3e, 0xab, 0xf7, 0x7e, 0xbe,
  0xc0, 0xb4, 0x74, 0x3e, 0xc8, 0xf0, 0x2d, 0x3c, 0xd7, 0x1a, 0x37, 0x3e,
  0xd9, 0xd0, 0x0f, 0xbe, 0x8d, 0x42, 0x81, 0xbd, 0xa3, 0xf9, 0xb2, 0xbe,
  0xeb, 0x2e, 0x78, 0x3d, 0x63, 0xc1, 0x29, 0xbd, 0xee, 0xf8, 0x09, 0xbe,
  0x44, 0x5b, 0x29, 0xbe, 0x80, 0x5e, 0x8a, 0xbe, 0x65, 0x8f, 0x2f, 0x3e,
  0x68, 0x36, 0x33, 0xbe, 0xa7, 0xf5, 0x94, 0x3e, 0x33, 0x5b, 0x48, 0xbd,
  0x51, 0xfc, 0x7a, 0xbe, 0x7d, 0x5d, 0xa0, 0xba, 0xdc, 0x97, 0x8a, 0x3c,
  0x7a, 0xc5, 0x95, 0x3d, 0x12, 0xf4, 0xf2, 0x3d, 0x82, 0x18, 0x4a, 0x3e,
  0xb5, 0x65, 0x8b, 0xbd, 0x63, 0x2c, 0x72, 0x3d, 0xa8, 0x1b, 0x65, 0xbb,
  0x06, 0x9f, 0xb7, 0x3d, 0xe6, 0xad, 0x55, 0x3e, 0xb6, 0x27, 0xec, 0x3d,
  0x74, 0x3a, 0xf4, 0x3d, 0x9a, 0x90, 0x8d, 0xbd, 0xe1, 0x55, 0x42, 0xbe,
  0x91, 0xc2, 0x4f, 0x3c, 0xdb, 0xce, 0x57, 0xbe, 0x91, 0x41, 0x4b, 0xbe,
  0x6d, 0xa3, 0xa6, 0x3e, 0x43, 0xcc, 0x9b, 0x3d, 0x7d, 0x9d, 0xeb, 0x3d,
  0x21, 0xa1, 0x16, 0x3e, 0xa2, 0x17, 0x83, 0xbe, 0x71, 0x78, 0x49, 0xbc,
  0x15, 0x62, 0x0d, 0xbe, 0x6d, 0xc0, 0xf2, 0xbd, 0x3b, 0x20, 0x09, 0x3e,
  0x67, 0xb5, 0x5f, 0x3e, 0xe0, 0x0e, 0x44, 0xbe, 0x50, 0x25, 0x0c, 0x3e,
  0x59, 0x1a, 0x45, 0xbe, 0x52, 0x0a, 0x88, 0x3e, 0x80, 0x09, 0x17, 0xbe,
  0x74, 0x02, 0xef, 0xbd, 0xf3, 0x35, 0xe8, 0x3d, 0xa2, 0xc0, 0x07, 0xbd,
  0x49, 0xdd, 0x96, 0x3e, 0xa1, 0xd9, 0x92, 0xbd, 0xbe, 0xb6, 0x58, 0x3e,
  0xfd, 0x1b, 0xd7, 0x3d, 0xe2, 0xf3, 0xa8, 0xbd, 0xd7, 0x42, 0xb3, 0xbe,
  0x8c, 0xc1, 0xb2, 0x3d, 0x08, 0x4d, 0x7a, 0xbd, 0xbf, 0x8c, 0x79, 0xbd,
  0xd9, 0xba, 0xf2, 0xbd, 0xd5, 0xf3, 0xa5, 0xbe, 0x14, 0x36, 0x76, 0x3c,
  0x44, 0x89, 0xa2, 0x3d, 0xfd, 0x2b, 0xb7, 0x3e, 0x71, 0xad, 0x44, 0xbd,
  0x59, 0x37, 0x83, 0xbe, 0x0a, 0x05, 0x41, 0xbe, 0x25, 0x79, 0x89, 0x3e,
  0x55, 0xf5, 0x46, 0x3e, 0x49, 0x6d, 0x03, 0x3e, 0xc1, 0xd4, 0xaa, 0x3e,
  0x0c, 0xd8, 0xa2, 0xbd, 0xba, 0xbe, 0x9f, 0x3e, 0xda, 0xb5, 0x88, 0x3c,
  0xab, 0x0d, 0x85, 0xbd, 0xad, 0x3e, 0xd3, 0xbe, 0x00, 0x59, 0x6a, 0x3d,
  0xae, 0x2a, 0x9a, 0xbe, 0x24, 0x17, 0xd4, 0x3d, 0x42, 0xe8, 0x65, 0xbd,
  0x97, 0xbb, 0xe8, 0xbd, 0xcb, 0x16, 0x3c, 0xbe, 0xa7, 0x5c, 0x09, 0xbe,
  0x04, 0xbd, 0xc6, 0xbd, 0xd4, 0x9f, 0x3e, 0xbe, 0xf0, 0x9d, 0x22, 0xbe,
  0xf6, 0xe2, 0x27, 0x3c, 0xe7, 0x3f, 0x43, 0xbe, 0xc3, 0x05, 0x61, 0x3e,
  0x79, 0xf7, 0x04, 0x3e, 0x42, 0xfc, 0xff, 0xff, 0x04, 0x00, 0x00, 0x00,
  0x00, 0x01, 0x00, 0x00, 0x08, 0xeb, 0x75, 0x3d, 0xac, 0xd3, 0xa9, 0x3d,
  0x53, 0x0e, 0xb6, 0x3d, 0x3f, 0x38, 0xbe, 0x3d, 0x20, 0x27, 0x6c, 0x3d,
  0x70, 0x2a, 0x31, 0xbd, 0x0a, 0x80, 0x11, 0x3e, 0x73, 0xdb, 0x6b, 0x3d,
  0x1d, 0x14, 0xac, 0x3d, 0x70, 0xec, 0x78, 0x3d, 0x13, 0x9f, 0x81, 0x3d,
  0xa3, 0x64, 0x5b, 0x3e, 0xa2, 0x91, 0x07, 0xbd, 0x99, 0xec, 0x76, 0x3d,
  0xcf, 0x35, 0xaa, 0x3d, 0xf5, 0xc8, 0x12, 0xbd, 0x15, 0xd0, 0xaf, 0x3d,
  0x01, 0xf0, 0x4c, 0x3c, 0x52, 0xdb, 0x14, 0xbd, 0x83, 0x3d, 0xc1, 0x3d,
  0x76, 0x3b, 0x45, 0xbd, 0x6b, 0x6c, 0x83, 0x3d, 0xfe, 0x32, 0x10, 0xbd,
  0x44, 0x9d, 0x48, 0xbd, 0x78, 0x17, 0x5d, 0x3e, 0x00, 0xe0, 0x17, 0xbd,
  0x15, 0x49, 0x28, 0xbd, 0x96, 0xaa, 0xb1, 0x3d, 0x09, 0xce, 0xa2, 0x3d,
  0xd0, 0x2b, 0x71, 0x3d, 0x14, 0x4e, 0xd5, 0xbc, 0xa4, 0x78, 0x40, 0xbd,
  0xd4, 0x54, 0xf9, 0xbc, 0xb1, 0xd5, 0xd9, 0x3d, 0xb5, 0x51, 0x96, 0x3d,
  0xef, 0x64, 0xb4, 0x3d, 0xbb, 0x96, 0xa6, 0x3d, 0x9e, 0xc7, 0xd1, 0x3d,
  0xe3, 0x4a, 0x22, 0x3e, 0x80, 0xa8, 0xef, 0x3d, 0x3f, 0x40, 0x73, 0xbd,
  0xb7, 0xc7, 0x87, 0x3d, 0x39, 0x01, 0x1d, 0x3e, 0x66, 0x7b, 0xbb, 0x3d,
  0x33, 0xf7, 0x30, 0x3e, 0xb8, 0xdd, 0x11, 0xbd, 0xf5, 0x26, 0xc7, 0x3d,
  0x31, 0x81, 0x82, 0x3c, 0x4b, 0x36, 0x97, 0x3d, 0x73, 0x53, 0x85, 0x3d,
  0xfb, 0xc3, 0xb3, 0x3d, 0x1e, 0xda, 0x98, 0x3d, 0x26, 0x74, 0xe7, 0xbc,
  0xad, 0x16, 0xb6, 0x3d, 0xe9, 0x54, 0xb6, 0xbc, 0x83, 0x67, 0x7f, 0x3d,
  0x9a, 0x82, 0xb2, 0x3a, 0xe0, 0x20, 0x3e, 0xbd, 0xde, 0xaa, 0x14, 0xbd,
  0x44, 0x21, 0xa3, 0x3d, 0x5b, 0xbd, 0x9a, 0x3d, 0xd7, 0x30, 0x75, 0x3d,
  0x39, 0xc4, 0xed, 0x3d, 0xd6, 0x8c, 0x71, 0xbd, 0x4e, 0xfd, 0xff, 0xff,
  0x04, 0x00, 0x00, 0x00, 0x08, 0x00, 0x00, 0x00, 0x64, 0xe7, 0x5c, 0x3d,
  0x5f, 0xe7, 0x5c, 0xbd, 0x62, 0xfd, 0xff, 0xff, 0x04, 0x00, 0x00, 0x00,
  0x00, 0x02, 0x00, 0x00, 0xc4, 0x52, 0x68, 0xbd, 0x57, 0x09, 0x28, 0x3e,
  0x37, 0x20, 0x9a, 0x3e, 0xe3, 0xf2, 0x51, 0x3e, 0xa3, 0x0d, 0x59, 0xbe,
  0x88, 0x60, 0xbf, 0x3d, 0xd6, 0xb5, 0xbf, 0x3c, 0xea, 0xa8, 0x02, 0xbe,
  0x19, 0xa3, 0x7c, 0xbd, 0xb1, 0x3d, 0x46, 0xbc, 0xae, 0x50, 0x90, 0xbe,
  0x0e, 0x68, 0x46, 0x3d, 0x98, 0x2b, 0x14, 0xbe, 0x31, 0xb9, 0x22, 0xbe,
  0xb3, 0x78, 0x49, 0x3d, 0x24, 0xc9, 0x5d, 0x3e, 0xf0, 0x82, 0xb9, 0x3e,
  0x2c, 0x4a, 0xa2, 0xbe, 0xf4, 0x65, 0x15, 0x3e, 0xeb, 0x48, 0x0c, 0x3e,
  0xf1, 0x77, 0x08, 0x3e, 0x0f, 0x14, 0x65, 0xbe, 0xa3, 0xc0, 0x82, 0xbe,
  0xae, 0x66, 0x32, 0xbe, 0xc2, 0x53, 0xa7, 0xbe, 0xba, 0xf8, 0x67, 0x3e,
  0xee, 0xc2, 0x42, 0xbd, 0x24, 0x04, 0xaf, 0x3e, 0xdd, 0xad, 0xac, 0x3e,
  0xc2, 0x45, 0xb3, 0xbe, 0xc6, 0x52, 0xb3, 0xbd, 0x89, 0x7c, 0x04, 0xbd,
  0x6d, 0x42, 0x00, 0x3e, 0xa2, 0x2d, 0x0f, 0x3e, 0x56, 0x3c, 0x43, 0x3e,
  0x8d, 0xcc, 0xa7, 0xbd, 0x83, 0x3c, 0xa9, 0xbe, 0x86, 0xdb, 0x67, 0x3e,
  0x5f, 0x0a, 0x4e, 0xbe, 0x04, 0x47, 0x9f, 0xbd, 0xcd, 0xa3, 0x6f, 0xbe,
  0xa8, 0x25, 0x50, 0xbe, 0x47, 0x92, 0x14, 0xbe, 0x1c, 0xd2, 0x1b, 0x3e,
  0x8f, 0x5b, 0x8f, 0x3e, 0x32, 0x21, 0xd5, 0x3d, 0x05, 0xda, 0xa6, 0xbd,
  0xb1, 0x4c, 0x20, 0x3e, 0xdd, 0xbf, 0xbf, 0xbe, 0xb5, 0x0b, 0x21, 0x3c,
  0x2c, 0xa4, 0xa6, 0x3e, 0xd9, 0xfa, 0x28, 0x3e, 0x93, 0xd1, 0xe2, 0x3d,
  0x2e, 0xa8, 0x63, 0x3e, 0xa5, 0x9f, 0xd4, 0xbd, 0x1a, 0x3d, 0x93, 0xbe,
  0x1e, 0xa2, 0x9c, 0xbe, 0xb0, 0x78, 0xcf, 0xbc, 0x45, 0x20, 0x3e, 0x3b,
  0x17, 0x45, 0x98, 0xbe, 0x0c, 0xcf, 0xbc, 0x3e, 0xc8, 0x85, 0x55, 0xbe,
  0xc3, 0x99, 0x9b, 0x3e, 0x32, 0xbc, 0x12, 0xbe, 0xb9, 0xc9, 0x9f, 0x3e,
  0x6e, 0x41, 0x31, 0xbe, 0xa5, 0x7f, 0x05, 0xbe, 0xb1, 0x21, 0x52, 0xbd,
  0xcb, 0xaf, 0xb9, 0x3e, 0x2b, 0x66, 0x86, 0xbe, 0x49, 0xe5, 0x3d, 0x3e,
  0xb5, 0xf5, 0x9a, 0x3e, 0x2f, 0xe8, 0xc5, 0xbe, 0xe8, 0x6a, 0xb7, 0x3e,
  0x7e, 0x99, 0x2c, 0x3d, 0x2b, 0x07, 0xe2, 0x3e, 0xbb, 0x4e, 0x21, 0xbd,
  0x8a, 0x84, 0x55, 0x3e, 0x87, 0x89, 0xac, 0x3e, 0xf3, 0x15, 0x3a, 0x3e,
  0xa9, 0xd4, 0xee, 0xbd, 0x65, 0x7a, 0x80, 0xbe, 0xfd, 0x88, 0x0e, 0x3e,
  0x4f, 0x37, 0xc5, 0x3e, 0xeb, 0x39, 0xea, 0xbd, 0x4d, 0x84, 0x87, 0x3d,
  0x32, 0xda, 0x97, 0x3d, 0xf5, 0xdc, 0xcc, 0xbd, 0x00, 0x2d, 0xf8, 0x3d,
  0xd4, 0x26, 0x71, 0xbb, 0xd9, 0x24, 0xcd, 0xbd, 0x60, 0xae, 0xa7, 0xbe,
  0xf6, 0x24, 0xa6, 0xbe, 0xcf, 0x3c, 0x60, 0x3d, 0x4c, 0x0b, 0xb0, 0xbd,
  0x1c, 0x69, 0x1b, 0x3e, 0x68, 0x91, 0xd3, 0xbd, 0x06, 0x3e, 0xa5, 0x3e,
  0x48, 0x3a, 0x8a, 0xbe, 0xba, 0xb3, 0xc8, 0x3d, 0xb0, 0xb1, 0xc3, 0x3e,
  0x68, 0x84, 0x96, 0xbe, 0xf0, 0x0a, 0xbc, 0xbe, 0x5d, 0xce, 0x94, 0x3e,
  0xa6, 0x6a, 0x1b, 0x3e, 0x98, 0xb3, 0x1b, 0x3d, 0xc6, 0xd5, 0x94, 0x3d,
  0x2e, 0xca, 0x6f, 0xbe, 0xec, 0xe4, 0x7f, 0xbd, 0x54, 0x68, 0x6c, 0xbc,
  0x65, 0x2d, 0xa0, 0xbe, 0x2f, 0x74, 0x48, 0xbe, 0xdc, 0x06, 0x4c, 0x3e,
  0x04, 0x7f, 0x83, 0x3e, 0x0b, 0x03, 0x51, 0x3d, 0x8f, 0xf5, 0x3e, 0xbe,
  0x59, 0x8a, 0x5c, 0x3e, 0x22, 0xde, 0xf7, 0xbd, 0xcb, 0xd6, 0x8c, 0x3e,
  0xda, 0xf9, 0xa1, 0x3e, 0x40, 0x02, 0xbb, 0x3d, 0x39, 0xf4, 0x82, 0xbe,
  0x1a, 0xee, 0x51, 0x3e, 0x8d, 0xb6, 0xc9, 0xbd, 0x44, 0x50, 0x44, 0xbe,
  0xe3, 0xce, 0x25, 0x3e, 0xcd, 0xb3, 0x01, 0xbe, 0x81, 0x9b, 0xf9, 0x3d,
  0xb4, 0xfb, 0xff, 0xff, 0xb8, 0xfb, 0xff, 0xff, 0x0f, 0x00, 0x00, 0x00,
  0x4d, 0x4c, 0x49, 0x52, 0x20, 0x43, 0x6f, 0x6e, 0x76, 0x65, 0x72, 0x74,
  0x65, 0x64, 0x2e, 0x00, 0x01, 0x00, 0x00, 0x00, 0x14, 0x00, 0x00, 0x00,
  0x00, 0x00, 0x0e, 0x00, 0x18, 0x00, 0x14, 0x00, 0x10, 0x00, 0x0c, 0x00,
  0x08, 0x00, 0x04, 0x00, 0x0e, 0x00, 0x00, 0x00, 0x14, 0x00, 0x00, 0x00,
  0x1c, 0x00, 0x00, 0x00, 0xec, 0x00, 0x00, 0x00, 0xf0, 0x00, 0x00, 0x00,
  0xf4, 0x00, 0x00, 0x00, 0x04, 0x00, 0x00, 0x00, 0x6d, 0x61, 0x69, 0x6e,
  0x00, 0x00, 0x00, 0x00, 0x03, 0x00, 0x00, 0x00, 0x94, 0x00, 0x00, 0x00,
  0x50, 0x00, 0x00, 0x00, 0x14, 0x00, 0x00, 0x00, 0x00, 0x00, 0x0e, 0x00,
  0x1a, 0x00, 0x14, 0x00, 0x10, 0x00, 0x0c, 0x00, 0x0b, 0x00, 0x04, 0x00,
  0x0e, 0x00, 0x00, 0x00, 0x1c, 0x00, 0x00, 0x00, 0x00, 0x00, 0x00, 0x09,
  0x1c, 0x00, 0x00, 0x00, 0x20, 0x00, 0x00, 0x00, 0x01, 0x00, 0x00, 0x00,
  0x00, 0x00, 0x06, 0x00, 0x08, 0x00, 0x04, 0x00, 0x06, 0x00, 0x00, 0x00,
  0x00, 0x00, 0x80, 0x3f, 0x01, 0x00, 0x00, 0x00, 0x07, 0x00, 0x00, 0x00,
  0x01, 0x00, 0x00, 0x00, 0x06, 0x00, 0x00, 0x00, 0xce, 0xff, 0xff, 0xff,
  0x10, 0x00, 0x00, 0x00, 0x00, 0x00, 0x00, 0x08, 0x0c, 0x00, 0x00, 0x00,
  0x10, 0x00, 0x00, 0x00, 0x78, 0xfc, 0xff, 0xff, 0x01, 0x00, 0x00, 0x00,
  0x06, 0x00, 0x00, 0x00, 0x03, 0x00, 0x00, 0x00, 0x05, 0x00, 0x00, 0x00,
  0x01, 0x00, 0x00, 0x00, 0x02, 0x00, 0x00, 0x00, 0x00, 0x00, 0x0e, 0x00,
  0x16, 0x00, 0x00, 0x00, 0x10, 0x00, 0x0c, 0x00, 0x0b, 0x00, 0x04, 0x00,
  0x0e, 0x00, 0x00, 0x00, 0x18, 0x00, 0x00, 0x00, 0x00, 0x00, 0x00, 0x08,
  0x18, 0x00, 0x00, 0x00, 0x1c, 0x00, 0x00, 0x00, 0x00, 0x00, 0x06, 0x00,
  0x08, 0x00, 0x07, 0x00, 0x06, 0x00, 0x00, 0x00, 0x00, 0x00, 0x00, 0x01,
  0x01, 0x00, 0x00, 0x00, 0x05, 0x00, 0x00, 0x00, 0x03, 0x00, 0x00, 0x00,
  0x00, 0x00, 0x00, 0x00, 0x04, 0x00, 0x00, 0x00, 0x03, 0x00, 0x00, 0x00,
  0x01, 0x00, 0x00, 0x00, 0x07, 0x00, 0x00, 0x00, 0x01, 0x00, 0x00, 0x00,
  0x00, 0x00, 0x00, 0x00, 0x08, 0x00, 0x00, 0x00, 0xe4, 0x02, 0x00, 0x00,
  0x8c, 0x02, 0x00, 0x00, 0x18, 0x02, 0x00, 0x00, 0xc0, 0x01, 0x00, 0x00,
  0x74, 0x01, 0x00, 0x00, 0xe0, 0x00, 0x00, 0x00, 0x60, 0x00, 0x00, 0x00,
  0x04, 0x00, 0x00, 0x00, 0x52, 0xfd, 0xff, 0xff, 0x00, 0x00, 0x00, 0x01,
  0x14, 0x00, 0x00, 0x00, 0x1c, 0x00, 0x00, 0x00, 0x1c, 0x00, 0x00, 0x00,
  0x08, 0x00, 0x00, 0x00, 0x34, 0x00, 0x00, 0x00, 0x02, 0x00, 0x00, 0x00,
  0xff, 0xff, 0xff, 0xff, 0x02, 0x00, 0x00, 0x00, 0x3c, 0xfd, 0xff, 0xff,
  0x1b, 0x00, 0x00, 0x00, 0x53, 0x74, 0x61, 0x74, 0x65, 0x66, 0x75, 0x6c,
  0x50, 0x61, 0x72, 0x74, 0x69, 0x74, 0x69, 0x6f, 0x6e, 0x65, 0x64, 0x43,
  0x61, 0x6c, 0x6c, 0x5f, 0x31, 0x3a, 0x30, 0x00, 0x02, 0x00, 0x00, 0x00,
  0x01, 0x00, 0x00, 0x00, 0x02, 0x00, 0x00, 0x00, 0xaa, 0xfd, 0xff, 0xff,
  0x00, 0x00, 0x00, 0x01, 0x14, 0x00, 0x00, 0x00, 0x1c, 0x00, 0x00, 0x00,
  0x1c, 0x00, 0x00, 0x00, 0x07, 0x00, 0x00, 0x00, 0x58, 0x00, 0x00, 0x00,
  0x02, 0x00, 0x00, 0x00, 0xff, 0xff, 0xff, 0xff, 0x02, 0x00, 0x00, 0x00,
  0x94, 0xfd, 0xff, 0xff, 0x3c, 0x00, 0x00, 0x00, 0x73, 0x65, 0x71, 0x75,
  0x65, 0x6e, 0x74, 0x69, 0x61, 0x6c, 0x5f, 0x31, 0x2f, 0x64, 0x65, 0x6e,
  0x73, 0x65, 0x5f, 0x31, 0x5f, 0x32, 0x2f, 0x4d, 0x61, 0x74, 0x4d, 0x75,
  0x6c, 0x3b, 0x73, 0x65, 0x71, 0x75, 0x65, 0x6e, 0x74, 0x69, 0x61, 0x6c,
  0x5f, 0x31, 0x2f, 0x64, 0x65, 0x6e, 0x73, 0x65, 0x5f, 0x31, 0x5f, 0x32,
  0x2f, 0x42, 0x69, 0x61, 0x73, 0x41, 0x64, 0x64, 0x00, 0x00, 0x00, 0x00,
  0x02, 0x00, 0x00, 0x00, 0x01, 0x00, 0x00, 0x00, 0x02, 0x00, 0x00, 0x00,
  0x26, 0xfe, 0xff, 0xff, 0x00, 0x00, 0x00, 0x01, 0x14, 0x00, 0x00, 0x00,
  0x1c, 0x00, 0x00, 0x00, 0x1c, 0x00, 0x00, 0x00, 0x06, 0x00, 0x00, 0x00,
  0x6c, 0x00, 0x00, 0x00, 0x02, 0x00, 0x00, 0x00, 0xff, 0xff, 0xff, 0xff,
  0x40, 0x00, 0x00, 0x00, 0x10, 0xfe, 0xff, 0xff, 0x52, 0x00, 0x00, 0x00,
  0x73, 0x65, 0x71, 0x75, 0x65, 0x6e, 0x74, 0x69, 0x61, 0x6c, 0x5f, 0x31,
  0x2f, 0x64, 0x65, 0x6e, 0x73, 0x65, 0x5f, 0x31, 0x2f, 0x4d, 0x61, 0x74,
  0x4d, 0x75, 0x6c, 0x3b, 0x73, 0x65, 0x71, 0x75, 0x65, 0x6e, 0x74, 0x69,
  0x61, 0x6c, 0x5f, 0x31, 0x2f, 0x64, 0x65, 0x6e, 0x73, 0x65, 0x5f, 0x31,
  0x2f, 0x52, 0x65, 0x6c, 0x75, 0x3b, 0x73, 0x65, 0x71, 0x75, 0x65, 0x6e,
  0x74, 0x69, 0x61, 0x6c, 0x5f, 0x31, 0x2f, 0x64, 0x65, 0x6e, 0x73, 0x65,
  0x5f, 0x31, 0x2f, 0x42, 0x69, 0x61, 0x73, 0x41, 0x64, 0x64, 0x00, 0x00,
  0x02, 0x00, 0x00, 0x00, 0x01, 0x00, 0x00, 0x00, 0x40, 0x00, 0x00, 0x00,
  0x0a, 0xff, 0xff, 0xff, 0x00, 0x00, 0x00, 0x01, 0x10, 0x00, 0x00, 0x00,
  0x10, 0x00, 0x00, 0x00, 0x05, 0x00, 0x00, 0x00, 0x28, 0x00, 0x00, 0x00,
  0x90, 0xfe, 0xff, 0xff, 0x1b, 0x00, 0x00, 0x00, 0x73, 0x65, 0x71, 0x75,
  0x65, 0x6e, 0x74, 0x69, 0x61, 0x6c, 0x5f, 0x31, 0x2f, 0x64, 0x65, 0x6e,
  0x73, 0x65, 0x5f, 0x31, 0x2f, 0x4d, 0x61, 0x74, 0x4d, 0x75, 0x6c, 0x00,
  0x02, 0x00, 0x00, 0x00, 0x40, 0x00, 0x00, 0x00, 0x08, 0x00, 0x00, 0x00,
  0x52, 0xff, 0xff, 0xff, 0x00, 0x00, 0x00, 0x01, 0x10, 0x00, 0x00, 0x00,
  0x10, 0x00, 0x00, 0x00, 0x04, 0x00, 0x00, 0x00, 0x38, 0x00, 0x00, 0x00,
  0xd8, 0xfe, 0xff, 0xff, 0x2b, 0x00, 0x00, 0x00, 0x73, 0x65, 0x71, 0x75,
  0x65, 0x6e, 0x74, 0x69, 0x61, 0x6c, 0x5f, 0x31, 0x2f, 0x64, 0x65, 0x6e,
  0x73, 0x65, 0x5f, 0x31, 0x2f, 0x42, 0x69, 0x61, 0x73, 0x41, 0x64, 0x64,
  0x2f, 0x52, 0x65, 0x61, 0x64, 0x56, 0x61, 0x72, 0x69, 0x61, 0x62, 0x6c,
  0x65, 0x4f, 0x70, 0x00, 0x01, 0x00, 0x00, 0x00, 0x40, 0x00, 0x00, 0x00,
  0xa6, 0xff, 0xff, 0xff, 0x00, 0x00, 0x00, 0x01, 0x10, 0x00, 0x00, 0x00,
  0x10, 0x00, 0x00, 0x00, 0x03, 0x00, 0x00, 0x00, 0x3c, 0x00, 0x00, 0x00,
  0x2c, 0xff, 0xff, 0xff, 0x2d, 0x00, 0x00, 0x00, 0x73, 0x65, 0x71, 0x75,
  0x65, 0x6e, 0x74, 0x69, 0x61, 0x6c, 0x5f, 0x31, 0x2f, 0x64, 0x65, 0x6e,
  0x73, 0x65, 0x5f, 0x31, 0x5f, 0x32, 0x2f, 0x42, 0x69, 0x61, 0x73, 0x41,
  0x64, 0x64, 0x2f, 0x52, 0x65, 0x61, 0x64, 0x56, 0x61, 0x72, 0x69, 0x61,
  0x62, 0x6c, 0x65, 0x4f, 0x70, 0x00, 0x00, 0x00, 0x01, 0x00, 0x00, 0x00,
  0x02, 0x00, 0x00, 0x00, 0x00, 0x00, 0x16, 0x00, 0x18, 0x00, 0x14, 0x00,
  0x00, 0x00, 0x10, 0x00, 0x0c, 0x00, 0x08, 0x00, 0x00, 0x00, 0x00, 0x00,
  0x00, 0x00, 0x07, 0x00, 0x16, 0x00, 0x00, 0x00, 0x00, 0x00, 0x00, 0x01,
  0x10, 0x00, 0x00, 0x00, 0x10, 0x00, 0x00, 0x00, 0x02, 0x00, 0x00, 0x00,
  0x1c, 0x00, 0x00, 0x00, 0x9c, 0xff, 0xff, 0xff, 0x0e, 0x00, 0x00, 0x00,
  0x61, 0x72, 0x69, 0x74, 0x68, 0x2e, 0x63, 0x6f, 0x6e, 0x73, 0x74, 0x61,
  0x6e, 0x74, 0x00, 0x00, 0x02, 0x00, 0x00, 0x00, 0x02, 0x00, 0x00, 0x00,
  0x40, 0x00, 0x00, 0x00, 0x00, 0x00, 0x16, 0x00, 0x1c, 0x00, 0x18, 0x00,
  0x00, 0x00, 0x14, 0x00, 0x10, 0x00, 0x0c, 0x00, 0x00, 0x00, 0x00, 0x00,
  0x08, 0x00, 0x07, 0x00, 0x16, 0x00, 0x00, 0x00, 0x00, 0x00, 0x00, 0x01,
  0x14, 0x00, 0x00, 0x00, 0x20, 0x00, 0x00, 0x00, 0x20, 0x00, 0x00, 0x00,
  0x01, 0x00, 0x00, 0x00, 0x3c, 0x00, 0x00, 0x00, 0x02, 0x00, 0x00, 0x00,
  0xff, 0xff, 0xff, 0xff, 0x08, 0x00, 0x00, 0x00, 0x04, 0x00, 0x04, 0x00,
  0x04, 0x00, 0x00, 0x00, 0x1e, 0x00, 0x00, 0x00, 0x73, 0x65, 0x72, 0x76,
  0x69, 0x6e, 0x67, 0x5f, 0x64, 0x65, 0x66, 0x61, 0x75, 0x6c, 0x74, 0x5f,
  0x6b, 0x65, 0x72, 0x61, 0x73, 0x5f, 0x74, 0x65, 0x6e, 0x73, 0x6f, 0x72,
  0x3a, 0x30, 0x00, 0x00, 0x02, 0x00, 0x00, 0x00, 0x01, 0x00, 0x00, 0x00,
  0x08, 0x00, 0x00, 0x00, 0x02, 0x00, 0x00, 0x00, 0x20, 0x00, 0x00, 0x00,
  0x04, 0x00, 0x00, 0x00, 0xf4, 0xff, 0xff, 0xff, 0x19, 0x00, 0x00, 0x00,
  0x00, 0x00, 0x00, 0x19, 0x0c, 0x00, 0x0c, 0x00, 0x0b, 0x00, 0x00, 0x00,
  0x00, 0x00, 0x04, 0x00, 0x0c, 0x00, 0x00, 0x00, 0x09, 0x00, 0x00, 0x00,
  0x00, 0x00, 0x00, 0x09
};
unsigned int model_tflite_len = 4552;
