unsigned char model_tflite[] = {
  0x1c, 0x00, 0x00, 0x00, 0x54, 0x46, 0x4c, 0x33, 0x14, 0x00, 0x20, 0x00,
  0x1c, 0x00, 0x18, 0x00, 0x14, 0x00, 0x10, 0x00, 0x0c, 0x00, 0x00, 0x00,
  0x08, 0x00, 0x04, 0x00, 0x14, 0x00, 0x00, 0x00, 0x1c, 0x00, 0x00, 0x00,
  0x98, 0x00, 0x00, 0x00, 0xf0, 0x00, 0x00, 0x00, 0xf4, 0x0d, 0x00, 0x00,
  0x04, 0x0e, 0x00, 0x00, 0x68, 0x12, 0x00, 0x00, 0x03, 0x00, 0x00, 0x00,
  0x01, 0x00, 0x00, 0x00, 0x10, 0x00, 0x00, 0x00, 0x00, 0x00, 0x0a, 0x00,
  0x10, 0x00, 0x0c, 0x00, 0x08, 0x00, 0x04, 0x00, 0x0a, 0x00, 0x00, 0x00,
  0x0c, 0x00, 0x00, 0x00, 0x1c, 0x00, 0x00, 0x00, 0x3c, 0x00, 0x00, 0x00,
  0x0f, 0x00, 0x00, 0x00, 0x73, 0x65, 0x72, 0x76, 0x69, 0x6e, 0x67, 0x5f,
  0x64, 0x65, 0x66, 0x61, 0x75, 0x6c, 0x74, 0x00, 0x01, 0x00, 0x00, 0x00,
  0x04, 0x00, 0x00, 0x00, 0x90, 0xff, 0xff, 0xff, 0x07, 0x00, 0x00, 0x00,
  0x04, 0x00, 0x00, 0x00, 0x08, 0x00, 0x00, 0x00, 0x6f, 0x75, 0x74, 0x70,
  0x75, 0x74, 0x5f, 0x30, 0x00, 0x00, 0x00, 0x00, 0x01, 0x00, 0x00, 0x00,
  0x04, 0x00, 0x00, 0x00, 0xf6, 0xf1, 0xff, 0xff, 0x04, 0x00, 0x00, 0x00,
  0x0c, 0x00, 0x00, 0x00, 0x6b, 0x65, 0x72, 0x61, 0x73, 0x5f, 0x74, 0x65,
  0x6e, 0x73, 0x6f, 0x72, 0x00, 0x00, 0x00, 0x00, 0x02, 0x00, 0x00, 0x00,
  0x34, 0x00, 0x00, 0x00, 0x04, 0x00, 0x00, 0x00, 0xdc, 0xff, 0xff, 0xff,
  0x0a, 0x00, 0x00, 0x00, 0x04, 0x00, 0x00, 0x00, 0x13, 0x00, 0x00, 0x00,
  0x43, 0x4f, 0x4e, 0x56, 0x45, 0x52, 0x53, 0x49, 0x4f, 0x4e, 0x5f, 0x4d,
  0x45, 0x54, 0x41, 0x44, 0x41, 0x54, 0x41, 0x00, 0x08, 0x00, 0x0c, 0x00,
  0x08, 0x00, 0x04, 0x00, 0x08, 0x00, 0x00, 0x00, 0x09, 0x00, 0x00, 0x00,
  0x04, 0x00, 0x00, 0x00, 0x13, 0x00, 0x00, 0x00, 0x6d, 0x69, 0x6e, 0x5f,
  0x72, 0x75, 0x6e, 0x74, 0x69, 0x6d, 0x65, 0x5f, 0x76, 0x65, 0x72, 0x73,
  0x69, 0x6f, 0x6e, 0x00, 0x0b, 0x00, 0x00, 0x00, 0x00, 0x0d, 0x00, 0x00,
  0xf8, 0x0c, 0x00, 0x00, 0xe8, 0x09, 0x00, 0x00, 0xcc, 0x09, 0x00, 0x00,
  0xbc, 0x08, 0x00, 0x00, 0xac, 0x00, 0x00, 0x00, 0xa4, 0x00, 0x00, 0x00,
  0x9c, 0x00, 0x00, 0x00, 0x94, 0x00, 0x00, 0x00, 0x74, 0x00, 0x00, 0x00,
  0x04, 0x00, 0x00, 0x00, 0x9e, 0xf2, 0xff, 0xff, 0x04, 0x00, 0x00, 0x00,
  0x60, 0x00, 0x00, 0x00, 0x10, 0x00, 0x00, 0x00, 0x00, 0x00, 0x00, 0x00,
  0x08, 0x00, 0x0e, 0x00, 0x08, 0x00, 0x04, 0x00, 0x08, 0x00, 0x00, 0x00,
  0x10, 0x00, 0x00, 0x00, 0x24, 0x00, 0x00, 0x00, 0x00, 0x00, 0x06, 0x00,
  0x08, 0x00, 0x04, 0x00, 0x06, 0x00, 0x00, 0x00, 0x04, 0x00, 0x00, 0x00,
  0x00, 0x00, 0x00, 0x00, 0x0c, 0x00, 0x18, 0x00, 0x14, 0x00, 0x10, 0x00,
  0x0c, 0x00, 0x04, 0x00, 0x0c, 0x00, 0x00, 0x00, 0x06, 0xe0, 0x2d, 0xe0,
  0xc2, 0x3c, 0x64, 0x53, 0x02, 0x00, 0x00, 0x00, 0x02, 0x00, 0x00, 0x00,
  0x04, 0x00, 0x00, 0x00, 0x06, 0x00, 0x00, 0x00, 0x32, 0x2e, 0x31, 0x39,
  0x2e, 0x30, 0x00, 0x00, 0x0a, 0xf3, 0xff, 0xff, 0x04, 0x00, 0x00, 0x00,
  0x10, 0x00, 0x00, 0x00, 0x31, 0x2e, 0x35, 0x2e, 0x30, 0x00, 0x00, 0x00,
  0x00, 0x00, 0x00, 0x00, 0x00, 0x00, 0x00, 0x00, 0x6c, 0xef, 0xff, 0xff,
  0x70, 0xef, 0xff, 0xff, 0x74, 0xef, 0xff, 0xff, 0x32, 0xf3, 0xff, 0xff,
  0x04, 0x00, 0x00, 0x00, 0x00, 0x08, 0x00, 0x00, 0x7f, 0x2b, 0xa2, 0xbc,
  0x89, 0x0f, 0x3d, 0xbe, 0xa7, 0x02, 0xba, 0x3e, 0x27, 0xf9, 0x34, 0x3c,
  0xe5, 0xf9, 0x5c, 0x3e, 0x9c, 0x4e, 0x10, 0x3d, 0x14, 0x97, 0x11, 0x3e,
  0x32, 0x85, 0xa3, 0x3c, 0x91, 0xf5, 0x8d, 0x3b, 0xc3, 0xd6, 0x82, 0x3c,
  0x45, 0x4e, 0x26, 0x3e, 0x6f, 0x68, 0xb5, 0xbe, 0x3a, 0xab, 0x0b, 0x3e,
  0x42, 0xfc, 0x43, 0xbe, 0xea, 0x4b, 0x0f, 0xbe, 0x89, 0x63, 0x6e, 0x3e,
  0x17, 0xb7, 0x00, 0x3e, 0xff, 0x8e, 0xf1, 0xbc, 0xb6, 0x84, 0x6e, 0x3e,
  0x7f, 0x39, 0xaf, 0x3d, 0x2a, 0xf6, 0x92, 0x3d, 0xa0, 0x06, 0x15, 0xbe,
  0xd8, 0xeb, 0x69, 0xbe, 0x14, 0x04, 0x85, 0xbe, 0x14, 0xa2, 0x5e, 0xbe,
  0x62, 0x63, 0xa4, 0xbe, 0xd7, 0xf1, 0x9a, 0x3e, 0x95, 0x1c, 0x4e, 0x3e,
  0x90, 0xe4, 0x3d, 0xbe, 0x5d, 0x67, 0x3c, 0xbe, 0x66, 0x9c, 0x12, 0x3e,
  0xf7, 0x5d, 0x95, 0x3e, 0xfe, 0x9a, 0xba, 0xbd, 0xba, 0x60, 0x4b, 0xbe,
  0xab, 0xed, 0xaa, 0xbd, 0x62, 0xb8, 0x98, 0x3e, 0xee, 0x5c, 0x2d, 0xbc,
  0xa7, 0x86, 0xac, 0x3b, 0x80, 0x27, 0x0e, 0xbd, 0x53, 0x07, 0x2f, 0x3e,
  0x21, 0xed, 0x9a, 0x3d, 0x66, 0xbe, 0x8f, 0x3e, 0x85, 0x4f, 0x07, 0x3f,
  0xf4, 0x0e, 0x2f, 0xbc, 0x39, 0x36, 0x3e, 0x3e, 0xc0, 0x31, 0xde, 0x3e,
  0x2f, 0x66, 0x83, 0x3e, 0xda, 0xdb, 0x90, 0xbd, 0x61, 0x87, 0x7a, 0x3e,
  0x41, 0x35, 0x9b, 0x3e, 0xf7, 0x56, 0x34, 0x3e, 0x5b, 0xe2, 0x93, 0x3d,
  0x4a, 0xb7, 0x76, 0xbd, 0xf9, 0xca, 0x5e, 0x3d, 0x12, 0x6e, 0x20, 0x3e,
  0x5f, 0x56, 0xc1, 0xbc, 0x95, 0x76, 0x20, 0x3c, 0xfb, 0xc7, 0xa3, 0xbd,
  0x79, 0xd6, 0x95, 0xbe, 0x8f, 0xff, 0xd4, 0x3e, 0x65, 0xa0, 0xfb, 0x3c,
  0xff, 0x3c, 0xaf, 0x3e, 0x23, 0x7e, 0x9d, 0x3c, 0x6f, 0x38, 0xbd, 0xbe,
  0x0c, 0xa8, 0x05, 0x3e, 0xf7, 0x95, 0xb3, 0xbe, 0x60, 0xef, 0xb6, 0x3d,
  0xc3, 0xb6, 0x2f, 0x3d, 0xb0, 0xff, 0x4b, 0xbe, 0x8f, 0x8d, 0x64, 0x3e,
  0x58, 0x44, 0x65, 0xbe, 0xcb, 0xed, 0x65, 0x3e, 0x40, 0x4d, 0x75, 0xbe,
  0x77, 0x11, 0xbc, 0xbd, 0xe4, 0x7b, 0x98, 0x3e, 0x1c, 0x77, 0x73, 0xbc,
  0xf4, 0xd3, 0x2c, 0x3d, 0x3a, 0x35, 0x4d, 0xbe, 0xf8, 0x42, 0xbe, 0xbd,
  0xee, 0xdc, 0x0d, 0x3e, 0x20, 0x18, 0x84, 0xbe, 0x37, 0x7d, 0xed, 0x3d,
  0xd6, 0x93, 0xc7, 0xbd, 0x8f, 0x9e, 0x77, 0xbe, 0x49, 0x81, 0x1e, 0x3e,
  0xe1, 0x5c, 0xdb, 0x3c, 0x26, 0xb9, 0xab, 0xbd, 0x62, 0xf3, 0xa2, 0x3d,
  0xe0, 0xe3, 0x52, 0xbe, 0x10, 0x21, 0x4c, 0x3e, 0x9d, 0xbb, 0xc1, 0xbe,
  0x3d, 0x1a, 0x47, 0x3e, 0x56, 0xe2, 0x1a, 0x3e, 0xb9, 0x11, 0xbe, 0x3d,
  0xe5, 0xcd, 0x85, 0x3e, 0x48, 0x90, 0x35, 0x3b, 0xd5, 0x9b, 0xe4, 0xbe,
  0xa1, 0xbf, 0xa4, 0xbe, 0x5b, 0x00, 0xed, 0xbe, 0x57, 0x60, 0xef, 0xbe,
  0xe8, 0x2e, 0xd5, 0xbd, 0x00, 0xe0, 0x09, 0xbd, 0xd2, 0xb2, 0xaa, 0xbe,
  0xd7, 0xd2, 0xca, 0x3e, 0xf2, 0x4f, 0x5d, 0xbe, 0xbd, 0x6b, 0x96, 0xbe,
  0x1d, 0x95, 0x2a, 0xbe, 0x59, 0x8c, 0x8e, 0xbe, 0xca, 0x8d, 0x41, 0x3e,
  0x6d, 0x06, 0x8c, 0xbe, 0xb7, 0x7d, 0x96, 0xbd, 0x6f, 0xfe, 0xe2, 0xbc,
  0xaf, 0x5a, 0x84, 0x3d, 0x6b, 0xd6, 0xa0, 0x3e, 0x71, 0x26, 0xe1, 0x3e,
  0x2f, 0x2e, 0xa6, 0x3e, 0x36, 0x88, 0x44, 0xbe, 0x69, 0x1b, 0x62, 0xbe,
  0x22, 0xf3, 0x60, 0xbc, 0x87, 0xdd, 0x15, 0x3e, 0xbe, 0x93, 0x0e, 0xbd,
  0xee, 0x16, 0x95, 0x3e, 0x93, 0x74, 0xdd, 0xbe, 0x50, 0x64, 0x44, 0x3d,
  0xa2, 0x88, 0x08, 0x3e, 0xac, 0x2f, 0x7b, 0x3e, 0x13, 0x21, 0x88, 0x3e,
  0x50, 0x22, 0x0e, 0x3e, 0x13, 0x48, 0xf6, 0x3c, 0xb1, 0x72, 0x1e, 0xbe,
  0xb6, 0x81, 0xec, 0x3e, 0xb7, 0x35, 0x11, 0xbe, 0x14, 0xf7, 0x8c, 0x3e,
  0x8c, 0x4a, 0xac, 0xbd, 0x8c, 0x80, 0xd4, 0xbc, 0x0e, 0x89, 0x60, 0xbe,
  0xfb, 0x6b, 0xa3, 0xbd, 0xcf, 0x72, 0x2f, 0xbe, 0xdd, 0xd2, 0x2a, 0x3e,
  0x0b, 0xa7, 0xba, 0xbe, 0x6d, 0x00, 0x1b, 0xbe, 0x65, 0x3b, 0xa4, 0xbe,
  0x17, 0x16, 0x73, 0xbd, 0x0f, 0x09, 0x98, 0x3e, 0xb0, 0xd7, 0x2e, 0xbe,
  0xeb, 0x3c, 0xa0, 0x3e, 0x03, 0x11, 0xe8, 0xbe, 0x55, 0xbd, 0x64, 0x3c,
  0x5b, 0x1a, 0x55, 0x3e, 0xdb, 0x11, 0x9a, 0xbd, 0xaf, 0xce, 0x85, 0x3e,
  0x12, 0xf7, 0x15, 0xbe, 0xcf, 0xc7, 0xab, 0xbd, 0x85, 0x55, 0xa5, 0xbc,
  0xea, 0x65, 0x42, 0xbe, 0x03, 0xa1, 0x26, 0xbe, 0xd7, 0x6f, 0x8c, 0xbc,
  0x4b, 0x9f, 0xf8, 0xbc, 0xd0, 0xe3, 0x2e, 0x3e, 0x6d, 0x54, 0x1b, 0x3e,
  0xe7, 0xfc, 0xa6, 0xbe, 0x5f, 0xe9, 0xdb, 0x3d, 0x9f, 0x82, 0x8a, 0xbe,
  0xc5, 0x2b, 0x28, 0xbe, 0xea, 0x25, 0x04, 0x3e, 0x4e, 0x92, 0x71, 0xbe,
  0xe4, 0xd3, 0x47, 0x3e, 0xd2, 0x34, 0x5f, 0x3e, 0xf7, 0xa7, 0x60, 0x3e,
  0x0b, 0x57, 0xa0, 0xbc, 0x66, 0xf5, 0xb4, 0x3e, 0x27, 0x10, 0x04, 0xbd,
  0x0c, 0xe5, 0xb2, 0x3e, 0xea, 0x98, 0xb1, 0xbd, 0x16, 0x69, 0x82, 0xbd,
  0xc2, 0xdc, 0xd2, 0x3d, 0x8a, 0x76, 0xbc, 0xbe, 0xba, 0x1e, 0xb0, 0xbe,
  0xb9, 0x1f, 0x57, 0xbe, 0x29, 0x4c, 0x22, 0x3e, 0xb9, 0x32, 0x88, 0xbe,
  0xe5, 0x8b, 0x17, 0x3e, 0xb0, 0xd4, 0x3e, 0xbe, 0x3a, 0x27, 0x9f, 0x3e,
  0x59, 0xbe, 0x04, 0x3d, 0x48, 0x61, 0xa0, 0xbd, 0x75, 0xa9, 0x3d, 0xbe,
  0xa3, 0x73, 0x8e, 0x3d, 0xd4, 0x0c, 0xb8, 0x3d, 0x40, 0x22, 0xa7, 0xbd,
  0xac, 0x4a, 0xa2, 0x3d, 0x72, 0xc3, 0xff, 0x3d, 0xf3, 0xf5, 0xe6, 0xbc,
  0x84, 0xe8, 0xbd, 0x3e, 0x9b, 0xd2, 0x65, 0xbe, 0x89, 0x5e, 0x45, 0xbd,
  0x71, 0xb8, 0x22, 0x3e, 0xfd, 0x76, 0xd6, 0x3e, 0x31, 0xc8, 0x8f, 0x3e,
  0x9e, 0x42, 0xc7, 0x3c, 0x0e, 0xe9, 0xdf, 0x3b, 0xf7, 0xf8, 0x8d, 0x3d,
  0x48, 0xf3, 0x95, 0xbe, 0x77, 0x5f, 0x55, 0xbe, 0x3c, 0x34, 0x5c, 0xbc,
  0xf5, 0x25, 0x9d, 0xbe, 0xc0, 0xaf, 0xc9, 0x3d, 0x8c, 0x81, 0x66, 0x3e,
  0x70, 0x10, 0xb4, 0xbd, 0x46, 0x93, 0xb0, 0xbe, 0x44, 0x3a, 0x68, 0x3e,
  0x80, 0x5a, 0x88, 0xbd, 0x31, 0x5f, 0x35, 0xbd, 0x10, 0x80, 0xff, 0xbd,
  0x03, 0x9d, 0x88, 0xbe, 0x7b, 0x32, 0x07, 0xbe, 0xea, 0xce, 0x06, 0xbe,
  0xc1, 0x8d, 0x88, 0x3e, 0x75, 0x3d, 0x37, 0xbf, 0xeb, 0x5a, 0x90, 0x3e,
  0xba, 0xf3, 0xf1, 0x3e, 0x77, 0x7c, 0x99, 0x3e, 0xdf, 0x93, 0x65, 0xbd,
  0x89, 0x76, 0x5a, 0xbd, 0x53, 0x9b, 0x48, 0x3e, 0x59, 0x80, 0xcf, 0xbe,
  0xae, 0xc0, 0x8f, 0xbe, 0xfa, 0x45, 0x8e, 0xbe, 0x35, 0x74, 0xbe, 0x3d,
  0x97, 0xb5, 0xf2, 0xbd, 0xa9, 0xe1, 0x98, 0xbe, 0x0e, 0x30, 0x0a, 0xbd,
  0x37, 0x57, 0x59, 0xbe, 0x03, 0x63, 0x18, 0xbe, 0xbe, 0x4b, 0xba, 0xbe,
  0x58, 0xe9, 0x5c, 0x3e, 0x76, 0xc8, 0x06, 0x3e, 0x9c, 0x64, 0xcf, 0xbd,
  0xa8, 0x5d, 0xb9, 0x3e, 0xa8, 0x85, 0xaa, 0xbe, 0x93, 0xa6, 0x1a, 0x3e,
  0xe9, 0xdd, 0x83, 0x3e, 0x41, 0x40, 0x76, 0xbe, 0x6d, 0xac, 0x5b, 0x3e,
  0x31, 0x42, 0x11, 0x3e, 0x2b, 0x24, 0x33, 0x3e, 0xa4, 0xdd, 0xa3, 0x3d,
  0xb9, 0x67, 0x0d, 0xbb, 0xb6, 0xc0, 0x39, 0xbe, 0x48, 0x43, 0x8c, 0xbe,
  0xa2, 0x80, 0x86, 0xbd, 0x76, 0x87, 0xef, 0xbc, 0x07, 0x4a, 0xcd, 0x3d,
  0x5d, 0x2d, 0x25, 0xbe, 0xe9, 0x82, 0xc0, 0xbe, 0x1e, 0xb4, 0x33, 0x3e,
  0xe1, 0x17, 0xa3, 0x3e, 0xc5, 0x1b, 0x59, 0xbe, 0x29, 0x76, 0x3b, 0xbd,
  0xb0, 0x52, 0x3b, 0x3d, 0x8b, 0x89, 0x04, 0xbd, 0x85, 0xca, 0x28, 0x3e,
  0x59, 0xb6, 0x40, 0xbe, 0xb1, 0x97, 0xfa, 0xbd, 0x68, 0x08, 0x8a, 0x3e,
  0xc8, 0xc5, 0x49, 0xbd, 0xfe, 0x2f, 0xfa, 0x3e, 0x66, 0x05, 0x3c, 0xbe,
  0x75, 0xf2, 0xf6, 0x3d, 0xb1, 0x73, 0x62, 0x3e, 0xfc, 0x8a, 0x7b, 0x3c,
  0x24, 0x57, 0xe2, 0x3d, 0x8b, 0x8a, 0x5a, 0xbe, 0x2b, 0x21, 0xc4, 0x3d,
  0x0d, 0x35, 0xae, 0xbe, 0xa6, 0x53, 0xa6, 0xbe, 0xc9, 0x31, 0xa7, 0xbd,
  0x08, 0x36, 0x2a, 0xbe, 0x47, 0xf3, 0x82, 0xbe, 0x06, 0x20, 0x50, 0x3e,
  0x2e, 0x76, 0x0e, 0x3d, 0x24, 0xd6, 0x79, 0xbe, 0x79, 0xaa, 0x73, 0xbe,
  0xf8, 0xaa, 0x49, 0xbc, 0x96, 0x81, 0xa7, 0xbe, 0xc0, 0xaa, 0xd1, 0xbd,
  0x94, 0xe7, 0xa0, 0xbe, 0xe1, 0x80, 0xda, 0x3d, 0x20, 0x82, 0x88, 0xbc,
  0x29, 0xcd, 0xa3, 0xbe, 0xb2, 0x0e, 0x24, 0x3e, 0xfa, 0x76, 0x2e, 0xbe,
  0xf9, 0xd8, 0x65, 0xbe, 0x2f, 0xfd, 0xda, 0xbd, 0xac, 0x56, 0x3d, 0xbe,
  0x8c, 0x6c, 0x19, 0x3e, 0xca, 0x77, 0x43, 0xbe, 0xd1, 0x33, 0xa2, 0xbc,
  0xcf, 0x33, 0xf7, 0x3e, 0xd7, 0xf9, 0x67, 0x3e, 0x09, 0xc6, 0x48, 0x3c,
  0x75, 0x52, 0x71, 0xbe, 0x30, 0xcf, 0x0d, 0xbe, 0x38, 0xe0, 0x19, 0x3d,
  0x0a, 0xd4, 0x50, 0x3e, 0x20, 0x39, 0x5a, 0x3e, 0xc3, 0x5c, 0xc5, 0x3d,
  0xdf, 0xea, 0xbb, 0x3e, 0x7d, 0x48, 0x52, 0x3d, 0xf8, 0x1a, 0xd7, 0x3d,
  0x42, 0x3f, 0x30, 0x3d, 0x7f, 0xc5, 0xb4, 0xbd, 0x06, 0xba, 0x7f, 0xbe,
  0xe1, 0x0e, 0x71, 0xbe, 0x09, 0xf9, 0x7d, 0x3d, 0xfc, 0xe8, 0xda, 0x3d,
  0xf6, 0xe0, 0x45, 0x3b, 0xdf, 0xa8, 0x8f, 0x3e, 0xfb, 0xf3, 0x00, 0x3e,
  0xa8, 0x34, 0x41, 0xbe, 0x4d, 0x90, 0x3c, 0x3e, 0xf6, 0xed, 0x80, 0x3c,
  0x80, 0x02, 0x09, 0x3d, 0x2f, 0xce, 0x0a, 0x3d, 0xa2, 0x8e, 0x95, 0x3e,
  0xb1, 0x47, 0x74, 0x3e, 0x2f, 0x44, 0x30, 0x3e, 0xd4, 0x78, 0xae, 0xbe,
  0x16, 0x6a, 0xfe, 0xbd, 0xef, 0x90, 0x12, 0x3e, 0x6b, 0xde, 0xde, 0x3e,
  0xba, 0xec, 0x91, 0x3e, 0x50, 0xa9, 0xa5, 0xbd, 0x0e, 0x39, 0x94, 0xbc,
  0x21, 0x88, 0xf6, 0xbc, 0x50, 0x93, 0xee, 0x3d, 0xc4, 0x86, 0x8e, 0x3e,
  0x18, 0xc9, 0x06, 0x3e, 0x30, 0xf6, 0x77, 0x3e, 0x82, 0x1e, 0x86, 0x3e,
  0x4c, 0x48, 0x11, 0x3e, 0xbb, 0xa5, 0x67, 0xbc, 0x45, 0xdf, 0x01, 0xbe,
  0xcd, 0x33, 0xf5, 0x3c, 0x7b, 0x38, 0x5d, 0xbe, 0xe9, 0xd7, 0x85, 0xbd,
  0x1d, 0x0d, 0xde, 0xbd, 0xce, 0x99, 0x17, 0x3e, 0x17, 0xe6, 0xc5, 0x3e,
  0x8c, 0x26, 0xaa, 0x3e, 0x0f, 0x12, 0xa3, 0x3e, 0xd6, 0x9b, 0xbb, 0xbe,
  0x20, 0x44, 0x62, 0x3e, 0x7e, 0xbe, 0x97, 0xbe, 0x7e, 0xd2, 0xdf, 0xbc,
  0xda, 0x49, 0x59, 0x3e, 0x50, 0x08, 0x29, 0x3d, 0xc0, 0x1e, 0x5e, 0x3e,
  0x9f, 0x6a, 0xa1, 0xbe, 0xa5, 0x01, 0x0f, 0xbe, 0xfe, 0x79, 0x58, 0x3d,
  0x6b, 0x8b, 0x39, 0xbe, 0xe2, 0x42, 0xa0, 0x3e, 0x5f, 0x28, 0x22, 0x3e,
  0x78, 0x6a, 0x1b, 0x3e, 0x87, 0xfa, 0x6d, 0x3e, 0xe5, 0xe7, 0xd0, 0x3c,
  0x28, 0x1d, 0x83, 0x3e, 0xd6, 0x49, 0xb7, 0xbd, 0x4b, 0xb6, 0xf3, 0x3d,
  0x49, 0xae, 0x64, 0x3e, 0x4f, 0x2a, 0x08, 0xbe, 0xac, 0xb9, 0x2c, 0xbe,
  0x83, 0xa2, 0x10, 0xbe, 0x12, 0x24, 0x2b, 0xbe, 0x14, 0xaf, 0x5d, 0x3e,
  0xcb, 0x86, 0x8a, 0x3b, 0x20, 0xfd, 0xae, 0x3e, 0xb3, 0xb7, 0x63, 0xbe,
  0xf4, 0x09, 0x87, 0x3e, 0x2e, 0xe9, 0xf4, 0x3d, 0x90, 0x5e, 0x30, 0x3d,
  0x4f, 0xf2, 0xc0, 0x3e, 0x79, 0x5a, 0xe0, 0xbc, 0x68, 0xa6, 0xd8, 0x3e,
  0x4c, 0x99, 0xce, 0xbc, 0x55, 0x0f, 0x0f, 0x3f, 0x5d, 0x35, 0xdb, 0xbd,
  0x10, 0x16, 0x06, 0xbe, 0x08, 0xc7, 0x95, 0xbc, 0x92, 0x19, 0x9f, 0x3e,
  0x1b, 0x63, 0x49, 0x3c, 0x7e, 0xc0, 0x73, 0x3e, 0xad, 0xf1, 0x65, 0xbe,
  0xd0, 0xf7, 0x95, 0x3e, 0x90, 0x31, 0x6c, 0x3e, 0x26, 0x3a, 0x26, 0x3e,
  0xc5, 0x86, 0x3a, 0x3d, 0x7e, 0xb6, 0x21, 0xbe, 0xbf, 0xc5, 0x91, 0xbc,
  0x19, 0x41, 0xa5, 0x3e, 0xc0, 0xae, 0x8f, 0x3e, 0x16, 0xf5, 0xdc, 0x3e,
  0x5e, 0xe5, 0x2d, 0x3d, 0xb2, 0x55, 0xc4, 0x3c, 0xc2, 0xf5, 0xc0, 0x3c,
  0x7d, 0x29, 0x50, 0x3e, 0x39, 0x5c, 0x8f, 0xbe, 0x5d, 0x9c, 0xf8, 0x3d,
  0xf2, 0x01, 0x9a, 0x3e, 0xe9, 0x0a, 0x01, 0x3f, 0xe1, 0x41, 0x2e, 0xbe,
  0x75, 0x9d, 0xff, 0xbc, 0xe7, 0xa6, 0x5d, 0x3e, 0xef, 0x29, 0x13, 0xbe,
  0xb6, 0x24, 0x83, 0x3d, 0xe3, 0xa0, 0xb0, 0xbd, 0x63, 0x63, 0x5d, 0x3d,
  0xb9, 0x1f, 0xe7, 0xbe, 0x32, 0x52, 0xff, 0x3d, 0xd8, 0xd6, 0x94, 0xbd,
  0x78, 0x68, 0xd0, 0xbd, 0xcc, 0x93, 0x97, 0x3e, 0x71, 0x2c, 0xd1, 0xbe,
  0x4f, 0x93, 0xc3, 0x3b, 0xb4, 0x2e, 0x3e, 0xbd, 0x14, 0x3a, 0xf8, 0x3e,
  0x6c, 0xdc, 0x92, 0x3e, 0xad, 0x89, 0xe9, 0x3d, 0x09, 0x1b, 0x8f, 0xbd,
  0x2a, 0x0f, 0x2a, 0x3d, 0x4d, 0xe2, 0x59, 0x3e, 0x25, 0x5b, 0xa5, 0x3c,
  0x94, 0x6a, 0x26, 0xbd, 0x14, 0xa2, 0x18, 0xbe, 0x84, 0x5a, 0x82, 0xbe,
  0xab, 0x3b, 0x03, 0xbe, 0x4e, 0x5b, 0xab, 0x3c, 0x48, 0x34, 0xb6, 0xbe,
  0x79, 0xa6, 0x6c, 0x3e, 0x02, 0xf7, 0xef, 0xbd, 0x54, 0x5b, 0x3f, 0x3e,
  0x34, 0x2e, 0xfa, 0xbe, 0xfa, 0xe8, 0xcd, 0x3e, 0x7f, 0x5f, 0x06, 0x3d,
  0x5e, 0xda, 0x99, 0x3d, 0x3b, 0xf3, 0xf4, 0x3d, 0x36, 0x6f, 0x3f, 0xbe,
  0xa7, 0x3c, 0x6c, 0x3c, 0xac, 0x4d, 0x54, 0xbe, 0x21, 0x22, 0x52, 0xbe,
  0x0e, 0xcf, 0x08, 0xbe, 0x82, 0xaf, 0x9c, 0xbd, 0x5c, 0xd0, 0xfe, 0x3d,
  0xee, 0x6b, 0xdb, 0xbd, 0x8d, 0x96, 0x3c, 0x3e, 0xd2, 0xea, 0x96, 0xbe,
  0xa6, 0x27, 0x71, 0xbe, 0x4b, 0x78, 0x0b, 0xbd, 0xc4, 0x6d, 0x82, 0xbe,
  0x10, 0x40, 0x98, 0xbe, 0x06, 0x5e, 0xee, 0x3d, 0x84, 0x83, 0xba, 0x3c,
  0x52, 0xff, 0x1f, 0x3e, 0x54, 0xef, 0x55, 0xbe, 0xd1, 0x18, 0x3a, 0x3e,
  0x16, 0x21, 0xce, 0xbc, 0x3e, 0xd6, 0xf8, 0x3d, 0xc9, 0xcf, 0x17, 0xbd,
  0xe6, 0xed, 0xdc, 0xbc, 0xbf, 0x0b, 0xe5, 0x3c, 0x3a, 0x6a, 0x80, 0x3c,
  0x15, 0x0b, 0x5a, 0x3e, 0xff, 0xa5, 0xf4, 0x3d, 0xb7, 0x9e, 0x5a, 0x3e,
  0xf4, 0xc8, 0x98, 0x3e, 0x77, 0x72, 0xd4, 0x3d, 0x61, 0xa0, 0x40, 0xbe,
  0x7d, 0x93, 0xbb, 0x3e, 0x58, 0xb7, 0xc9, 0xbc, 0x89, 0x5d, 0xab, 0x3e,
  0x60, 0x4b, 0xb2, 0x3d, 0xe9, 0x1a, 0xd7, 0xbd, 0xd1, 0x94, 0x1c, 0xbd,
  0xe7, 0x58, 0xc1, 0xbc, 0xab, 0x58, 0x18, 0xbe, 0x03, 0xbe, 0xb5, 0xbd,
  0xf2, 0x32, 0x93, 0xbd, 0xd7, 0x0a, 0x44, 0x3d, 0x34, 0x54, 0x39, 0x3d,
  0x7c, 0x8b, 0x18, 0x3e, 0x35, 0x58, 0x17, 0xba, 0xa6, 0xa2, 0x4c, 0x3e,
  0xa9, 0xed, 0x84, 0xbd, 0xa9, 0xc9, 0x5b, 0xbe, 0xb8, 0x56, 0x41, 0xbe,
  0x83, 0xc8, 0xf6, 0xbc, 0x48, 0xa0, 0xd3, 0x3e, 0x95, 0x12, 0xe1, 0xbe,
  0x8f, 0xe1, 0xf8, 0x3d, 0x55, 0xd0, 0x6b, 0x3d, 0xad, 0x61, 0xef, 0xbd,
  0xb1, 0xa8, 0xf8, 0x3d, 0x8a, 0x1b, 0xdb, 0xbe, 0xfd, 0xd3, 0x8d, 0x3e,
  0x00, 0x52, 0xfb, 0x3d, 0x5c, 0xd0, 0xd1, 0xbd, 0xd6, 0xf4, 0x60, 0x3e,
  0x98, 0x16, 0x9d, 0x3e, 0x23, 0x84, 0x9e, 0x3e, 0xa1, 0xbb, 0x5e, 0x3e,
  0xa5, 0x28, 0x3b, 0x3d, 0x3e, 0xfb, 0xff, 0xff, 0x04, 0x00, 0x00, 0x00,
  0x00, 0x01, 0x00, 0x00, 0x3e, 0x23, 0x12, 0x3d, 0x20, 0x72, 0xa1, 0x3c,
  0x93, 0x70, 0xf1, 0xbb, 0xeb, 0x6d, 0x36, 0x3e, 0xe4, 0xda, 0x71, 0xbd,
  0x8d, 0xaa, 0x48, 0x3e, 0x21, 0x45, 0xfa, 0x3d, 0xb9, 0x64, 0x07, 0x3e,
  0x39, 0x51, 0xc7, 0x3d, 0xcb, 0x24, 0xe3, 0x3c, 0xdd, 0x84, 0xe4, 0xbc,
  0x85, 0x1e, 0x8e, 0x3d, 0x96, 0xd2, 0x7b, 0x3e, 0xd9, 0x1d, 0x92, 0x3d,
  0x17, 0xd6, 0xf8, 0x3d, 0xd5, 0xe3, 0x2f, 0x3b, 0x19, 0xdd, 0xfb, 0x3d,
  0xf9, 0x31, 0xa7, 0x3d, 0x5c, 0xf9, 0x13, 0x3e, 0x3a, 0xee, 0x3b, 0xbd,
  0x1b, 0x3c, 0xd0, 0x3d, 0x77, 0xfc, 0xb6, 0x3d, 0x6f, 0x4e, 0xb4, 0x3d,
  0x13, 0x9a, 0x64, 0xbd, 0x9a, 0xee, 0x04, 0x3e, 0x78, 0x2c, 0xae, 0x3d,
  0xa3, 0xd9, 0x0d, 0x3d, 0x3e, 0xae, 0x51, 0x3e, 0xe9, 0xf9, 0xa5, 0x3c,
  0x4e, 0xb1, 0x16, 0x3e, 0x46, 0x7c, 0xac, 0x3d, 0x50, 0x17, 0xb5, 0x3d,
  0x4f, 0xb2, 0x15, 0xbb, 0xb2, 0x99, 0xfd, 0x3d, 0x6b, 0x47, 0x9d, 0x3d,
  0x08, 0xb5, 0xa2, 0x3d, 0xe3, 0x2f, 0x09, 0x3e, 0xe5, 0xa0, 0x59, 0x3e,
  0xa4, 0x6a, 0xd6, 0x3d, 0x85, 0xa0, 0xf8, 0xbc, 0x0a, 0xf3, 0xed, 0x3d,
  0xe3, 0x31, 0xab, 0x3d, 0xc7, 0xaf, 0x74, 0x3d, 0x1a, 0xa6, 0xfb, 0x3d,
  0xe6, 0x71, 0x79, 0xbd, 0x4c, 0x2b, 0x1a, 0x3d, 0xb7, 0x74, 0x65, 0xbd,
  0x86, 0x21, 0x1a, 0x3e, 0xfa, 0xe5, 0x0c, 0x3e, 0x3e, 0xcf, 0x94, 0x3c,
  0xbd, 0x60, 0xe0, 0x3d, 0xc0, 0xac, 0xc7, 0x3d, 0x96, 0x8f, 0x52, 0x3e,
  0x03, 0x76, 0x07, 0x3e, 0xbd, 0x98, 0xa8, 0x3d, 0x5a, 0x1c, 0x0d, 0x3e,
  0xbd, 0x8e, 0xa3, 0x3d, 0x3f, 0x22, 0x90, 0x3d, 0xbe, 0xc8, 0x9e, 0xbd,
  0x72, 0x39, 0xd7, 0x3d, 0xe5, 0x49, 0x31, 0x3c, 0xcd, 0x4d, 0x95, 0xbd,
  0x19, 0x49, 0x04, 0x3e, 0x65, 0xc2, 0xc1, 0x3d, 0x4a, 0xfc, 0xff, 0xff,
  0x04, 0x00, 0x00, 0x00, 0x0c, 0x00, 0x00, 0x00, 0x65, 0xab, 0xc6, 0xbd,
  0xc2, 0x88, 0x20, 0x3d, 0xad, 0x3d, 0x02, 0x3d, 0x62, 0xfc, 0xff, 0xff,
  0x04, 0x00, 0x00, 0x00, 0x00, 0x03, 0x00, 0x00, 0xf3, 0x36, 0xe6, 0xbd,
  0x12, 0x27, 0x7b, 0x3e, 0xf2, 0x22, 0xb5, 0x3c, 0xd2, 0xc4, 0x63, 0x3c,
  0x3b, 0xd4, 0xb6, 0x3c, 0x02, 0xb1, 0xbe, 0xbe, 0x1b, 0xc3, 0xda, 0xbe,
  0x65, 0x24, 0x15, 0xbe, 0xd7, 0xd9, 0xac, 0x3e, 0xec, 0xbb, 0x6a, 0xbe,
  0xd1, 0x71, 0x78, 0xbd, 0x4f, 0x32, 0xce, 0x3d, 0x7f, 0x97, 0x36, 0x3e,
  0x0a, 0x0f, 0xb1, 0x3e, 0x96, 0x7a, 0x70, 0x3d, 0x87, 0xe6, 0xf3, 0x3d,
  0x18, 0x40, 0x9b, 0xbe, 0xe0, 0x3b, 0x8c, 0x3d, 0xba, 0x9e, 0x03, 0xbe,
  0xe9, 0xbc, 0xda, 0x3d, 0x04, 0xbe, 0x82, 0x3e, 0x05, 0x45, 0x94, 0xbd,
  0xca, 0x10, 0x8e, 0x3e, 0xbb, 0x01, 0x42, 0xbe, 0xc7, 0xad, 0xca, 0xbe,
  0xdb, 0x7b, 0xb8, 0x3e, 0x8f, 0x1f, 0x4f, 0x3e, 0x04, 0x55, 0xa8, 0x3d,
  0x8b, 0x5f, 0x08, 0xbd, 0x9b, 0xa1, 0x62, 0xbe, 0x18, 0xf1, 0xaa, 0xbe,
  0x22, 0x14, 0xb6, 0x3e, 0xd9, 0x21, 0xb1, 0xbc, 0xbb, 0x21, 0x14, 0xbd,
  0x3c, 0xc4, 0x46, 0x3e, 0x2e, 0x85, 0x26, 0x3e, 0xae, 0x87, 0x78, 0x3e,
  0x87, 0xf4, 0x12, 0x3e, 0x4d, 0xdb, 0x84, 0xbe, 0xf9, 0x93, 0x3a, 0x3e,
  0xb9, 0xbd, 0x6d, 0xbe, 0xfa, 0xf0, 0xb6, 0xbe, 0xea, 0xd9, 0x8b, 0xbe,
  0xa5, 0xff, 0xd2, 0xbe, 0x45, 0x86, 0x1a, 0x3e, 0x53, 0x59, 0x5e, 0x3d,
  0x55, 0xec, 0xb8, 0xbc, 0x5c, 0x1b, 0xb3, 0xbe, 0x0d, 0xf6, 0x14, 0xbd,
  0x1e, 0xdd, 0x35, 0x3e, 0x4b, 0x98, 0x82, 0xbe, 0x43, 0xf6, 0x69, 0x3d,
  0x09, 0x10, 0xa3, 0xbe, 0x23, 0x92, 0x17, 0xbe, 0x02, 0xd0, 0x92, 0x3e,
  0xf7, 0xab, 0x1f, 0xbe, 0x3a, 0xeb, 0xb8, 0x3e, 0xbf, 0xe7, 0xa2, 0x3e,
  0x01, 0xeb, 0xd1, 0x3d, 0x44, 0x04, 0xb9, 0xbe, 0x08, 0x38, 0x30, 0x3d,
  0xf4, 0x40, 0x44, 0xbc, 0x02, 0xd5, 0xcc, 0xbe, 0x75, 0x4a, 0xcc, 0xbe,
  0x6e, 0x12, 0xd6, 0x3e, 0xaf, 0x20, 0x5c, 0xbe, 0xe4, 0xa8, 0xb1, 0x3c,
  0xdb, 0x52, 0x7a, 0xbd, 0x07, 0xce, 0xa9, 0xbd, 0x47, 0xd5, 0x4d, 0x3d,
  0x7b, 0xcf, 0x8a, 0x3e, 0x43, 0x08, 0x01, 0x3e, 0xfe, 0xea, 0xe3, 0xbd,
  0x13, 0x81, 0x02, 0x3e, 0x67, 0x1c, 0x17, 0x3d, 0x47, 0x92, 0x1a, 0xbf,
  0x5f, 0x39, 0x42, 0xbe, 0x96, 0xf6, 0x73, 0xbe, 0xcc, 0x53, 0xfb, 0x3e,
  0xf0, 0x2e, 0x8c, 0xbe, 0xad, 0x3e, 0xe0, 0x3e, 0xdd, 0x10, 0x84, 0xbe,
  0x51, 0x83, 0xcb, 0xbe, 0x5a, 0xa8, 0x0e, 0x3e, 0x73, 0x19, 0xc0, 0xbe,
  0xaf, 0x95, 0xec, 0x3e, 0x4b, 0x6d, 0x8e, 0xbd, 0x11, 0x27, 0x73, 0x3e,
  0x69, 0xd4, 0x6f, 0xbd, 0x28, 0xa7, 0xe7, 0xbd, 0x49, 0x3b, 0x89, 0xbe,
  0xe1, 0x05, 0xec, 0xbe, 0x80, 0x06, 0x88, 0xbe, 0xb9, 0x4c, 0xf8, 0xbe,
  0x82, 0x04, 0x92, 0xbe, 0xb3, 0x98, 0x66, 0x3e, 0xfd, 0x02, 0xaf, 0x3e,
  0xfc, 0x7a, 0x9c, 0x3e, 0x42, 0x4b, 0x6b, 0xbe, 0xa1, 0xa5, 0x80, 0xbe,
  0x5e, 0x89, 0xd5, 0xbc, 0xfb, 0xb7, 0x84, 0x3e, 0xf4, 0x30, 0xfe, 0x3d,
  0x11, 0x3d, 0x64, 0xbe, 0xeb, 0x4c, 0x74, 0x3d, 0xab, 0xc6, 0xc1, 0x3e,
  0xbe, 0xb0, 0x03, 0x3e, 0xd7, 0x45, 0x12, 0xbe, 0x9a, 0xda, 0x60, 0xbe,
  0x87, 0x51, 0xb6, 0x3e, 0x64, 0x2f, 0x9e, 0xbe, 0x4e, 0x5e, 0x26, 0xbe,
  0x6b, 0x7a, 0xa1, 0x3e, 0xc2, 0x82, 0x88, 0x3e, 0x5b, 0xf8, 0x93, 0x3e,
  0xa9, 0x9f, 0x04, 0x3f, 0xe0, 0xde, 0x9b, 0xbe, 0x0e, 0xb5, 0xab, 0x3e,
  0x62, 0x5b, 0xc0, 0xbd, 0xad, 0xa3, 0x13, 0xbf, 0x6a, 0x95, 0x6e, 0xbe,
  0xe4, 0x0d, 0xb4, 0xbe, 0x4e, 0x18, 0x21, 0xbe, 0x3d, 0x7a, 0x9c, 0x3e,
  0xc7, 0xca, 0x87, 0x3e, 0x4a, 0xdb, 0x4a, 0xbe, 0x6b, 0xb1, 0xb7, 0xbe,
  0x5a, 0xcc, 0x58, 0x3d, 0x92, 0xe0, 0x90, 0xbe, 0x81, 0x72, 0xeb, 0xbd,
  0xd5, 0xea, 0xc8, 0xbd, 0xd3, 0x5b, 0xb7, 0xbe, 0xe2, 0xa1, 0x55, 0x3e,
  0xe2, 0xcb, 0x28, 0xbe, 0x06, 0x90, 0x96, 0xbd, 0x34, 0x2e, 0xee, 0x3e,
  0xa7, 0x9b, 0xb3, 0xbe, 0xbb, 0x71, 0x9a, 0xbe, 0x5d, 0x6b, 0x91, 0xbd,
  0xa1, 0x57, 0x46, 0x3e, 0x0a, 0xa0, 0x97, 0x3d, 0xdd, 0xbf, 0xce, 0x3d,
  0xdb, 0x19, 0x1a, 0xbf, 0xe5, 0xb1, 0x30, 0x3d, 0x67, 0xa3, 0xd8, 0xbe,
  0xba, 0x1a, 0xb6, 0xbe, 0x18, 0x80, 0xfd, 0x3e, 0xcf, 0x30, 0x21, 0x3e,
  0x4d, 0x32, 0x9c, 0xbe, 0x3d, 0x06, 0xbe, 0xbe, 0xdc, 0x38, 0x03, 0x3d,
  0x5a, 0x92, 0x78, 0xbe, 0x4f, 0x78, 0x2f, 0x3e, 0x90, 0x66, 0x23, 0xbe,
  0x2e, 0x9a, 0x56, 0xbe, 0x9c, 0x25, 0xc2, 0x3e, 0x1a, 0xbe, 0x35, 0xbe,
  0x05, 0x7d, 0x0a, 0x3f, 0x73, 0x77, 0xac, 0x3e, 0x1f, 0x36, 0xc5, 0xbe,
  0x34, 0x45, 0xa7, 0x3d, 0x87, 0x9e, 0xd7, 0xbe, 0xf9, 0x0e, 0xf6, 0xbd,
  0x31, 0xb3, 0x3d, 0xbd, 0x50, 0x1a, 0x88, 0xbd, 0x8a, 0x9f, 0xc7, 0xbe,
  0xa8, 0x46, 0x0f, 0xbd, 0xf0, 0x62, 0x32, 0x3e, 0xc3, 0xf8, 0x76, 0x3e,
  0x65, 0x97, 0xe7, 0xbe, 0x29, 0x80, 0x94, 0xbe, 0x5f, 0x0c, 0x84, 0x3e,
  0x60, 0x0b, 0x38, 0xbe, 0xe2, 0x23, 0xf8, 0xbe, 0x41, 0x9a, 0x63, 0xbc,
  0x06, 0xd7, 0x07, 0x3e, 0x89, 0xf4, 0xb2, 0xbe, 0x93, 0xa4, 0x85, 0xbd,
  0xcd, 0xd2, 0x15, 0x3e, 0x7c, 0x3a, 0x60, 0xbd, 0x4e, 0xd3, 0xfb, 0x3e,
  0xb5, 0x0c, 0xfc, 0xbe, 0xd4, 0x6d, 0x25, 0xbd, 0x21, 0xc1, 0xf7, 0x3e,
  0x50, 0x26, 0x92, 0xbd, 0x2b, 0xc2, 0xa1, 0xbc, 0x4e, 0xed, 0xf2, 0xbd,
  0xa5, 0x7c, 0xa8, 0x3d, 0xff, 0x78, 0x8f, 0x3d, 0x32, 0xb5, 0x42, 0xbe,
  0xac, 0xf2, 0x06, 0x3f, 0xfd, 0x28, 0x46, 0xbd, 0xb4, 0xfb, 0xff, 0xff,
  0xb8, 0xfb, 0xff, 0xff, 0x0f, 0x00, 0x00, 0x00, 0x4d, 0x4c, 0x49, 0x52,
  0x20, 0x43, 0x6f, 0x6e, 0x76, 0x65, 0x72, 0x74, 0x65, 0x64, 0x2e, 0x00,
  0x01, 0x00, 0x00, 0x00, 0x14, 0x00, 0x00, 0x00, 0x00, 0x00, 0x0e, 0x00,
  0x18, 0x00, 0x14, 0x00, 0x10, 0x00, 0x0c, 0x00, 0x08, 0x00, 0x04, 0x00,
  0x0e, 0x00, 0x00, 0x00, 0x14, 0x00, 0x00, 0x00, 0x1c, 0x00, 0x00, 0x00,
  0xec, 0x00, 0x00, 0x00, 0xf0, 0x00, 0x00, 0x00, 0xf4, 0x00, 0x00, 0x00,
  0x04, 0x00, 0x00, 0x00, 0x6d, 0x61, 0x69, 0x6e, 0x00, 0x00, 0x00, 0x00,
  0x03, 0x00, 0x00, 0x00, 0x94, 0x00, 0x00, 0x00, 0x50, 0x00, 0x00, 0x00,
  0x14, 0x00, 0x00, 0x00, 0x00, 0x00, 0x0e, 0x00, 0x1a, 0x00, 0x14, 0x00,
  0x10, 0x00, 0x0c, 0x00, 0x0b, 0x00, 0x04, 0x00, 0x0e, 0x00, 0x00, 0x00,
  0x1c, 0x00, 0x00, 0x00, 0x00, 0x00, 0x00, 0x09, 0x1c, 0x00, 0x00, 0x00,
  0x20, 0x00, 0x00, 0x00, 0x01, 0x00, 0x00, 0x00, 0x00, 0x00, 0x06, 0x00,
  0x08, 0x00, 0x04, 0x00, 0x06, 0x00, 0x00, 0x00, 0x00, 0x00, 0x80, 0x3f,
  0x01, 0x00, 0x00, 0x00, 0x07, 0x00, 0x00, 0x00, 0x01, 0x00, 0x00, 0x00,
  0x06, 0x00, 0x00, 0x00, 0xce, 0xff, 0xff, 0xff, 0x10, 0x00, 0x00, 0x00,
  0x00, 0x00, 0x00, 0x08, 0x0c, 0x00, 0x00, 0x00, 0x10, 0x00, 0x00, 0x00,
  0x78, 0xfc, 0xff, 0xff, 0x01, 0x00, 0x00, 0x00, 0x06, 0x00, 0x00, 0x00,
  0x03, 0x00, 0x00, 0x00, 0x05, 0x00, 0x00, 0x00, 0x01, 0x00, 0x00, 0x00,
  0x02, 0x00, 0x00, 0x00, 0x00, 0x00, 0x0e, 0x00, 0x16, 0x00, 0x00, 0x00,
  0x10, 0x00, 0x0c, 0x00, 0x0b, 0x00, 0x04, 0x00, 0x0e, 0x00, 0x00, 0x00,
  0x18, 0x00, 0x00, 0x00, 0x00, 0x00, 0x00, 0x08, 0x18, 0x00, 0x00, 0x00,
  0x1c, 0x00, 0x00, 0x00, 0x00, 0x00, 0x06, 0x00, 0x08, 0x00, 0x07, 0x00,
  0x06, 0x00, 0x00, 0x00, 0x00, 0x00, 0x00, 0x01, 0x01, 0x00, 0x00, 0x00,
  0x05, 0x00, 0x00, 0x00, 0x03, 0x00, 0x00, 0x00, 0x00, 0x00, 0x00, 0x00,
  0x04, 0x00, 0x00, 0x00, 0x03, 0x00, 0x00, 0x00, 0x01, 0x00, 0x00, 0x00,
  0x07, 0x00, 0x00, 0x00, 0x01, 0x00, 0x00, 0x00, 0x00, 0x00, 0x00, 0x00,
  0x08, 0x00, 0x00, 0x00, 0xe4, 0x02, 0x00, 0x00, 0x8c, 0x02, 0x00, 0x00,
  0x18, 0x02, 0x00, 0x00, 0xc0, 0x01, 0x00, 0x00, 0x74, 0x01, 0x00, 0x00,
  0xe0, 0x00, 0x00, 0x00, 0x60, 0x00, 0x00, 0x00, 0x04, 0x00, 0x00, 0x00,
  0x52, 0xfd, 0xff, 0xff, 0x00, 0x00, 0x00, 0x01, 0x14, 0x00, 0x00, 0x00,
  0x1c, 0x00, 0x00, 0x00, 0x1c, 0x00, 0x00, 0x00, 0x08, 0x00, 0x00, 0x00,
  0x34, 0x00, 0x00, 0x00, 0x02, 0x00, 0x00, 0x00, 0xff, 0xff, 0xff, 0xff,
  0x03, 0x00, 0x00, 0x00, 0x3c, 0xfd, 0xff, 0xff, 0x1b, 0x00, 0x00, 0x00,
  0x53, 0x74, 0x61, 0x74, 0x65, 0x66, 0x75, 0x6c, 0x50, 0x61, 0x72, 0x74,
  0x69, 0x74, 0x69, 0x6f, 0x6e, 0x65, 0x64, 0x43, 0x61, 0x6c, 0x6c, 0x5f,
  0x31, 0x3a, 0x30, 0x00, 0x02, 0x00, 0x00, 0x00, 0x01, 0x00, 0x00, 0x00,
  0x03, 0x00, 0x00, 0x00, 0xaa, 0xfd, 0xff, 0xff, 0x00, 0x00, 0x00, 0x01,
  0x14, 0x00, 0x00, 0x00, 0x1c, 0x00, 0x00, 0x00, 0x1c, 0x00, 0x00, 0x00,
  0x07, 0x00, 0x00, 0x00, 0x58, 0x00, 0x00, 0x00, 0x02, 0x00, 0x00, 0x00,
  0xff, 0xff, 0xff, 0xff, 0x03, 0x00, 0x00, 0x00, 0x94, 0xfd, 0xff, 0xff,
  0x3c, 0x00, 0x00, 0x00, 0x73, 0x65, 0x71, 0x75, 0x65, 0x6e, 0x74, 0x69,
  0x61, 0x6c, 0x5f, 0x31, 0x2f, 0x64, 0x65, 0x6e, 0x73, 0x65, 0x5f, 0x31,
  0x5f, 0x32, 0x2f, 0x4d, 0x61, 0x74, 0x4d, 0x75, 0x6c, 0x3b, 0x73, 0x65,
  0x71, 0x75, 0x65, 0x6e, 0x74, 0x69, 0x61, 0x6c, 0x5f, 0x31, 0x2f, 0x64,
  0x65, 0x6e, 0x73, 0x65, 0x5f, 0x31, 0x5f, 0x32, 0x2f, 0x42, 0x69, 0x61,
  0x73, 0x41, 0x64, 0x64, 0x00, 0x00, 0x00, 0x00, 0x02, 0x00, 0x00, 0x00,
  0x01, 0x00, 0x00, 0x00, 0x03, 0x00, 0x00, 0x00, 0x26, 0xfe, 0xff, 0xff,
  0x00, 0x00, 0x00, 0x01, 0x14, 0x00, 0x00, 0x00, 0x1c, 0x00, 0x00, 0x00,
  0x1c, 0x00, 0x00, 0x00, 0x06, 0x00, 0x00, 0x00, 0x6c, 0x00, 0x00, 0x00,
  0x02, 0x00, 0x00, 0x00, 0xff, 0xff, 0xff, 0xff, 0x40, 0x00, 0x00, 0x00,
  0x10, 0xfe, 0xff, 0xff, 0x52, 0x00, 0x00, 0x00, 0x73, 0x65, 0x71, 0x75,
  0x65, 0x6e, 0x74, 0x69, 0x61, 0x6c, 0x5f, 0x31, 0x2f, 0x64, 0x65, 0x6e,
  0x73, 0x65, 0x5f, 0x31, 0x2f, 0x4d, 0x61, 0x74, 0x4d, 0x75, 0x6c, 0x3b,
  0x73, 0x65, 0x71, 0x75, 0x65, 0x6e, 0x74, 0x69, 0x61, 0x6c, 0x5f, 0x31,
  0x2f, 0x64, 0x65, 0x6e, 0x73, 0x65, 0x5f, 0x31, 0x2f, 0x52, 0x65, 0x6c,
  0x75, 0x3b, 0x73, 0x65, 0x71, 0x75, 0x65, 0x6e, 0x74, 0x69, 0x61, 0x6c,
  0x5f, 0x31, 0x2f, 0x64, 0x65, 0x6e, 0x73, 0x65, 0x5f, 0x31, 0x2f, 0x42,
  0x69, 0x61, 0x73, 0x41, 0x64, 0x64, 0x00, 0x00, 0x02, 0x00, 0x00, 0x00,
  0x01, 0x00, 0x00, 0x00, 0x40, 0x00, 0x00, 0x00, 0x0a, 0xff, 0xff, 0xff,
  0x00, 0x00, 0x00, 0x01, 0x10, 0x00, 0x00, 0x00, 0x10, 0x00, 0x00, 0x00,
  0x05, 0x00, 0x00, 0x00, 0x28, 0x00, 0x00, 0x00, 0x90, 0xfe, 0xff, 0xff,
  0x1b, 0x00, 0x00, 0x00, 0x73, 0x65, 0x71, 0x75, 0x65, 0x6e, 0x74, 0x69,
  0x61, 0x6c, 0x5f, 0x31, 0x2f, 0x64, 0x65, 0x6e, 0x73, 0x65, 0x5f, 0x31,
  0x2f, 0x4d, 0x61, 0x74, 0x4d, 0x75, 0x6c, 0x00, 0x02, 0x00, 0x00, 0x00,
  0x40, 0x00, 0x00, 0x00, 0x08, 0x00, 0x00, 0x00, 0x52, 0xff, 0xff, 0xff,
  0x00, 0x00, 0x00, 0x01, 0x10, 0x00, 0x00, 0x00, 0x10, 0x00, 0x00, 0x00,
  0x04, 0x00, 0x00, 0x00, 0x38, 0x00, 0x00, 0x00, 0xd8, 0xfe, 0xff, 0xff,
  0x2b, 0x00, 0x00, 0x00, 0x73, 0x65, 0x71, 0x75, 0x65, 0x6e, 0x74, 0x69,
  0x61, 0x6c, 0x5f, 0x31, 0x2f, 0x64, 0x65, 0x6e, 0x73, 0x65, 0x5f, 0x31,
  0x2f, 0x42, 0x69, 0x61, 0x73, 0x41, 0x64, 0x64, 0x2f, 0x52, 0x65, 0x61,
  0x64, 0x56, 0x61, 0x72, 0x69, 0x61, 0x62, 0x6c, 0x65, 0x4f, 0x70, 0x00,
  0x01, 0x00, 0x00, 0x00, 0x40, 0x00, 0x00, 0x00, 0xa6, 0xff, 0xff, 0xff,
  0x00, 0x00, 0x00, 0x01, 0x10, 0x00, 0x00, 0x00, 0x10, 0x00, 0x00, 0x00,
  0x03, 0x00, 0x00, 0x00, 0x3c, 0x00, 0x00, 0x00, 0x2c, 0xff, 0xff, 0xff,
  0x2d, 0x00, 0x00, 0x00, 0x73, 0x65, 0x71, 0x75, 0x65, 0x6e, 0x74, 0x69,
  0x61, 0x6c, 0x5f, 0x31, 0x2f, 0x64, 0x65, 0x6e, 0x73, 0x65, 0x5f, 0x31,
  0x5f, 0x32, 0x2f, 0x42, 0x69, 0x61, 0x73, 0x41, 0x64, 0x64, 0x2f, 0x52,
  0x65, 0x61, 0x64, 0x56, 0x61, 0x72, 0x69, 0x61, 0x62, 0x6c, 0x65, 0x4f,
  0x70, 0x00, 0x00, 0x00, 0x01, 0x00, 0x00, 0x00, 0x03, 0x00, 0x00, 0x00,
  0x00, 0x00, 0x16, 0x00, 0x18, 0x00, 0x14, 0x00, 0x00, 0x00, 0x10, 0x00,
  0x0c, 0x00, 0x08, 0x00, 0x00, 0x00, 0x00, 0x00, 0x00, 0x00, 0x07, 0x00,
  0x16, 0x00, 0x00, 0x00, 0x00, 0x00, 0x00, 0x01, 0x10, 0x00, 0x00, 0x00,
  0x10, 0x00, 0x00, 0x00, 0x02, 0x00, 0x00, 0x00, 0x1c, 0x00, 0x00, 0x00,
  0x9c, 0xff, 0xff, 0xff, 0x0e, 0x00, 0x00, 0x00, 0x61, 0x72, 0x69, 0x74,
  0x68, 0x2e, 0x63, 0x6f, 0x6e, 0x73, 0x74, 0x61, 0x6e, 0x74, 0x00, 0x00,
  0x02, 0x00, 0x00, 0x00, 0x03, 0x00, 0x00, 0x00, 0x40, 0x00, 0x00, 0x00,
  0x00, 0x00, 0x16, 0x00, 0x1c, 0x00, 0x18, 0x00, 0x00, 0x00, 0x14, 0x00,
  0x10, 0x00, 0x0c, 0x00, 0x00, 0x00, 0x00, 0x00, 0x08, 0x00, 0x07, 0x00,
  0x16, 0x00, 0x00, 0x00, 0x00, 0x00, 0x00, 0x01, 0x14, 0x00, 0x00, 0x00,
  0x20, 0x00, 0x00, 0x00, 0x20, 0x00, 0x00, 0x00, 0x01, 0x00, 0x00, 0x00,
  0x3c, 0x00, 0x00, 0x00, 0x02, 0x00, 0x00, 0x00, 0xff, 0xff, 0xff, 0xff,
  0x08, 0x00, 0x00, 0x00, 0x04, 0x00, 0x04, 0x00, 0x04, 0x00, 0x00, 0x00,
  0x1e, 0x00, 0x00, 0x00, 0x73, 0x65, 0x72, 0x76, 0x69, 0x6e, 0x67, 0x5f,
  0x64, 0x65, 0x66, 0x61, 0x75, 0x6c, 0x74, 0x5f, 0x6b, 0x65, 0x72, 0x61,
  0x73, 0x5f, 0x74, 0x65, 0x6e, 0x73, 0x6f, 0x72, 0x3a, 0x30, 0x00, 0x00,
  0x02, 0x00, 0x00, 0x00, 0x01, 0x00, 0x00, 0x00, 0x08, 0x00, 0x00, 0x00,
  0x02, 0x00, 0x00, 0x00, 0x20, 0x00, 0x00, 0x00, 0x04, 0x00, 0x00, 0x00,
  0xf4, 0xff, 0xff, 0xff, 0x19, 0x00, 0x00, 0x00, 0x00, 0x00, 0x00, 0x19,
  0x0c, 0x00, 0x0c, 0x00, 0x0b, 0x00, 0x00, 0x00, 0x00, 0x00, 0x04, 0x00,
  0x0c, 0x00, 0x00, 0x00, 0x09, 0x00, 0x00, 0x00, 0x00, 0x00, 0x00, 0x09
};
unsigned int model_tflite_len = 4812;
