unsigned char model_tflite[] = {
  0x1c, 0x00, 0x00, 0x00, 0x54, 0x46, 0x4c, 0x33, 0x14, 0x00, 0x20, 0x00,
  0x1c, 0x00, 0x18, 0x00, 0x14, 0x00, 0x10, 0x00, 0x0c, 0x00, 0x00, 0x00,
  0x08, 0x00, 0x04, 0x00, 0x14, 0x00, 0x00, 0x00, 0x1c, 0x00, 0x00, 0x00,
  0x98, 0x00, 0x00, 0x00, 0xf0, 0x00, 0x00, 0x00, 0xf4, 0x0d, 0x00, 0x00,
  0x04, 0x0e, 0x00, 0x00, 0x68, 0x12, 0x00, 0x00, 0x03, 0x00, 0x00, 0x00,
  0x01, 0x00, 0x00, 0x00, 0x10, 0x00, 0x00, 0x00, 0x00, 0x00, 0x0a, 0x00,
  0x10, 0x00, 0x0c, 0x00, 0x08, 0x00, 0x04, 0x00, 0x0a, 0x00, 0x00, 0x00,
  0x0c, 0x00, 0x00, 0x00, 0x1c, 0x00, 0x00, 0x00, 0x3c, 0x00, 0x00, 0x00,
  0x0f, 0x00, 0x00, 0x00, 0x73, 0x65, 0x72, 0x76, 0x69, 0x6e, 0x67, 0x5f,
  0x64, 0x65, 0x66, 0x61, 0x75, 0x6c, 0x74, 0x00, 0x01, 0x00, 0x00, 0x00,
  0x04, 0x00, 0x00, 0x00, 0x90, 0xff, 0xff, 0xff, 0x07, 0x00, 0x00, 0x00,
  0x04, 0x00, 0x00, 0x00, 0x08, 0x00, 0x00, 0x00, 0x6f, 0x75, 0x74, 0x70,
  0x75, 0x74, 0x5f, 0x30, 0x00, 0x00, 0x00, 0x00, 0x01, 0x00, 0x00, 0x00,
  0x04, 0x00, 0x00, 0x00, 0xf6, 0xf1, 0xff, 0xff, 0x04, 0x00, 0x00, 0x00,
  0x0c, 0x00, 0x00, 0x00, 0x6b, 0x65, 0x72, 0x61, 0x73, 0x5f, 0x74, 0x65,
  0x6e, 0x73, 0x6f, 0x72, 0x00, 0x00, 0x00, 0x00, 0x02, 0x00, 0x00, 0x00,
  0x34, 0x00, 0x00, 0x00, 0x04, 0x00, 0x00, 0x00, 0xdc, 0xff, 0xff, 0xff,
  0x0a, 0x00, 0x00, 0x00, 0x04, 0x00, 0x00, 0x00, 0x13, 0x00, 0x00, 0x00,
  0x43, 0x4f, 0x4e, 0x56, 0x45, 0x52, 0x53, 0x49, 0x4f, 0x4e, 0x5f, 0x4d,
  0x45, 0x54, 0x41, 0x44, 0x41, 0x54, 0x41, 0x00, 0x08, 0x00, 0x0c, 0x00,
  0x08, 0x00, 0x04, 0x00, 0x08, 0x00, 0x00, 0x00, 0x09, 0x00, 0x00, 0x00,
  0x04, 0x00, 0x00, 0x00, 0x13, 0x00, 0x00, 0x00, 0x6d, 0x69, 0x6e, 0x5f,
  0x72, 0x75, 0x6e, 0x74, 0x69, 0x6d, 0x65, 0x5f, 0x76, 0x65, 0x72, 0x73,
  0x69, 0x6f, 0x6e, 0x00, 0x0b, 0x00, 0x00, 0x00, 0x00, 0x0d, 0x00, 0x00,
  0xf8, 0x0c, 0x00, 0x00, 0xe8, 0x09, 0x00, 0x00, 0xcc, 0x09, 0x00, 0x00,
  0xbc, 0x08, 0x00, 0x00, 0xac, 0x00, 0x00, 0x00, 0xa4, 0x00, 0x00, 0x00,
  0x9c, 0x00, 0x00, 0x00, 0x94, 0x00, 0x00, 0x00, 0x74, 0x00, 0x00, 0x00,
  0x04, 0x00, 0x00, 0x00, 0x9e, 0xf2, 0xff, 0xff, 0x04, 0x00, 0x00, 0x00,
  0x60, 0x00, 0x00, 0x00, 0x10, 0x00, 0x00, 0x00, 0x00, 0x00, 0x00, 0x00,
  0x08, 0x00, 0x0e, 0x00, 0x08, 0x00, 0x04, 0x00, 0x08, 0x00, 0x00, 0x00,
  0x10, 0x00, 0x00, 0x00, 0x24, 0x00, 0x00, 0x00, 0x00, 0x00, 0x06, 0x00,
  0x08, 0x00, 0x04, 0x00, 0x06, 0x00, 0x00, 0x00, 0x04, 0x00, 0x00, 0x00,
  0x00, 0x00, 0x00, 0x00, 0x0c, 0x00, 0x18, 0x00, 0x14, 0x00, 0x10, 0x00,
  0x0c, 0x00, 0x04, 0x00, 0x0c, 0x00, 0x00, 0x00, 0x06, 0xe0, 0x2d, 0xe0,
  0xc2, 0x3c, 0x64, 0x53, 0x02, 0x00, 0x00, 0x00, 0x02, 0x00, 0x00, 0x00,
  0x04, 0x00, 0x00, 0x00, 0x06, 0x00, 0x00, 0x00, 0x32, 0x2e, 0x31, 0x39,
  0x2e, 0x30, 0x00, 0x00, 0x0a, 0xf3, 0xff, 0xff, 0x04, 0x00, 0x00, 0x00,
  0x10, 0x00, 0x00, 0x00, 0x31, 0x2e, 0x35, 0x2e, 0x30, 0x00, 0x00, 0x00,
  0x00, 0x00, 0x00, 0x00, 0x00, 0x00, 0x00, 0x00, 0x6c, 0xef, 0xff, 0xff,
  0x70, 0xef, 0xff, 0xff, 0x74, 0xef, 0xff, 0xff, 0x32, 0xf3, 0xff, 0xff,
  0x04, 0x00, 0x00, 0x00, 0x00, 0x08, 0x00, 0x00, 0x36, 0x51, 0x0b, 0x3e,
  0x1a, 0xb1, 0xd0, 0x3e, 0xc2, 0x29, 0xff, 0xbe, 0xbb, 0x1b, 0x67, 0x3e,
  0xe8, 0x5a, 0xb7, 0x3c, 0x7e, 0x27, 0xdc, 0xbc, 0x51, 0xa4, 0xb5, 0x3e,
  0xd9, 0x27, 0x73, 0x3e, 0x2d, 0x10, 0x5d, 0xbd, 0xd4, 0x4c, 0x5e, 0xbe,
  0x81, 0xe4, 0x09, 0xbd, 0xe2, 0xab, 0x86, 0xbd, 0xb9, 0x2a, 0x60, 0xbe,
  0x51, 0x29, 0xd3, 0x3d, 0x6f, 0xfd, 0x35, 0xbe, 0x96, 0x81, 0x41, 0xbe,
  0x35, 0xce, 0x5c, 0xbe, 0xc2, 0x41, 0x11, 0xbe, 0x81, 0x6e, 0x08, 0x3d,
  0x36, 0xcd, 0xaa, 0x3e, 0x8d, 0x8e, 0x13, 0x3d, 0x3e, 0xf8, 0x3f, 0xbe,
  0xa7, 0x05, 0xb9, 0x3d, 0x4a, 0x34, 0x36, 0x3e, 0xc6, 0xfa, 0xc6, 0x3d,
  0x6b, 0x85, 0xc6, 0x3d, 0x79, 0xd5, 0x1a, 0xbf, 0x17, 0xba, 0x2b, 0x3e,
  0x2e, 0xce, 0xa7, 0x3e, 0x9f, 0xa3, 0x1d, 0x3e, 0x16, 0x1b, 0xa6, 0x3d,
  0x50, 0x41, 0xd1, 0x3e, 0xff, 0xbb, 0xd5, 0xbc, 0xc6, 0x5b, 0x82, 0x3d,
  0x6c, 0x1e, 0x7e, 0xbe, 0xf7, 0xa6, 0x06, 0x3e, 0x60, 0xea, 0x91, 0x3e,
  0xe9, 0x1c, 0x44, 0xbe, 0x16, 0x56, 0xed, 0x3d, 0xf2, 0x4f, 0xa6, 0xbd,
  0x52, 0xd3, 0x68, 0xbe, 0x8f, 0x91, 0x8c, 0xbe, 0xec, 0xc0, 0xbb, 0x3d,
  0xb9, 0xf2, 0xc0, 0x3d, 0x4e, 0xa9, 0xc6, 0x3a, 0x0e, 0x49, 0x0e, 0xbe,
  0xd1, 0x23, 0x70, 0xbe, 0x0c, 0x9f, 0xaf, 0xbe, 0x50, 0xf0, 0x61, 0xbe,
  0x0c, 0xc7, 0x48, 0xbe, 0x2e, 0x36, 0x2f, 0xbe, 0xf6, 0x7a, 0xdb, 0xbd,
  0x2a, 0xfa, 0x1d, 0x3d, 0x60, 0x17, 0xeb, 0x3c, 0x83, 0x11, 0x50, 0xbe,
  0xef, 0x89, 0x2f, 0x3e, 0x8b, 0x1d, 0xb3, 0xbd, 0x49, 0xd9, 0x08, 0xbd,
  0x37, 0x69, 0x39, 0x3f, 0xe3, 0xa3, 0xb1, 0x3d, 0xcc, 0x43, 0x5b, 0x3d,
  0xfe, 0xe6, 0x9c, 0x3e, 0xc7, 0x1b, 0xce, 0x3c, 0x3c, 0xf5, 0x0d, 0xbe,
  0x16, 0xdf, 0x89, 0xbe, 0x8b, 0xdb, 0x30, 0x3e, 0x1b, 0xa9, 0xbc, 0xbd,
  0x1e, 0xa9, 0xa3, 0xbe, 0x67, 0xb2, 0x0a, 0x3d, 0x7c, 0x5a, 0x28, 0xbe,
  0xb6, 0x2c, 0x25, 0xbe, 0x5d, 0xdb, 0x10, 0xbd, 0x4f, 0xef, 0x5c, 0xbc,
  0xec, 0x1e, 0xd6, 0x3d, 0x05, 0x13, 0xc5, 0xbe, 0x97, 0x41, 0x60, 0x3c,
  0x27, 0xe0, 0xc7, 0x3e, 0x6d, 0xb1, 0x39, 0xbe, 0x0f, 0xbd, 0x72, 0x3e,
  0x47, 0xb0, 0xa3, 0x3e, 0xa1, 0x69, 0xbb, 0xbd, 0x94, 0x90, 0x93, 0x3e,
  0x16, 0x2e, 0xd1, 0xbd, 0xf8, 0x3d, 0xad, 0xbd, 0x57, 0xc6, 0x8d, 0x3e,
  0x00, 0x57, 0x27, 0xbe, 0x5a, 0xa7, 0x2f, 0xbe, 0x62, 0xed, 0x59, 0x3e,
  0x05, 0x83, 0xff, 0x3c, 0x9f, 0xe8, 0x22, 0xbe, 0xe8, 0xbf, 0x07, 0x3f,
  0x59, 0x57, 0x8a, 0x3c, 0xd8, 0x2c, 0x60, 0x3d, 0xb1, 0xf1, 0x52, 0x3e,
  0xcc, 0xd7, 0x10, 0x3e, 0x12, 0xca, 0x8d, 0x3d, 0xf6, 0x94, 0x95, 0xbe,
  0x42, 0x10, 0x8c, 0xbd, 0x37, 0xf5, 0x22, 0xbe, 0xb8, 0x2e, 0x76, 0x3e,
  0xa7, 0xb0, 0x60, 0xbd, 0xfc, 0x45, 0x0c, 0xbe, 0xa1, 0xcd, 0x50, 0xbc,
  0x65, 0xfb, 0x37, 0xbc, 0xa8, 0xc0, 0x2d, 0x3e, 0xd8, 0xd5, 0x81, 0xbe,
  0xd0, 0xa8, 0x0f, 0x3f, 0xa4, 0x98, 0x35, 0x3e, 0x3a, 0xfd, 0x00, 0x3e,
  0xa7, 0xff, 0x18, 0x3e, 0xfd, 0xb2, 0xa3, 0x3d, 0x24, 0xc4, 0xc9, 0xbd,
  0x90, 0x85, 0xcf, 0x3d, 0xf2, 0x92, 0x1b, 0x3d, 0xce, 0xe9, 0x14, 0x3e,
  0x97, 0x13, 0xac, 0x3e, 0x0f, 0x8b, 0xca, 0xbd, 0x34, 0xb0, 0xe3, 0xbd,
  0x02, 0x54, 0x48, 0x3d, 0x73, 0xb2, 0x6c, 0x3d, 0xd4, 0x43, 0xe0, 0x3c,
  0xb3, 0x95, 0x93, 0x3d, 0xe2, 0xcd, 0x8c, 0x3e, 0xce, 0x43, 0x85, 0x3c,
  0x51, 0x6e, 0x86, 0x3e, 0xa3, 0x60, 0xf5, 0x3c, 0x68, 0x23, 0x5a, 0xbe,
  0x64, 0x8d, 0x8b, 0xbd, 0x2f, 0x32, 0x49, 0x3e, 0xb0, 0xa6, 0xb2, 0x3e,
  0x10, 0xae, 0x11, 0xbf, 0x8f, 0x57, 0x68, 0xbe, 0x4e, 0xb6, 0x88, 0x3e,
  0x57, 0x50, 0xaa, 0xbe, 0x11, 0x54, 0xcd, 0x3e, 0x0d, 0xf3, 0xa9, 0x3e,
  0x18, 0x9b, 0xc5, 0x3e, 0xc9, 0x8b, 0x11, 0x3e, 0x0a, 0xae, 0x66, 0xbe,
  0x06, 0x5d, 0x1b, 0xbe, 0x4b, 0xe7, 0xad, 0x3c, 0x4c, 0x81, 0xce, 0xbe,
  0xb6, 0x28, 0xba, 0x3e, 0x9b, 0x17, 0xb2, 0x3e, 0x91, 0x67, 0xd6, 0x3b,
  0xf0, 0x03, 0x1f, 0xbd, 0xcb, 0x96, 0x28, 0xbe, 0x68, 0x95, 0x71, 0xbe,
  0xfe, 0xeb, 0x81, 0x3d, 0x65, 0xca, 0x6c, 0xbe, 0xa1, 0x0b, 0x3e, 0xbe,
  0x94, 0xcc, 0x8a, 0xbd, 0x22, 0x52, 0x52, 0xbe, 0xad, 0x11, 0x0a, 0x3e,
  0x27, 0x8c, 0x78, 0x3d, 0x68, 0xf8, 0x16, 0x3e, 0xd9, 0x78, 0x4e, 0x3e,
  0xbd, 0x10, 0x94, 0xbe, 0x47, 0x40, 0x40, 0x3d, 0x99, 0x82, 0xe3, 0xbd,
  0x16, 0x0b, 0xe6, 0x3d, 0xbc, 0x8d, 0xa3, 0xbe, 0xeb, 0xd0, 0xba, 0x3d,
  0xce, 0xda, 0xa9, 0xbe, 0x2b, 0x0a, 0x82, 0xbd, 0x24, 0x96, 0xc3, 0xbc,
  0x31, 0x05, 0x9b, 0xbe, 0xb7, 0x92, 0x92, 0xbe, 0xc9, 0x85, 0x01, 0x3e,
  0xec, 0xa0, 0xe7, 0x3c, 0xa8, 0x89, 0xea, 0xbc, 0xea, 0xb5, 0xe3, 0xbb,
  0x6f, 0x79, 0x8f, 0xbe, 0x08, 0x36, 0x9a, 0xbe, 0x27, 0x94, 0x16, 0xbe,
  0xea, 0x74, 0xb3, 0xbd, 0x7b, 0x93, 0x61, 0x3e, 0xab, 0x2b, 0xe2, 0x3e,
  0xb2, 0xd9, 0x21, 0xbf, 0xfd, 0x05, 0x8d, 0xbe, 0x78, 0x36, 0x19, 0x3e,
  0x20, 0xad, 0x88, 0x3d, 0xdc, 0x2d, 0x08, 0x3e, 0x83, 0x85, 0xce, 0x3e,
  0xb9, 0x70, 0x1f, 0xbe, 0xc4, 0x54, 0x59, 0xbe, 0x6c, 0xba, 0xd1, 0x3d,
  0x7a, 0x65, 0x60, 0xbe, 0x09, 0xdd, 0x49, 0xbe, 0xb8, 0x2c, 0x66, 0x3d,
  0xc9, 0x0f, 0x92, 0x3b, 0x78, 0xf0, 0x45, 0x3b, 0x0a, 0x4b, 0x92, 0xbe,
  0x0e, 0x5b, 0x5f, 0xbe, 0xa3, 0x9d, 0xbf, 0x3d, 0x32, 0x7b, 0x24, 0x3e,
  0xd9, 0x2c, 0x8c, 0xbe, 0xab, 0x73, 0xed, 0xbd, 0x3f, 0x78, 0xfb, 0x3d,
  0xc5, 0xde, 0x16, 0xbe, 0x44, 0x4a, 0x10, 0xbe, 0x4c, 0xff, 0x3b, 0x3e,
  0x90, 0xbf, 0xd4, 0x3e, 0x7a, 0x68, 0x81, 0x3d, 0xc8, 0x96, 0x16, 0x3d,
  0x42, 0xa3, 0xd5, 0x3e, 0x49, 0x8c, 0x8c, 0xbd, 0xaf, 0xfd, 0x36, 0x3b,
  0xe3, 0x3e, 0xd5, 0x3e, 0x4a, 0x2e, 0x8d, 0x3e, 0x21, 0x3d, 0x23, 0x3e,
  0x00, 0xac, 0xa5, 0x3e, 0x6b, 0x85, 0x07, 0x3b, 0xe8, 0x9d, 0xdc, 0x3d,
  0x08, 0x27, 0x0f, 0xbc, 0xc8, 0x4e, 0x31, 0xbe, 0x4f, 0x28, 0x80, 0xbd,
  0x6b, 0x53, 0x1e, 0x3e, 0x0b, 0x63, 0xea, 0xbd, 0x39, 0x8f, 0x3f, 0xbd,
  0x24, 0x0a, 0x70, 0x3d, 0x2f, 0xb6, 0xb4, 0xbe, 0xf9, 0x26, 0x9d, 0xbe,
  0xce, 0xd7, 0x07, 0xbd, 0x88, 0x2d, 0x3e, 0x3d, 0xd0, 0xa2, 0xc1, 0xbe,
  0x9c, 0xff, 0x95, 0xbe, 0x00, 0xc3, 0xf7, 0xbd, 0xb0, 0x7d, 0x56, 0xbd,
  0x27, 0xe2, 0xaf, 0xbd, 0x42, 0xae, 0xfb, 0x3d, 0xe5, 0x03, 0xf1, 0x3d,
  0x52, 0x8d, 0x9f, 0xbc, 0xce, 0xe7, 0x8f, 0xbe, 0xc1, 0x86, 0x80, 0xbe,
  0x41, 0x22, 0x94, 0xbc, 0xce, 0xa2, 0x60, 0xbe, 0x93, 0xc9, 0xdd, 0x3d,
  0xf9, 0x66, 0x60, 0xbe, 0x3c, 0x16, 0x78, 0xbe, 0xe6, 0x79, 0xa8, 0xbe,
  0xa3, 0x11, 0xbd, 0xbd, 0xba, 0x89, 0x97, 0xbe, 0xaf, 0x0b, 0x68, 0x3d,
  0x28, 0xd8, 0xf1, 0xbc, 0xed, 0x8c, 0x31, 0xbe, 0xaa, 0x0f, 0x96, 0xbe,
  0xde, 0xe3, 0x6b, 0xbd, 0x34, 0xa6, 0x73, 0x3e, 0x22, 0xb5, 0x4f, 0xbe,
  0xd7, 0x69, 0x2a, 0x3f, 0x0e, 0xb8, 0x4a, 0x3d, 0xdc, 0x4f, 0x26, 0xbe,
  0xf9, 0x11, 0xdf, 0x3e, 0x8b, 0xde, 0x93, 0x3e, 0x93, 0x21, 0x39, 0xbe,
  0x8b, 0xcc, 0x77, 0xbe, 0x2e, 0x66, 0x49, 0xbe, 0x1b, 0xa7, 0x01, 0xbe,
  0xb5, 0xa4, 0xb5, 0xbc, 0xf1, 0x40, 0xe8, 0xbd, 0xef, 0x25, 0x3e, 0x3e,
  0x98, 0x9e, 0x94, 0xbd, 0xee, 0xef, 0x58, 0xbe, 0xa4, 0xf5, 0xc9, 0xbb,
  0xf5, 0x92, 0xa7, 0xbe, 0x23, 0xfc, 0x0d, 0xbe, 0xa5, 0x5f, 0x8a, 0xbd,
  0x50, 0x6d, 0x32, 0x3e, 0x56, 0xbd, 0x8c, 0xbd, 0x46, 0x4a, 0x86, 0xbe,
  0x4f, 0x69, 0x7d, 0xbe, 0xd6, 0x3c, 0xe8, 0xbd, 0x1c, 0xd5, 0x8e, 0xbe,
  0x35, 0x0c, 0x04, 0x3f, 0xf3, 0x44, 0x96, 0x3e, 0x5c, 0x87, 0x78, 0x3e,
  0xb1, 0xb9, 0xc8, 0x3e, 0x2c, 0x94, 0x36, 0xbe, 0x59, 0x62, 0x42, 0x3e,
  0x47, 0xa2, 0xb6, 0x3d, 0x25, 0xc3, 0x00, 0x3e, 0x71, 0x32, 0x1e, 0xbd,
  0x5e, 0xff, 0x72, 0x3e, 0xe5, 0x78, 0x34, 0x3c, 0x41, 0x55, 0xab, 0xbe,
  0x54, 0x5c, 0xea, 0x3e, 0x62, 0x69, 0x6a, 0x3e, 0xe2, 0x18, 0x54, 0xbe,
  0x43, 0xf0, 0x80, 0xbe, 0x11, 0xc9, 0x46, 0x3e, 0x1f, 0x81, 0x13, 0xbe,
  0x3e, 0x64, 0xb9, 0xbd, 0x19, 0x59, 0x99, 0xbe, 0x16, 0x35, 0x7a, 0xbe,
  0x1b, 0xfc, 0x52, 0xbe, 0xda, 0x5c, 0xd9, 0x3e, 0xdb, 0x52, 0xfd, 0x3e,
  0xe4, 0xb5, 0x6f, 0xbf, 0xba, 0xce, 0x95, 0xbd, 0x16, 0xcc, 0xee, 0x3e,
  0x3d, 0xb6, 0xca, 0xbe, 0xb6, 0x49, 0xd4, 0x3e, 0x5f, 0x65, 0x89, 0x3d,
  0x95, 0x7b, 0x7b, 0xbd, 0x5e, 0x63, 0x15, 0xbe, 0xaf, 0x53, 0xa1, 0x3d,
  0x13, 0x4b, 0x9e, 0xbe, 0x9b, 0x24, 0xa1, 0x3d, 0x6a, 0xf4, 0x8c, 0x3e,
  0xac, 0x1c, 0x9f, 0xbd, 0x4f, 0x08, 0x58, 0xbe, 0x53, 0x6a, 0x97, 0x3e,
  0x0f, 0x0c, 0x54, 0x3e, 0x69, 0xe4, 0x09, 0x3f, 0x1c, 0x88, 0xb5, 0x3e,
  0xde, 0x4f, 0x0e, 0x3d, 0x3d, 0xd8, 0x02, 0x3d, 0x15, 0xcb, 0x74, 0x3e,
  0xcd, 0x0f, 0x8f, 0xbe, 0x26, 0x91, 0x0a, 0x3e, 0xde, 0x97, 0x3c, 0xbe,
  0x51, 0x23, 0x35, 0x3e, 0xac, 0x27, 0x4a, 0xbe, 0xb7, 0x04, 0xa2, 0x3d,
  0x6a, 0xef, 0x01, 0x3e, 0x06, 0x27, 0x12, 0xbe, 0xe7, 0xdc, 0x10, 0x3d,
  0x8c, 0xe2, 0x8c, 0x3e, 0xfc, 0xda, 0x8c, 0xbd, 0x79, 0x3f, 0x23, 0xbe,
  0x02, 0xad, 0x5e, 0x3e, 0xef, 0x94, 0x25, 0x3e, 0xca, 0xa2, 0xa1, 0xbd,
  0x70, 0xe3, 0x17, 0x3c, 0x8a, 0x35, 0x7f, 0xbe, 0x25, 0x1a, 0x5c, 0x3e,
  0xc7, 0x5e, 0x54, 0x3e, 0xf5, 0xed, 0xf4, 0x3e, 0x9e, 0xef, 0x47, 0x3e,
  0x83, 0x3f, 0x58, 0x3e, 0xd1, 0xa1, 0xf3, 0x3e, 0x64, 0xda, 0x17, 0xbe,
  0x0b, 0xde, 0xe8, 0xbd, 0x25, 0x4f, 0xa1, 0x3e, 0xba, 0x18, 0x68, 0x3e,
  0xeb, 0x98, 0x29, 0x3f, 0xa1, 0xdd, 0x49, 0x3d, 0x7b, 0xbb, 0xf9, 0xbd,
  0x77, 0x84, 0xb4, 0x3e, 0x28, 0x34, 0x16, 0xbc, 0x27, 0xa5, 0x95, 0xbe,
  0x1f, 0x1b, 0x6c, 0xbe, 0xd6, 0x85, 0x0e, 0x3e, 0x93, 0xb8, 0x4e, 0x3f,
  0x43, 0x01, 0x43, 0x3e, 0xa1, 0xee, 0x43, 0x3c, 0xec, 0xfe, 0x13, 0x3c,
  0x4c, 0xb7, 0x3a, 0x3e, 0x71, 0x7c, 0x88, 0xbe, 0xa4, 0x4d, 0x90, 0xbc,
  0x83, 0x51, 0xae, 0x3e, 0xf1, 0xb2, 0xc7, 0x3e, 0x86, 0x6f, 0x72, 0x3e,
  0x5b, 0x4a, 0xb6, 0x3e, 0x02, 0x4c, 0xec, 0x3e, 0xe8, 0x8d, 0x14, 0x3e,
  0x2b, 0x2b, 0x4f, 0x3e, 0xe3, 0x49, 0x86, 0xbe, 0xc7, 0x46, 0xee, 0x3d,
  0x06, 0x1b, 0xa7, 0x3d, 0x63, 0x12, 0x6d, 0xbe, 0xe4, 0x3d, 0xd0, 0x3d,
  0x6f, 0xa4, 0x38, 0xbe, 0x14, 0xf3, 0x1e, 0xbd, 0xc9, 0x51, 0x91, 0xbe,
  0x22, 0x12, 0x9d, 0x3e, 0xfa, 0xde, 0xb9, 0x3e, 0xa5, 0x7e, 0x2a, 0xbf,
  0x91, 0x2c, 0xc2, 0x3d, 0x33, 0xf8, 0x98, 0x3e, 0xfd, 0x45, 0x8c, 0x3d,
  0x4a, 0x78, 0x00, 0xbe, 0x91, 0x3d, 0x4f, 0x3e, 0xcd, 0xba, 0x1f, 0x3e,
  0x7e, 0x05, 0x87, 0xbe, 0x47, 0xda, 0x5f, 0xbe, 0x7f, 0xd3, 0xe7, 0x3d,
  0xf7, 0xe3, 0xb6, 0x3d, 0x78, 0xba, 0xb1, 0xbe, 0xaa, 0x4b, 0x33, 0xbe,
  0xdf, 0xeb, 0x8d, 0xbe, 0xdf, 0x4e, 0xfa, 0x3d, 0xc3, 0x33, 0x32, 0xbe,
  0xfc, 0xfd, 0x57, 0xbe, 0x07, 0x6f, 0x81, 0xbd, 0xcf, 0x04, 0x34, 0x3e,
  0xb3, 0x3a, 0x6c, 0xbe, 0x4e, 0x1e, 0xe3, 0x3d, 0x1a, 0x2a, 0x3b, 0xbe,
  0x6f, 0xd2, 0x88, 0xbe, 0x5a, 0x46, 0x9a, 0x3d, 0xbb, 0x18, 0xe6, 0x3d,
  0x67, 0x7e, 0x59, 0x3e, 0x3d, 0xba, 0x53, 0xbe, 0x93, 0x56, 0xbb, 0xbe,
  0x06, 0x99, 0x8d, 0xbe, 0x6b, 0xc5, 0xe5, 0x3d, 0x7e, 0x38, 0x8c, 0xbc,
  0x80, 0xce, 0xd8, 0xbd, 0xcf, 0xc5, 0x56, 0x3e, 0xc1, 0x8a, 0x4b, 0xbe,
  0xf6, 0x10, 0x44, 0xbb, 0xf8, 0x8e, 0xb2, 0xbe, 0xdc, 0x10, 0x5c, 0xbe,
  0xdf, 0xe8, 0x76, 0xbe, 0x1e, 0x18, 0x9c, 0x3e, 0x37, 0xfd, 0xef, 0x3e,
  0xb6, 0xaf, 0x37, 0xbf, 0x1d, 0x9f, 0x6a, 0xbe, 0xbd, 0x54, 0x4b, 0x3d,
  0xba, 0x54, 0x59, 0xbe, 0x22, 0x40, 0xe5, 0x3e, 0x6c, 0x19, 0x96, 0x3e,
  0x93, 0x53, 0x9f, 0x3d, 0x99, 0xe5, 0x03, 0xbe, 0x8b, 0x9d, 0x5c, 0x3d,
  0x83, 0xcc, 0x8a, 0xbe, 0xd2, 0x28, 0x2f, 0xbe, 0x7c, 0x99, 0xed, 0x3d,
  0x84, 0x32, 0xa8, 0x3d, 0xf6, 0xec, 0xa8, 0x3e, 0xb8, 0x73, 0x91, 0xbc,
  0x8c, 0xcc, 0x93, 0x3d, 0x97, 0xab, 0x0b, 0x3d, 0xb8, 0x0f, 0x80, 0x3e,
  0x60, 0x54, 0x51, 0xbe, 0xda, 0xed, 0xe8, 0xbd, 0xd4, 0xaf, 0x5f, 0xbe,
  0x29, 0x70, 0x5e, 0xbe, 0x97, 0x1e, 0x15, 0xbe, 0x2e, 0x0b, 0x2d, 0x3e,
  0xa9, 0xed, 0x32, 0xbe, 0xae, 0xf3, 0x6b, 0xbd, 0x79, 0x26, 0xb2, 0xbc,
  0x1e, 0xd1, 0x28, 0xbe, 0xa2, 0x84, 0x33, 0xbe, 0xbd, 0x00, 0x15, 0xbe,
  0x0c, 0x9e, 0xd7, 0xbe, 0x9e, 0xd1, 0x8c, 0xbe, 0x7c, 0x03, 0x5f, 0x3d,
  0xd6, 0x80, 0x79, 0xbe, 0x25, 0x2d, 0xdd, 0xbe, 0x77, 0x86, 0xa6, 0x3c,
  0xe1, 0x5f, 0xb2, 0x3b, 0xa0, 0x89, 0x7f, 0xbe, 0x27, 0xaa, 0x88, 0xbe,
  0x51, 0x46, 0x75, 0x3d, 0x08, 0xa9, 0x00, 0x3e, 0x9c, 0xbb, 0x93, 0x3c,
  0x39, 0x96, 0xfa, 0x3d, 0xc5, 0x29, 0xa5, 0xbe, 0x83, 0x76, 0xa1, 0xbe,
  0x98, 0xaa, 0x2f, 0x3d, 0x0c, 0xa4, 0xcb, 0x3b, 0x35, 0x8c, 0xae, 0xbe,
  0x59, 0xe7, 0x36, 0xbe, 0x4d, 0x85, 0xc7, 0xbe, 0x57, 0x18, 0xb0, 0xbe,
  0x18, 0x25, 0xa8, 0xbd, 0x6d, 0x81, 0x35, 0x3d, 0x37, 0x16, 0x0c, 0x3e,
  0x0b, 0x63, 0x84, 0xbe, 0x13, 0xbc, 0x48, 0x3d, 0x0f, 0xaa, 0xa5, 0xbd,
  0xf2, 0x3d, 0xe8, 0x3b, 0x01, 0x51, 0x24, 0xbe, 0x0e, 0x07, 0x62, 0xbe,
  0xc3, 0xed, 0x43, 0x3c, 0x5e, 0x1e, 0x0d, 0x3e, 0x6f, 0xfd, 0x0f, 0x3e,
  0x65, 0xc8, 0x01, 0xbe, 0xd5, 0x83, 0xae, 0x3e, 0x67, 0x8d, 0x46, 0x3c,
  0x5f, 0x0e, 0x8e, 0xbc, 0xcc, 0x09, 0x09, 0x3e, 0x9c, 0x4c, 0x4c, 0xbb,
  0x5f, 0x49, 0x4c, 0xbc, 0x09, 0x06, 0x81, 0x3e, 0xa9, 0x5e, 0xe7, 0x3e,
  0x87, 0x15, 0x8b, 0xbe, 0xc7, 0xbe, 0xcc, 0xbc, 0x65, 0xd9, 0x2b, 0x3d,
  0x85, 0x93, 0x87, 0x3d, 0xc6, 0xab, 0x76, 0x3e, 0x1e, 0x81, 0x2e, 0x3e,
  0x9a, 0x47, 0x37, 0xbe, 0x66, 0x0e, 0x0f, 0x3e, 0x16, 0x30, 0xf0, 0x3d,
  0x46, 0x98, 0xdb, 0x3d, 0xc1, 0xaf, 0x82, 0xbd, 0x7f, 0x36, 0x4e, 0xbe,
  0x45, 0x3f, 0xb1, 0xbe, 0xee, 0x89, 0xb5, 0xbe, 0x24, 0x49, 0x8c, 0xbc,
  0xff, 0x83, 0xa4, 0xbe, 0xfc, 0xab, 0x7c, 0xbe, 0x45, 0x5a, 0x4d, 0x3e,
  0x55, 0x02, 0x97, 0x3d, 0x6e, 0x08, 0x1c, 0x3d, 0xf4, 0x66, 0x2c, 0xbe,
  0xf4, 0x8e, 0xb3, 0xbe, 0x3e, 0xfb, 0xff, 0xff, 0x04, 0x00, 0x00, 0x00,
  0x00, 0x01, 0x00, 0x00, 0x2f, 0xb2, 0x33, 0x3e, 0xa7, 0xcb, 0x46, 0xbd,
  0x29, 0x10, 0x15, 0xbd, 0x4e, 0x87, 0x59, 0x3e, 0x44, 0x2e, 0x17, 0x3e,
  0x93, 0xc2, 0x84, 0x3d, 0xfd, 0x14, 0x5b, 0xbc, 0xde, 0xee, 0xe2, 0x3d,
  0xc3, 0x66, 0x76, 0x3d, 0xe5, 0x49, 0x44, 0x3e, 0xbb, 0x3d, 0xbb, 0x3d,
  0xe2, 0x24, 0x16, 0x3d, 0xaa, 0xfe, 0xff, 0x3d, 0xf6, 0x86, 0xe8, 0xba,
  0x8b, 0x12, 0xc2, 0x3d, 0xef, 0xf1, 0x00, 0x3d, 0xf7, 0x1a, 0x87, 0x3e,
  0xb1, 0x24, 0x1c, 0x3e, 0x8b, 0xa6, 0x36, 0x3d, 0x87, 0xfa, 0x51, 0xbd,
  0xe2, 0x5d, 0xd6, 0xbc, 0xb7, 0xc8, 0x2b, 0x3c, 0x85, 0xb4, 0x56, 0x3e,
  0xd0, 0xb8, 0x5a, 0xbd, 0x94, 0xcc, 0x9e, 0x3d, 0xb7, 0x37, 0xc7, 0xbc,
  0x4f, 0x43, 0x05, 0x3e, 0x36, 0x4e, 0x9b, 0x3d, 0xcd, 0xf8, 0x8d, 0xbc,
  0x87, 0x44, 0x81, 0x3d, 0xab, 0xec, 0x83, 0x3d, 0x56, 0x65, 0xf9, 0x3b,
  0x50, 0x56, 0xab, 0x3d, 0x17, 0x50, 0x9c, 0x3d, 0x7c, 0xd5, 0xda, 0xbc,
  0x5c, 0xdc, 0x58, 0x3e, 0x13, 0x9a, 0xb5, 0x3d, 0x38, 0x87, 0xaa, 0x3e,
  0xab, 0xb4, 0xeb, 0x3c, 0x05, 0x4e, 0x1f, 0x3e, 0xd9, 0x88, 0x74, 0xbd,
  0x0c, 0xc7, 0xa1, 0x3d, 0x6e, 0x28, 0x0c, 0x3e, 0x34, 0x91, 0xb2, 0x3d,
  0x78, 0xfb, 0xf4, 0x3d, 0xa1, 0x6d, 0x15, 0x3e, 0x43, 0x26, 0x82, 0xbd,
  0xce, 0x34, 0x9a, 0x3d, 0x7b, 0xf0, 0x20, 0xbd, 0x7e, 0x5c, 0xc9, 0xbd,
  0x94, 0x7e, 0x63, 0x3d, 0x98, 0xf7, 0x15, 0x3d, 0x59, 0xaf, 0x67, 0x3e,
  0xda, 0x92, 0x3e, 0xbd, 0x8f, 0x7f, 0x82, 0xbd, 0xac, 0x1c, 0x6d, 0x3d,
  0x0a, 0x7c, 0x08, 0x3e, 0xf9, 0x3e, 0x5f, 0xbb, 0xdc, 0xce, 0xcf, 0x3b,
  0xaf, 0x42, 0x57, 0x3c, 0x52, 0x2e, 0x43, 0x3d, 0xfe, 0x1e, 0x21, 0x3e,
  0x41, 0xaa, 0x90, 0x3d, 0xe9, 0x96, 0x7c, 0x3d, 0x4a, 0xfc, 0xff, 0xff,
  0x04, 0x00, 0x00, 0x00, 0x0c, 0x00, 0x00, 0x00, 0x77, 0x40, 0xf4, 0xbd,
  0xad, 0x22, 0xa7, 0x3c, 0x2f, 0x9c, 0xb0, 0x3d, 0x62, 0xfc, 0xff, 0xff,
  0x04, 0x00, 0x00, 0x00, 0x00, 0x03, 0x00, 0x00, 0x12, 0xab, 0xc5, 0xbe,
  0x92, 0x35, 0x54, 0x3d, 0xc8, 0x8e, 0x4c, 0xbe, 0xec, 0xd1, 0x8a, 0xbe,
  0x20, 0x6f, 0x11, 0xbd, 0xdb, 0x47, 0x84, 0x3e, 0x28, 0xb1, 0x4f, 0x3e,
  0xce, 0x55, 0xfb, 0xbd, 0xae, 0xc8, 0x97, 0x3e, 0xbd, 0x58, 0xd1, 0x3d,
  0xc5, 0xb8, 0x63, 0xbe, 0xe6, 0xb1, 0x88, 0xbd, 0x1b, 0x8f, 0x0e, 0x3e,
  0xe4, 0x22, 0x07, 0xbd, 0x0a, 0x34, 0xc8, 0xbe, 0xdf, 0xf1, 0x82, 0xbe,
  0xc4, 0x42, 0xf8, 0xbd, 0xb3, 0x28, 0x23, 0xbe, 0xd6, 0x5f, 0xa5, 0x3e,
  0x91, 0x57, 0xf3, 0x3d, 0xe9, 0xdd, 0x1f, 0x3e, 0x08, 0x22, 0x9b, 0x3e,
  0x5c, 0x1a, 0x82, 0xbe, 0xbd, 0x55, 0x65, 0xbe, 0x8b, 0x25, 0x11, 0xbd,
  0xe9, 0x96, 0x36, 0x3d, 0xe9, 0x92, 0x08, 0xbf, 0xe3, 0x23, 0xcb, 0x3e,
  0x1b, 0xe4, 0x9c, 0x3e, 0x48, 0x6c, 0x2b, 0x3e, 0xd1, 0x0e, 0x84, 0x3e,
  0xb8, 0x76, 0x58, 0xbe, 0xc7, 0x66, 0x4c, 0xbc, 0x0f, 0x68, 0x47, 0x3e,
  0x6a, 0xf2, 0x5b, 0x3d, 0xa9, 0x22, 0x70, 0xbe, 0xb2, 0x5e, 0xae, 0x3e,
  0xfd, 0xfa, 0x70, 0xbd, 0xed, 0x33, 0x75, 0x3d, 0xd1, 0x98, 0x08, 0xbf,
  0xe7, 0xca, 0x73, 0x3d, 0xfe, 0x26, 0x8d, 0xbe, 0xf4, 0x92, 0xa5, 0xbe,
  0x71, 0xe8, 0x1e, 0xbe, 0xea, 0x9c, 0x9b, 0xbb, 0xbf, 0x29, 0xbe, 0xbe,
  0x9a, 0xd7, 0x3c, 0x3e, 0x06, 0x13, 0xfe, 0x3c, 0x17, 0x2a, 0xd2, 0x3d,
  0xab, 0x5f, 0x80, 0xbe, 0x06, 0x7e, 0x81, 0x3e, 0xcd, 0x1c, 0x8d, 0x3e,
  0xa8, 0x8c, 0x88, 0xbe, 0x37, 0x53, 0x45, 0x3e, 0x4f, 0x78, 0x6b, 0xbe,
  0xbf, 0xd8, 0x88, 0x3e, 0x97, 0x3d, 0xd8, 0xbd, 0x70, 0x0e, 0x77, 0x3e,
  0xa9, 0x50, 0x4e, 0x3e, 0x6d, 0x2c, 0xae, 0x3e, 0x21, 0xa6, 0x4c, 0xbe,
  0xdf, 0xc9, 0xcc, 0xbe, 0xe3, 0x88, 0x8f, 0xba, 0x95, 0x34, 0xb3, 0x3e,
  0x3a, 0x40, 0x33, 0xbe, 0x07, 0xcf, 0x3c, 0x3e, 0xd4, 0x80, 0xaa, 0x3d,
  0x9c, 0x34, 0xaf, 0xbd, 0xd6, 0x8b, 0x95, 0xbd, 0xbe, 0x6d, 0x2b, 0xbe,
  0x88, 0x85, 0x5e, 0x3e, 0xf8, 0xaf, 0xe5, 0x3e, 0x22, 0x93, 0xba, 0xbe,
  0x27, 0x22, 0xef, 0xbe, 0xd5, 0xc3, 0xe7, 0x3d, 0x98, 0x2e, 0xf0, 0x3e,
  0x3d, 0xdc, 0x8c, 0xbe, 0x04, 0x1f, 0xb4, 0x3e, 0xa7, 0xc0, 0x5a, 0x3e,
  0x4c, 0x6c, 0x46, 0x3e, 0x23, 0x38, 0x9b, 0xbe, 0x82, 0x90, 0xed, 0xbe,
  0xff, 0x78, 0x54, 0x3d, 0x38, 0x47, 0x32, 0xbe, 0x77, 0xb9, 0x8a, 0xbd,
  0xfe, 0x40, 0xbb, 0xbe, 0xfc, 0xb8, 0x08, 0xbf, 0x81, 0xb1, 0x48, 0x3e,
  0xaf, 0x33, 0xc7, 0xbe, 0xc4, 0x01, 0xd0, 0x3e, 0xba, 0x87, 0xae, 0x3e,
  0xd2, 0xb0, 0x6a, 0x3c, 0x92, 0xfa, 0xc1, 0xbd, 0xdc, 0x92, 0xa7, 0xbe,
  0x46, 0x40, 0x28, 0xbe, 0xc8, 0x80, 0xc5, 0x3d, 0xd1, 0x0f, 0xa2, 0xbe,
  0x6a, 0xcb, 0xc2, 0xbc, 0x8e, 0x2a, 0x86, 0x3e, 0x27, 0x57, 0xd0, 0xbb,
  0xe7, 0x0f, 0x51, 0x3e, 0x17, 0x11, 0xb5, 0xbe, 0x04, 0xf7, 0x00, 0x3e,
  0x77, 0x20, 0xb5, 0x3d, 0xc1, 0x2c, 0xae, 0x3b, 0x11, 0xec, 0x04, 0x3c,
  0x5a, 0xec, 0xad, 0x3e, 0x40, 0x4b, 0x96, 0x3e, 0x21, 0xe4, 0x76, 0x3e,
  0xaf, 0x43, 0xb1, 0x3e, 0x7f, 0xe7, 0xc1, 0xbd, 0xae, 0xff, 0x34, 0xbe,
  0x11, 0xe2, 0xfb, 0xbc, 0x0f, 0x0b, 0x6e, 0x3e, 0x24, 0x95, 0xbe, 0xbe,
  0x81, 0x2f, 0x72, 0xbd, 0x6f, 0x62, 0x0b, 0xbf, 0x07, 0x62, 0x55, 0xbe,
  0xa7, 0xe2, 0xc2, 0x3d, 0x3b, 0x31, 0x61, 0xbd, 0x95, 0x37, 0xc1, 0xbe,
  0xd2, 0xa8, 0x7f, 0xbd, 0x47, 0xf4, 0x4d, 0xbe, 0x2e, 0xa7, 0x02, 0xbe,
  0x57, 0x9a, 0x23, 0x3e, 0x88, 0xbf, 0x84, 0xbe, 0x11, 0xf3, 0xbf, 0xbe,
  0xf0, 0xc6, 0x49, 0x3d, 0x4e, 0x26, 0xf5, 0x3e, 0x48, 0xfa, 0x48, 0x3e,
  0xf1, 0x92, 0x8b, 0xbe, 0xeb, 0x49, 0xe6, 0x3e, 0xce, 0xed, 0x9e, 0x3e,
  0xc4, 0x5a, 0x4b, 0xbe, 0x3a, 0x4a, 0x95, 0xbe, 0xc9, 0xc4, 0xe0, 0xbe,
  0xb2, 0x5b, 0x70, 0xbe, 0x82, 0x5b, 0x0d, 0x3f, 0xdf, 0xc7, 0x07, 0x3f,
  0xc5, 0x25, 0xb4, 0xbe, 0xd9, 0xbd, 0x6a, 0x3e, 0x4d, 0x87, 0xe5, 0xbe,
  0x71, 0x15, 0x04, 0x3e, 0x25, 0x69, 0xd0, 0xbe, 0xd8, 0x6b, 0xec, 0x3e,
  0xf0, 0x34, 0xa0, 0x3e, 0x20, 0x9d, 0x83, 0xbe, 0xfc, 0xbd, 0x2f, 0xbe,
  0x4e, 0xf9, 0xb1, 0x3d, 0x05, 0xc4, 0x85, 0xbe, 0x50, 0x5f, 0xb0, 0x3e,
  0xbc, 0x7e, 0x57, 0x3e, 0x9f, 0x91, 0xa8, 0xbe, 0x86, 0xdd, 0xaf, 0xbe,
  0x33, 0x3e, 0xed, 0xbd, 0x82, 0x0e, 0x47, 0xbd, 0xed, 0x31, 0xdc, 0xbd,
  0x39, 0x10, 0xaf, 0xbe, 0x9a, 0x2b, 0x17, 0xbd, 0x99, 0x55, 0xfe, 0xbe,
  0x55, 0x68, 0x83, 0xbe, 0x91, 0x31, 0xb0, 0xbe, 0x64, 0x37, 0xd7, 0xbe,
  0x2f, 0xdc, 0x78, 0x3e, 0x13, 0xc0, 0xa5, 0xbe, 0x9b, 0xaf, 0x2c, 0x3f,
  0x89, 0xb4, 0x9c, 0xbe, 0x66, 0x7b, 0xbe, 0xbe, 0xa4, 0x02, 0xbb, 0xbd,
  0xc9, 0x3c, 0xb6, 0x3e, 0xb1, 0xbc, 0xa6, 0xbd, 0x4c, 0x0c, 0x4c, 0xbe,
  0x35, 0x33, 0x1b, 0xbf, 0x41, 0x42, 0x43, 0x3e, 0xe3, 0x9d, 0xb7, 0xbc,
  0x30, 0x58, 0x3c, 0x3e, 0x46, 0xbd, 0x8a, 0xbd, 0x65, 0x18, 0x98, 0xbe,
  0xd6, 0xaa, 0x0d, 0xbb, 0x80, 0xb9, 0x46, 0x3e, 0x8f, 0x6c, 0xe1, 0x3e,
  0x15, 0x06, 0xa1, 0x3e, 0x42, 0x95, 0x45, 0xbe, 0x77, 0x15, 0xa1, 0xbe,
  0xa2, 0x3f, 0xc0, 0xbe, 0x06, 0x92, 0x69, 0xbd, 0xd5, 0xae, 0x30, 0xbe,
  0xbf, 0x10, 0x6a, 0xbe, 0x7d, 0xf4, 0x0e, 0xbf, 0xd9, 0x32, 0xa7, 0x3e,
  0x6e, 0xcc, 0x33, 0xbc, 0xa8, 0xe0, 0xa1, 0xbe, 0xb4, 0xfb, 0xff, 0xff,
  0xb8, 0xfb, 0xff, 0xff, 0x0f, 0x00, 0x00, 0x00, 0x4d, 0x4c, 0x49, 0x52,
  0x20, 0x43, 0x6f, 0x6e, 0x76, 0x65, 0x72, 0x74, 0x65, 0x64, 0x2e, 0x00,
  0x01, 0x00, 0x00, 0x00, 0x14, 0x00, 0x00, 0x00, 0x00, 0x00, 0x0e, 0x00,
  0x18, 0x00, 0x14, 0x00, 0x10, 0x00, 0x0c, 0x00, 0x08, 0x00, 0x04, 0x00,
  0x0e, 0x00, 0x00, 0x00, 0x14, 0x00, 0x00, 0x00, 0x1c, 0x00, 0x00, 0x00,
  0xec, 0x00, 0x00, 0x00, 0xf0, 0x00, 0x00, 0x00, 0xf4, 0x00, 0x00, 0x00,
  0x04, 0x00, 0x00, 0x00, 0x6d, 0x61, 0x69, 0x6e, 0x00, 0x00, 0x00, 0x00,
  0x03, 0x00, 0x00, 0x00, 0x94, 0x00, 0x00, 0x00, 0x50, 0x00, 0x00, 0x00,
  0x14, 0x00, 0x00, 0x00, 0x00, 0x00, 0x0e, 0x00, 0x1a, 0x00, 0x14, 0x00,
  0x10, 0x00, 0x0c, 0x00, 0x0b, 0x00, 0x04, 0x00, 0x0e, 0x00, 0x00, 0x00,
  0x1c, 0x00, 0x00, 0x00, 0x00, 0x00, 0x00, 0x09, 0x1c, 0x00, 0x00, 0x00,
  0x20, 0x00, 0x00, 0x00, 0x01, 0x00, 0x00, 0x00, 0x00, 0x00, 0x06, 0x00,
  0x08, 0x00, 0x04, 0x00, 0x06, 0x00, 0x00, 0x00, 0x00, 0x00, 0x80, 0x3f,
  0x01, 0x00, 0x00, 0x00, 0x07, 0x00, 0x00, 0x00, 0x01, 0x00, 0x00, 0x00,
  0x06, 0x00, 0x00, 0x00, 0xce, 0xff, 0xff, 0xff, 0x10, 0x00, 0x00, 0x00,
  0x00, 0x00, 0x00, 0x08, 0x0c, 0x00, 0x00, 0x00, 0x10, 0x00, 0x00, 0x00,
  0x78, 0xfc, 0xff, 0xff, 0x01, 0x00, 0x00, 0x00, 0x06, 0x00, 0x00, 0x00,
  0x03, 0x00, 0x00, 0x00, 0x05, 0x00, 0x00, 0x00, 0x01, 0x00, 0x00, 0x00,
  0x02, 0x00, 0x00, 0x00, 0x00, 0x00, 0x0e, 0x00, 0x16, 0x00, 0x00, 0x00,
  0x10, 0x00, 0x0c, 0x00, 0x0b, 0x00, 0x04, 0x00, 0x0e, 0x00, 0x00, 0x00,
  0x18, 0x00, 0x00, 0x00, 0x00, 0x00, 0x00, 0x08, 0x18, 0x00, 0x00, 0x00,
  0x1c, 0x00, 0x00, 0x00, 0x00, 0x00, 0x06, 0x00, 0x08, 0x00, 0x07, 0x00,
  0x06, 0x00, 0x00, 0x00, 0x00, 0x00, 0x00, 0x01, 0x01, 0x00, 0x00, 0x00,
  0x05, 0x00, 0x00, 0x00, 0x03, 0x00, 0x00, 0x00, 0x00, 0x00, 0x00, 0x00,
  0x04, 0x00, 0x00, 0x00, 0x03, 0x00, 0x00, 0x00, 0x01, 0x00, 0x00, 0x00,
  0x07, 0x00, 0x00, 0x00, 0x01, 0x00, 0x00, 0x00, 0x00, 0x00, 0x00, 0x00,
  0x08, 0x00, 0x00, 0x00, 0xe4, 0x02, 0x00, 0x00, 0x8c, 0x02, 0x00, 0x00,
  0x18, 0x02, 0x00, 0x00, 0xc0, 0x01, 0x00, 0x00, 0x74, 0x01, 0x00, 0x00,
  0xe0, 0x00, 0x00, 0x00, 0x60, 0x00, 0x00, 0x00, 0x04, 0x00, 0x00, 0x00,
  0x52, 0xfd, 0xff, 0xff, 0x00, 0x00, 0x00, 0x01, 0x14, 0x00, 0x00, 0x00,
  0x1c, 0x00, 0x00, 0x00, 0x1c, 0x00, 0x00, 0x00, 0x08, 0x00, 0x00, 0x00,
  0x34, 0x00, 0x00, 0x00, 0x02, 0x00, 0x00, 0x00, 0xff, 0xff, 0xff, 0xff,
  0x03, 0x00, 0x00, 0x00, 0x3c, 0xfd, 0xff, 0xff, 0x1b, 0x00, 0x00, 0x00,
  0x53, 0x74, 0x61, 0x74, 0x65, 0x66, 0x75, 0x6c, 0x50, 0x61, 0x72, 0x74,
  0x69, 0x74, 0x69, 0x6f, 0x6e, 0x65, 0x64, 0x43, 0x61, 0x6c, 0x6c, 0x5f,
  0x31, 0x3a, 0x30, 0x00, 0x02, 0x00, 0x00, 0x00, 0x01, 0x00, 0x00, 0x00,
  0x03, 0x00, 0x00, 0x00, 0xaa, 0xfd, 0xff, 0xff, 0x00, 0x00, 0x00, 0x01,
  0x14, 0x00, 0x00, 0x00, 0x1c, 0x00, 0x00, 0x00, 0x1c, 0x00, 0x00, 0x00,
  0x07, 0x00, 0x00, 0x00, 0x58, 0x00, 0x00, 0x00, 0x02, 0x00, 0x00, 0x00,
  0xff, 0xff, 0xff, 0xff, 0x03, 0x00, 0x00, 0x00, 0x94, 0xfd, 0xff, 0xff,
  0x3c, 0x00, 0x00, 0x00, 0x73, 0x65, 0x71, 0x75, 0x65, 0x6e, 0x74, 0x69,
  0x61, 0x6c, 0x5f, 0x31, 0x2f, 0x64, 0x65, 0x6e, 0x73, 0x65, 0x5f, 0x31,
  0x5f, 0x32, 0x2f, 0x4d, 0x61, 0x74, 0x4d, 0x75, 0x6c, 0x3b, 0x73, 0x65,
  0x71, 0x75, 0x65, 0x6e, 0x74, 0x69, 0x61, 0x6c, 0x5f, 0x31, 0x2f, 0x64,
  0x65, 0x6e, 0x73, 0x65, 0x5f, 0x31, 0x5f, 0x32, 0x2f, 0x42, 0x69, 0x61,
  0x73, 0x41, 0x64, 0x64, 0x00, 0x00, 0x00, 0x00, 0x02, 0x00, 0x00, 0x00,
  0x01, 0x00, 0x00, 0x00, 0x03, 0x00, 0x00, 0x00, 0x26, 0xfe, 0xff, 0xff,
  0x00, 0x00, 0x00, 0x01, 0x14, 0x00, 0x00, 0x00, 0x1c, 0x00, 0x00, 0x00,
  0x1c, 0x00, 0x00, 0x00, 0x06, 0x00, 0x00, 0x00, 0x6c, 0x00, 0x00, 0x00,
  0x02, 0x00, 0x00, 0x00, 0xff, 0xff, 0xff, 0xff, 0x40, 0x00, 0x00, 0x00,
  0x10, 0xfe, 0xff, 0xff, 0x52, 0x00, 0x00, 0x00, 0x73, 0x65, 0x71, 0x75,
  0x65, 0x6e, 0x74, 0x69, 0x61, 0x6c, 0x5f, 0x31, 0x2f, 0x64, 0x65, 0x6e,
  0x73, 0x65, 0x5f, 0x31, 0x2f, 0x4d, 0x61, 0x74, 0x4d, 0x75, 0x6c, 0x3b,
  0x73, 0x65, 0x71, 0x75, 0x65, 0x6e, 0x74, 0x69, 0x61, 0x6c, 0x5f, 0x31,
  0x2f, 0x64, 0x65, 0x6e, 0x73, 0x65, 0x5f, 0x31, 0x2f, 0x52, 0x65, 0x6c,
  0x75, 0x3b, 0x73, 0x65, 0x71, 0x75, 0x65, 0x6e, 0x74, 0x69, 0x61, 0x6c,
  0x5f, 0x31, 0x2f, 0x64, 0x65, 0x6e, 0x73, 0x65, 0x5f, 0x31, 0x2f, 0x42,
  0x69, 0x61, 0x73, 0x41, 0x64, 0x64, 0x00, 0x00, 0x02, 0x00, 0x00, 0x00,
  0x01, 0x00, 0x00, 0x00, 0x40, 0x00, 0x00, 0x00, 0x0a, 0xff, 0xff, 0xff,
  0x00, 0x00, 0x00, 0x01, 0x10, 0x00, 0x00, 0x00, 0x10, 0x00, 0x00, 0x00,
  0x05, 0x00, 0x00, 0x00, 0x28, 0x00, 0x00, 0x00, 0x90, 0xfe, 0xff, 0xff,
  0x1b, 0x00, 0x00, 0x00, 0x73, 0x65, 0x71, 0x75, 0x65, 0x6e, 0x74, 0x69,
  0x61, 0x6c, 0x5f, 0x31, 0x2f, 0x64, 0x65, 0x6e, 0x73, 0x65, 0x5f, 0x31,
  0x2f, 0x4d, 0x61, 0x74, 0x4d, 0x75, 0x6c, 0x00, 0x02, 0x00, 0x00, 0x00,
  0x40, 0x00, 0x00, 0x00, 0x08, 0x00, 0x00, 0x00, 0x52, 0xff, 0xff, 0xff,
  0x00, 0x00, 0x00, 0x01, 0x10, 0x00, 0x00, 0x00, 0x10, 0x00, 0x00, 0x00,
  0x04, 0x00, 0x00, 0x00, 0x38, 0x00, 0x00, 0x00, 0xd8, 0xfe, 0xff, 0xff,
  0x2b, 0x00, 0x00, 0x00, 0x73, 0x65, 0x71, 0x75, 0x65, 0x6e, 0x74, 0x69,
  0x61, 0x6c, 0x5f, 0x31, 0x2f, 0x64, 0x65, 0x6e, 0x73, 0x65, 0x5f, 0x31,
  0x2f, 0x42, 0x69, 0x61, 0x73, 0x41, 0x64, 0x64, 0x2f, 0x52, 0x65, 0x61,
  0x64, 0x56, 0x61, 0x72, 0x69, 0x61, 0x62, 0x6c, 0x65, 0x4f, 0x70, 0x00,
  0x01, 0x00, 0x00, 0x00, 0x40, 0x00, 0x00, 0x00, 0xa6, 0xff, 0xff, 0xff,
  0x00, 0x00, 0x00, 0x01, 0x10, 0x00, 0x00, 0x00, 0x10, 0x00, 0x00, 0x00,
  0x03, 0x00, 0x00, 0x00, 0x3c, 0x00, 0x00, 0x00, 0x2c, 0xff, 0xff, 0xff,
  0x2d, 0x00, 0x00, 0x00, 0x73, 0x65, 0x71, 0x75, 0x65, 0x6e, 0x74, 0x69,
  0x61, 0x6c, 0x5f, 0x31, 0x2f, 0x64, 0x65, 0x6e, 0x73, 0x65, 0x5f, 0x31,
  0x5f, 0x32, 0x2f, 0x42, 0x69, 0x61, 0x73, 0x41, 0x64, 0x64, 0x2f, 0x52,
  0x65, 0x61, 0x64, 0x56, 0x61, 0x72, 0x69, 0x61, 0x62, 0x6c, 0x65, 0x4f,
  0x70, 0x00, 0x00, 0x00, 0x01, 0x00, 0x00, 0x00, 0x03, 0x00, 0x00, 0x00,
  0x00, 0x00, 0x16, 0x00, 0x18, 0x00, 0x14, 0x00, 0x00, 0x00, 0x10, 0x00,
  0x0c, 0x00, 0x08, 0x00, 0x00, 0x00, 0x00, 0x00, 0x00, 0x00, 0x07, 0x00,
  0x16, 0x00, 0x00, 0x00, 0x00, 0x00, 0x00, 0x01, 0x10, 0x00, 0x00, 0x00,
  0x10, 0x00, 0x00, 0x00, 0x02, 0x00, 0x00, 0x00, 0x1c, 0x00, 0x00, 0x00,
  0x9c, 0xff, 0xff, 0xff, 0x0e, 0x00, 0x00, 0x00, 0x61, 0x72, 0x69, 0x74,
  0x68, 0x2e, 0x63, 0x6f, 0x6e, 0x73, 0x74, 0x61, 0x6e, 0x74, 0x00, 0x00,
  0x02, 0x00, 0x00, 0x00, 0x03, 0x00, 0x00, 0x00, 0x40, 0x00, 0x00, 0x00,
  0x00, 0x00, 0x16, 0x00, 0x1c, 0x00, 0x18, 0x00, 0x00, 0x00, 0x14, 0x00,
  0x10, 0x00, 0x0c, 0x00, 0x00, 0x00, 0x00, 0x00, 0x08, 0x00, 0x07, 0x00,
  0x16, 0x00, 0x00, 0x00, 0x00, 0x00, 0x00, 0x01, 0x14, 0x00, 0x00, 0x00,
  0x20, 0x00, 0x00, 0x00, 0x20, 0x00, 0x00, 0x00, 0x01, 0x00, 0x00, 0x00,
  0x3c, 0x00, 0x00, 0x00, 0x02, 0x00, 0x00, 0x00, 0xff, 0xff, 0xff, 0xff,
  0x08, 0x00, 0x00, 0x00, 0x04, 0x00, 0x04, 0x00, 0x04, 0x00, 0x00, 0x00,
  0x1e, 0x00, 0x00, 0x00, 0x73, 0x65, 0x72, 0x76, 0x69, 0x6e, 0x67, 0x5f,
  0x64, 0x65, 0x66, 0x61, 0x75, 0x6c, 0x74, 0x5f, 0x6b, 0x65, 0x72, 0x61,
  0x73, 0x5f, 0x74, 0x65, 0x6e, 0x73, 0x6f, 0x72, 0x3a, 0x30, 0x00, 0x00,
  0x02, 0x00, 0x00, 0x00, 0x01, 0x00, 0x00, 0x00, 0x08, 0x00, 0x00, 0x00,
  0x02, 0x00, 0x00, 0x00, 0x20, 0x00, 0x00, 0x00, 0x04, 0x00, 0x00, 0x00,
  0xf4, 0xff, 0xff, 0xff, 0x19, 0x00, 0x00, 0x00, 0x00, 0x00, 0x00, 0x19,
  0x0c, 0x00, 0x0c, 0x00, 0x0b, 0x00, 0x00, 0x00, 0x00, 0x00, 0x04, 0x00,
  0x0c, 0x00, 0x00, 0x00, 0x09, 0x00, 0x00, 0x00, 0x00, 0x00, 0x00, 0x09
};
unsigned int model_tflite_len = 4812;
