unsigned char model_tflite[] = {
  0x1c, 0x00, 0x00, 0x00, 0x54, 0x46, 0x4c, 0x33, 0x14, 0x00, 0x20, 0x00,
  0x1c, 0x00, 0x18, 0x00, 0x14, 0x00, 0x10, 0x00, 0x0c, 0x00, 0x00, 0x00,
  0x08, 0x00, 0x04, 0x00, 0x14, 0x00, 0x00, 0x00, 0x1c, 0x00, 0x00, 0x00,
  0x98, 0x00, 0x00, 0x00, 0xf0, 0x00, 0x00, 0x00, 0xf4, 0x0d, 0x00, 0x00,
  0x04, 0x0e, 0x00, 0x00, 0x68, 0x12, 0x00, 0x00, 0x03, 0x00, 0x00, 0x00,
  0x01, 0x00, 0x00, 0x00, 0x10, 0x00, 0x00, 0x00, 0x00, 0x00, 0x0a, 0x00,
  0x10, 0x00, 0x0c, 0x00, 0x08, 0x00, 0x04, 0x00, 0x0a, 0x00, 0x00, 0x00,
  0x0c, 0x00, 0x00, 0x00, 0x1c, 0x00, 0x00, 0x00, 0x3c, 0x00, 0x00, 0x00,
  0x0f, 0x00, 0x00, 0x00, 0x73, 0x65, 0x72, 0x76, 0x69, 0x6e, 0x67, 0x5f,
  0x64, 0x65, 0x66, 0x61, 0x75, 0x6c, 0x74, 0x00, 0x01, 0x00, 0x00, 0x00,
  0x04, 0x00, 0x00, 0x00, 0x90, 0xff, 0xff, 0xff, 0x07, 0x00, 0x00, 0x00,
  0x04, 0x00, 0x00, 0x00, 0x08, 0x00, 0x00, 0x00, 0x6f, 0x75, 0x74, 0x70,
  0x75, 0x74, 0x5f, 0x30, 0x00, 0x00, 0x00, 0x00, 0x01, 0x00, 0x00, 0x00,
  0x04, 0x00, 0x00, 0x00, 0xf6, 0xf1, 0xff, 0xff, 0x04, 0x00, 0x00, 0x00,
  0x0c, 0x00, 0x00, 0x00, 0x6b, 0x65, 0x72, 0x61, 0x73, 0x5f, 0x74, 0x65,
  0x6e, 0x73, 0x6f, 0x72, 0x00, 0x00, 0x00, 0x00, 0x02, 0x00, 0x00, 0x00,
  0x34, 0x00, 0x00, 0x00, 0x04, 0x00, 0x00, 0x00, 0xdc, 0xff, 0xff, 0xff,
  0x0a, 0x00, 0x00, 0x00, 0x04, 0x00, 0x00, 0x00, 0x13, 0x00, 0x00, 0x00,
  0x43, 0x4f, 0x4e, 0x56, 0x45, 0x52, 0x53, 0x49, 0x4f, 0x4e, 0x5f, 0x4d,
  0x45, 0x54, 0x41, 0x44, 0x41, 0x54, 0x41, 0x00, 0x08, 0x00, 0x0c, 0x00,
  0x08, 0x00, 0x04, 0x00, 0x08, 0x00, 0x00, 0x00, 0x09, 0x00, 0x00, 0x00,
  0x04, 0x00, 0x00, 0x00, 0x13, 0x00, 0x00, 0x00, 0x6d, 0x69, 0x6e, 0x5f,
  0x72, 0x75, 0x6e, 0x74, 0x69, 0x6d, 0x65, 0x5f, 0x76, 0x65, 0x72, 0x73,
  0x69, 0x6f, 0x6e, 0x00, 0x0b, 0x00, 0x00, 0x00, 0x00, 0x0d, 0x00, 0x00,
  0xf8, 0x0c, 0x00, 0x00, 0xe8, 0x09, 0x00, 0x00, 0xcc, 0x09, 0x00, 0x00,
  0xbc, 0x08, 0x00, 0x00, 0xac, 0x00, 0x00, 0x00, 0xa4, 0x00, 0x00, 0x00,
  0x9c, 0x00, 0x00, 0x00, 0x94, 0x00, 0x00, 0x00, 0x74, 0x00, 0x00, 0x00,
  0x04, 0x00, 0x00, 0x00, 0x9e, 0xf2, 0xff, 0xff, 0x04, 0x00, 0x00, 0x00,
  0x60, 0x00, 0x00, 0x00, 0x10, 0x00, 0x00, 0x00, 0x00, 0x00, 0x00, 0x00,
  0x08, 0x00, 0x0e, 0x00, 0x08, 0x00, 0x04, 0x00, 0x08, 0x00, 0x00, 0x00,
  0x10, 0x00, 0x00, 0x00, 0x24, 0x00, 0x00, 0x00, 0x00, 0x00, 0x06, 0x00,
  0x08, 0x00, 0x04, 0x00, 0x06, 0x00, 0x00, 0x00, 0x04, 0x00, 0x00, 0x00,
  0x00, 0x00, 0x00, 0x00, 0x0c, 0x00, 0x18, 0x00, 0x14, 0x00, 0x10, 0x00,
  0x0c, 0x00, 0x04, 0x00, 0x0c, 0x00, 0x00, 0x00, 0x06, 0xe0, 0x2d, 0xe0,
  0xc2, 0x3c, 0x64, 0x53, 0x02, 0x00, 0x00, 0x00, 0x02, 0x00, 0x00, 0x00,
  0x04, 0x00, 0x00, 0x00, 0x06, 0x00, 0x00, 0x00, 0x32, 0x2e, 0x31, 0x39,
  0x2e, 0x30, 0x00, 0x00, 0x0a, 0xf3, 0xff, 0xff, 0x04, 0x00, 0x00, 0x00,
  0x10, 0x00, 0x00, 0x00, 0x31, 0x2e, 0x35, 0x2e, 0x30, 0x00, 0x00, 0x00,
  0x00, 0x00, 0x00, 0x00, 0x00, 0x00, 0x00, 0x00, 0x6c, 0xef, 0xff, 0xff,
  0x70, 0xef, 0xff, 0xff, 0x74, 0xef, 0xff, 0xff, 0x32, 0xf3, 0xff, 0xff,
  0x04, 0x00, 0x00, 0x00, 0x00, 0x08, 0x00, 0x00, 0x47, 0xb6, 0xa2, 0x3d,
  0x77, 0xc4, 0xbf, 0xbe, 0xdc, 0xb2, 0xa2, 0xbe, 0x25, 0xd4, 0x46, 0xbe,
  0xec, 0x90, 0x57, 0xbd, 0xaf, 0x8e, 0xe3, 0xbd, 0x30, 0x00, 0x03, 0xbe,
  0xc2, 0x57, 0xa2, 0xbe, 0xc0, 0xa5, 0x4d, 0x3e, 0x77, 0x1e, 0xd0, 0xbd,
  0x14, 0x24, 0x64, 0x3e, 0x9a, 0xb1, 0x8d, 0x3d, 0x6a, 0x98, 0xd5, 0xbd,
  0x46, 0x1d, 0x7d, 0x3e, 0x3b, 0xdc, 0x25, 0xbe, 0x03, 0xa0, 0x30, 0xbe,
  0xa3, 0xaf, 0xa9, 0x3e, 0xab, 0xc7, 0x28, 0x3e, 0xbd, 0x6f, 0x9b, 0xbe,
  0x7a, 0x70, 0xc5, 0x3e, 0x74, 0x48, 0xa9, 0xbe, 0xdb, 0x98, 0xdc, 0x3c,
  0x5d, 0xc9, 0xda, 0xbc, 0x1e, 0x80, 0xf4, 0x3d, 0x3a, 0xf6, 0x0c, 0x3e,
  0xa0, 0x05, 0xa9, 0xbd, 0xe8, 0x65, 0x9c, 0xbe, 0xed, 0xe5, 0x2f, 0x3e,
  0xe9, 0xff, 0x64, 0x3d, 0x0c, 0x07, 0xa5, 0x3c, 0x93, 0xe1, 0x58, 0xbe,
  0x24, 0x66, 0xaa, 0x3e, 0x2b, 0x72, 0xa2, 0x3e, 0x1d, 0xeb, 0x6a, 0xbe,
  0x1b, 0x6b, 0x4d, 0xbe, 0xe5, 0xe3, 0x62, 0xbe, 0x73, 0xf4, 0x67, 0x3e,
  0xb1, 0xb1, 0x53, 0xbe, 0x0a, 0xbe, 0x09, 0x3d, 0xc6, 0x3a, 0x86, 0xbd,
  0x7e, 0xc6, 0x2c, 0xbe, 0x4f, 0x7e, 0xdd, 0xbd, 0x39, 0x52, 0x2c, 0x3e,
  0x47, 0xc2, 0xc9, 0xbd, 0xa2, 0x7d, 0x23, 0x3e, 0x2f, 0x9a, 0xa2, 0x3e,
  0xff, 0x8e, 0xa4, 0x3e, 0xe5, 0xc3, 0xa6, 0x3e, 0x14, 0x1d, 0x75, 0xbd,
  0x1c, 0x02, 0x86, 0x3d, 0x50, 0x71, 0x0a, 0xbe, 0xc8, 0x0f, 0x43, 0xbe,
  0xda, 0x66, 0x6c, 0xbe, 0xc5, 0x46, 0x00, 0xbe, 0x73, 0x93, 0x33, 0x3d,
  0xed, 0x5c, 0x50, 0xbe, 0xf0, 0x92, 0x6c, 0xbe, 0xe9, 0x65, 0x8c, 0x3e,
  0xd6, 0x93, 0x11, 0x3e, 0x4b, 0xc7, 0x90, 0x3d, 0xd6, 0xf3, 0x1b, 0x3e,
  0x8e, 0xc6, 0x51, 0xbe, 0x19, 0x91, 0x6e, 0x3e, 0x74, 0x72, 0x07, 0xbd,
  0xfc, 0xa1, 0xf2, 0xbd, 0x73, 0xf3, 0xae, 0xbe, 0xba, 0xe9, 0x3e, 0xbe,
  0xcc, 0xca, 0x76, 0xbe, 0xfe, 0x92, 0x86, 0xbe, 0xf4, 0x9d, 0xe7, 0x3d,
  0x00, 0xbd, 0xbd, 0x3d, 0x92, 0xdd, 0x89, 0x3d, 0xb0, 0x2a, 0x94, 0x3e,
  0x22, 0x85, 0xdc, 0x3e, 0x3e, 0x86, 0x00, 0xbf, 0x6d, 0x57, 0x3b, 0x3d,
  0x5b, 0x50, 0xa8, 0x3e, 0x06, 0x7c, 0xe6, 0xbd, 0xea, 0x23, 0x64, 0xbe,
  0x06, 0x66, 0x15, 0xbd, 0x08, 0x56, 0x95, 0x3d, 0x95, 0x76, 0x6d, 0xbc,
  0xc1, 0x54, 0x29, 0xbe, 0x6a, 0x06, 0xaa, 0xbe, 0x4c, 0xc8, 0xb5, 0x3d,
  0x2d, 0xb9, 0x76, 0x3e, 0x54, 0x96, 0xab, 0x3e, 0x59, 0x6b, 0xbe, 0x3d,
  0x59, 0xf6, 0x1a, 0xbb, 0xf8, 0xf1, 0x26, 0xbd, 0x87, 0x19, 0x06, 0x3e,
  0x60, 0x86, 0x29, 0x3b, 0xf4, 0x85, 0xca, 0x3e, 0xc2, 0xd3, 0xd9, 0xbd,
  0x4f, 0x2c, 0xa6, 0x3e, 0x3b, 0xee, 0x7f, 0x3d, 0xfe, 0xf6, 0x90, 0xbe,
  0xda, 0x40, 0x3e, 0x3e, 0x04, 0xd0, 0xfc, 0x3d, 0x80, 0x53, 0x8d, 0xbe,
  0xea, 0xbe, 0x94, 0x3d, 0x5c, 0x06, 0xe8, 0xbd, 0x95, 0xbd, 0xde, 0xbc,
  0xfc, 0x1d, 0x8c, 0xbe, 0x49, 0x18, 0xee, 0x3c, 0x68, 0xf0, 0x49, 0xbe,
  0xf2, 0xe6, 0x30, 0x3e, 0xbc, 0x18, 0x0f, 0xbe, 0xd4, 0x86, 0x86, 0x3e,
  0xe7, 0xb9, 0x92, 0x3e, 0x6a, 0x65, 0x70, 0xbc, 0xbe, 0x07, 0x2a, 0xbd,
  0x3b, 0x40, 0x0c, 0xbe, 0x95, 0x06, 0xaf, 0xbd, 0x85, 0xcb, 0x0d, 0xbe,
  0xd7, 0xaa, 0xe3, 0xbb, 0xe0, 0xba, 0xae, 0xbe, 0xcf, 0x13, 0xe1, 0xbd,
  0x6f, 0x98, 0xab, 0xbe, 0xda, 0xbe, 0xbf, 0xbe, 0x59, 0x57, 0x4d, 0xbe,
  0xe5, 0xb4, 0x36, 0x3e, 0x5a, 0xf2, 0xd6, 0x3d, 0x38, 0xb5, 0x00, 0xbe,
  0x36, 0x25, 0x48, 0xbe, 0xe7, 0xae, 0x95, 0xbe, 0x37, 0x77, 0x67, 0xbe,
  0xa0, 0xa7, 0xa7, 0x3d, 0xad, 0x2e, 0xf7, 0x3d, 0xbf, 0x64, 0x41, 0x3e,
  0x7c, 0x48, 0xe2, 0x3e, 0xba, 0xf9, 0x68, 0xbe, 0x32, 0x06, 0xd0, 0xbc,
  0x53, 0x67, 0xd7, 0x3e, 0x6a, 0xbd, 0x74, 0x3b, 0x75, 0xb6, 0x8f, 0x3e,
  0xb3, 0x5c, 0xd1, 0x3c, 0x4e, 0x59, 0xaa, 0x3e, 0x1b, 0x1b, 0x9a, 0xbd,
  0x67, 0x65, 0x7b, 0x3e, 0xa0, 0x67, 0x31, 0x3e, 0x29, 0x03, 0x5f, 0xbe,
  0xe4, 0x96, 0x33, 0xbe, 0x00, 0xd1, 0xe0, 0x3e, 0xf6, 0x27, 0x3b, 0xbe,
  0xd7, 0x88, 0xf7, 0x3d, 0x69, 0x80, 0x3c, 0xbe, 0x07, 0x2b, 0x10, 0x3e,
  0x4a, 0x94, 0x73, 0xbc, 0x51, 0xd4, 0x36, 0xbe, 0xf3, 0xaf, 0xe4, 0xbd,
  0x8b, 0x82, 0x1f, 0xbe, 0xa4, 0x54, 0x5e, 0x3e, 0xb2, 0xe7, 0xc5, 0x3e,
  0xa0, 0x72, 0xc7, 0xbd, 0x8d, 0x7c, 0x37, 0xbd, 0xc2, 0x86, 0x35, 0x3e,
  0x83, 0x1b, 0xc9, 0xbe, 0xdd, 0x9d, 0xbe, 0xbe, 0x79, 0x2d, 0x72, 0x3e,
  0x43, 0x7c, 0x89, 0xbe, 0xce, 0x3e, 0x81, 0x3e, 0x50, 0xdd, 0x84, 0xbd,
  0xe2, 0x3a, 0x33, 0xbe, 0x6e, 0x3d, 0x07, 0x3e, 0xe4, 0x55, 0x45, 0xbe,
  0xad, 0x33, 0x37, 0x3e, 0xa9, 0x7b, 0x6b, 0xbe, 0xae, 0x37, 0x3a, 0xba,
  0xdc, 0x56, 0xd3, 0xbd, 0x65, 0x3f, 0x38, 0xbe, 0x9d, 0xe7, 0xc3, 0x3e,
  0xe8, 0x54, 0xcf, 0x3d, 0x2b, 0x04, 0x02, 0xbe, 0xd4, 0x9e, 0x01, 0xbe,
  0x99, 0x1b, 0x8d, 0x3e, 0xee, 0xd0, 0xbd, 0x3d, 0x54, 0xae, 0x41, 0xbe,
  0x7d, 0xa4, 0xd4, 0x3e, 0x45, 0x26, 0x01, 0x3e, 0x43, 0xea, 0x68, 0x3d,
  0x04, 0x14, 0x84, 0x3e, 0xfe, 0x51, 0x6e, 0x3e, 0x6e, 0xfc, 0x50, 0x3d,
  0x19, 0x71, 0xa8, 0xbc, 0x1c, 0xab, 0x88, 0xbe, 0x4a, 0x01, 0x19, 0xbe,
  0x80, 0x04, 0x5a, 0x3d, 0x8d, 0x76, 0x51, 0xbe, 0x61, 0x10, 0x3d, 0x3e,
  0x13, 0xbd, 0xdb, 0x3d, 0xce, 0xb0, 0x9d, 0xbe, 0x6b, 0xaa, 0xc0, 0xbd,
  0xfc, 0x4b, 0x3f, 0xbe, 0x8b, 0x24, 0xa0, 0xbe, 0x64, 0x8d, 0x34, 0xbe,
  0x56, 0xb3, 0xae, 0x3d, 0x40, 0xa8, 0xf0, 0xbd, 0x0b, 0x5b, 0x8b, 0xbe,
  0x34, 0x61, 0xfa, 0x3d, 0x41, 0x5d, 0x31, 0x3e, 0xc3, 0x6c, 0xae, 0x3d,
  0x89, 0x28, 0x34, 0x3d, 0xce, 0xab, 0x76, 0x3d, 0xf7, 0x5f, 0x61, 0x3e,
  0xef, 0xfe, 0xae, 0x3e, 0x0b, 0xa3, 0xbf, 0x3e, 0xd9, 0xd6, 0x62, 0xbe,
  0xe7, 0x9b, 0x15, 0x3e, 0x95, 0x4d, 0x95, 0x3e, 0x1c, 0x7c, 0xb1, 0x3e,
  0x2f, 0xda, 0xa0, 0x3e, 0xf1, 0xc8, 0xc1, 0x3e, 0xc5, 0x49, 0x6e, 0x3e,
  0x0e, 0x0a, 0x1c, 0x3d, 0x21, 0xed, 0x5e, 0x3e, 0x0e, 0xf3, 0x2d, 0x3e,
  0xf9, 0xf4, 0x4d, 0x3e, 0x2c, 0x0f, 0x23, 0x3e, 0xa7, 0x6f, 0xb3, 0x3e,
  0x26, 0xb0, 0x42, 0x3c, 0x09, 0xf1, 0x2c, 0x3e, 0x6f, 0xf9, 0x4e, 0xbe,
  0xc3, 0x8e, 0x84, 0xbe, 0xad, 0x9a, 0x6d, 0xbd, 0xeb, 0x7c, 0x16, 0xbe,
  0x9e, 0x29, 0x79, 0xbd, 0x31, 0x8e, 0x82, 0xbe, 0x1f, 0x20, 0xb8, 0x3d,
  0xbb, 0xc7, 0xc5, 0xbe, 0xc5, 0x0e, 0x70, 0xbe, 0xb3, 0x51, 0x60, 0x3c,
  0xb9, 0x41, 0xc2, 0x3e, 0x82, 0xf4, 0x22, 0xbd, 0xe9, 0xce, 0x0b, 0xbf,
  0xa6, 0xc9, 0x84, 0x3e, 0x08, 0x61, 0x80, 0x3d, 0x13, 0x64, 0x35, 0xbe,
  0xdd, 0xe4, 0xa2, 0x3c, 0xdf, 0x66, 0x83, 0x3e, 0x6e, 0xba, 0x84, 0xbc,
  0x90, 0xe1, 0x16, 0xbe, 0x7c, 0x0b, 0xbf, 0x3e, 0x61, 0x81, 0xee, 0xbd,
  0x08, 0x03, 0x30, 0x3e, 0xa8, 0x35, 0xaf, 0x3d, 0x02, 0x4f, 0xce, 0x3e,
  0xc3, 0x4c, 0xa6, 0x3e, 0xac, 0xe0, 0x44, 0xbe, 0x0c, 0x4c, 0x3f, 0x3e,
  0xa1, 0x2d, 0x91, 0x3e, 0xaa, 0xba, 0x22, 0x3e, 0x64, 0xa2, 0xf5, 0x3d,
  0x81, 0x65, 0x7a, 0x3c, 0x06, 0x8f, 0x3d, 0x3c, 0xdc, 0x86, 0x72, 0x3e,
  0xa4, 0x0e, 0xb5, 0x3e, 0xe3, 0x7b, 0x9c, 0x3d, 0x97, 0xae, 0x90, 0x3c,
  0xe4, 0x43, 0xa9, 0x3d, 0xd9, 0x88, 0x42, 0x3e, 0xb5, 0xdb, 0x95, 0xbe,
  0x7d, 0x52, 0xb0, 0xbe, 0xdf, 0xa5, 0x65, 0x3c, 0xdd, 0x5e, 0xd9, 0x3e,
  0x1a, 0xcf, 0x51, 0x3e, 0x34, 0x34, 0xf5, 0xbe, 0x6f, 0x45, 0xe3, 0x3e,
  0x91, 0xfe, 0x59, 0xbd, 0xa8, 0x89, 0x7f, 0x3e, 0x9c, 0x62, 0xc3, 0xbd,
  0x19, 0x20, 0x65, 0x3e, 0x7c, 0xe0, 0x80, 0xbc, 0x90, 0x49, 0x8a, 0x3e,
  0x63, 0xfd, 0x43, 0xbe, 0xa2, 0xd4, 0x4d, 0x3e, 0x45, 0xb5, 0x91, 0x3d,
  0x38, 0x5e, 0xf1, 0xbd, 0xaa, 0x70, 0xb8, 0x3e, 0x90, 0xc8, 0x3a, 0x3c,
  0x8b, 0x45, 0xd9, 0x3e, 0x97, 0x73, 0xb8, 0x3e, 0x2d, 0x32, 0xd8, 0xbe,
  0xfd, 0xe8, 0xd0, 0x3e, 0x84, 0xf1, 0x3d, 0xbe, 0xc5, 0xc7, 0xac, 0xbe,
  0x00, 0x99, 0xc0, 0xbc, 0xbc, 0x68, 0xaf, 0x3e, 0xc9, 0xca, 0x97, 0x3e,
  0x4e, 0xe5, 0xf6, 0xbd, 0x49, 0xf1, 0xe2, 0x3e, 0xb5, 0x6e, 0x9a, 0xbc,
  0xf1, 0x2d, 0x3d, 0x3e, 0x12, 0x2d, 0x32, 0xbd, 0x74, 0xd3, 0xd8, 0xbc,
  0x1d, 0x5d, 0x16, 0x3d, 0x4c, 0x1e, 0xb9, 0x3e, 0x97, 0x6e, 0xa9, 0x3e,
  0x29, 0xed, 0x95, 0x3e, 0x24, 0xe2, 0x85, 0x3e, 0x08, 0xd7, 0xba, 0x39,
  0x9e, 0x8a, 0x02, 0xbe, 0x1d, 0xa1, 0x61, 0x3d, 0x7c, 0xbc, 0xa6, 0x3e,
  0x18, 0x8e, 0x88, 0x3d, 0x28, 0x50, 0xa9, 0xbe, 0x79, 0xde, 0x2d, 0x3e,
  0xb8, 0xb7, 0x97, 0x3d, 0x92, 0x9c, 0x28, 0xbe, 0x65, 0x1a, 0x56, 0xbc,
  0xe0, 0x21, 0x17, 0xbe, 0x2c, 0x0f, 0x55, 0xbe, 0x21, 0x42, 0xb8, 0xbd,
  0x68, 0x21, 0x63, 0xbd, 0x55, 0x1a, 0xad, 0x3d, 0x22, 0x3b, 0x38, 0xbe,
  0x55, 0xf8, 0xc4, 0x3c, 0xab, 0x5e, 0x2e, 0x3e, 0x12, 0x59, 0x30, 0xbe,
  0x82, 0xc3, 0x01, 0xbd, 0xd7, 0xbf, 0x7d, 0x3d, 0x26, 0xa6, 0x1b, 0x3e,
  0x46, 0x6a, 0xf5, 0x3e, 0x49, 0x7b, 0x81, 0xbd, 0xa0, 0x37, 0x09, 0x3e,
  0x59, 0x2a, 0x4a, 0x3e, 0xde, 0x86, 0xaf, 0x3e, 0x13, 0x28, 0x1a, 0x3e,
  0xc0, 0x1b, 0xbf, 0x3e, 0xb5, 0x28, 0x31, 0x3e, 0xc9, 0x0e, 0x9b, 0xbe,
  0xf1, 0x68, 0x0b, 0x3e, 0x81, 0x85, 0x5f, 0xbe, 0x39, 0x57, 0x9c, 0xbb,
  0xa7, 0xb2, 0x53, 0xbe, 0x85, 0x25, 0x8c, 0x3e, 0xf8, 0xf6, 0x9e, 0x3e,
  0xa2, 0x58, 0x8c, 0x3e, 0xe5, 0x09, 0xa8, 0xbe, 0x42, 0x7f, 0xa7, 0x3d,
  0xca, 0x33, 0x44, 0xbe, 0x39, 0xb0, 0x37, 0xbe, 0x65, 0x55, 0x8a, 0xbe,
  0x4e, 0xf2, 0xaa, 0x3b, 0xbd, 0x49, 0x28, 0xbe, 0xe7, 0xcb, 0x63, 0xbe,
  0xc0, 0xeb, 0xd9, 0xbd, 0x08, 0x80, 0xa3, 0xbe, 0xf0, 0x18, 0xc1, 0xbe,
  0x70, 0xd0, 0xe6, 0xbd, 0x8c, 0x97, 0xa4, 0xbd, 0xb6, 0xed, 0x1a, 0xbe,
  0x46, 0x53, 0xc2, 0xbd, 0x2b, 0xe7, 0x48, 0xbe, 0xeb, 0x00, 0x29, 0x3f,
  0x7b, 0x24, 0x4c, 0x3e, 0xe4, 0x73, 0x9f, 0x3e, 0x47, 0xd9, 0xb7, 0xbc,
  0x93, 0x7c, 0x9f, 0x3d, 0x9c, 0x14, 0x75, 0x3e, 0xbd, 0x40, 0xf2, 0x3d,
  0x8d, 0x23, 0x2f, 0xbe, 0x22, 0x27, 0x36, 0x3e, 0xbc, 0xfe, 0x68, 0xbe,
  0xd5, 0x6a, 0x17, 0x3e, 0xa9, 0x77, 0x91, 0xbd, 0xb3, 0xe4, 0x90, 0xbe,
  0x77, 0xad, 0x87, 0xbe, 0xa1, 0x69, 0x47, 0x3e, 0xe7, 0x14, 0xb0, 0xbd,
  0x1a, 0x9b, 0x06, 0x3f, 0xfc, 0x60, 0xd6, 0x3d, 0x1d, 0x6b, 0x70, 0x3e,
  0xd9, 0x44, 0xb4, 0x3e, 0xdd, 0x0c, 0xbc, 0x3e, 0x40, 0x69, 0xec, 0x3c,
  0xfc, 0xf1, 0x80, 0x3e, 0x15, 0xba, 0x7f, 0xbd, 0x37, 0x1c, 0x48, 0xbd,
  0x62, 0x77, 0xbd, 0x3e, 0xf3, 0x83, 0x62, 0xbe, 0x5a, 0x2c, 0x0c, 0x3e,
  0x5c, 0x57, 0x41, 0x3e, 0x6f, 0x6e, 0x89, 0x3e, 0x68, 0xd4, 0x34, 0xbd,
  0xe5, 0x82, 0xc3, 0x3e, 0xa2, 0xfc, 0xd3, 0x3e, 0x5d, 0x9d, 0x00, 0xbe,
  0x91, 0xae, 0x2d, 0x3e, 0xee, 0xe3, 0xbc, 0x3e, 0x67, 0xa5, 0xe6, 0x3e,
  0x1d, 0x44, 0xb4, 0x3e, 0x09, 0x11, 0xb5, 0xbe, 0xc3, 0x11, 0x11, 0x3e,
  0xde, 0x20, 0x49, 0x3e, 0xef, 0x3b, 0xa8, 0x3d, 0xab, 0xfb, 0x2c, 0x3e,
  0x2c, 0x78, 0x49, 0x3e, 0xc9, 0x80, 0x1e, 0xbe, 0xf4, 0xa2, 0x9b, 0xbe,
  0x09, 0xf9, 0x88, 0x3e, 0x78, 0x94, 0xf2, 0xbc, 0xdc, 0xdf, 0x00, 0x3f,
  0x0a, 0xdc, 0x54, 0x3e, 0x19, 0x0c, 0xbe, 0x3e, 0xc4, 0x09, 0x98, 0x3c,
  0x64, 0xe5, 0x6e, 0x3d, 0x9f, 0x5a, 0xbd, 0x3d, 0xcb, 0xa4, 0x94, 0xbd,
  0x76, 0xee, 0xaa, 0xbe, 0xdf, 0x65, 0x78, 0xbe, 0x8d, 0xaa, 0x92, 0x3d,
  0x0b, 0xd7, 0x96, 0xbe, 0x2e, 0x7a, 0x21, 0xbe, 0xf1, 0x43, 0x89, 0xbe,
  0x7b, 0x22, 0xba, 0x3d, 0xcc, 0x8e, 0xbc, 0xbe, 0x73, 0x6a, 0xaf, 0xbd,
  0xcf, 0x1d, 0xee, 0xbe, 0x14, 0x75, 0x07, 0xbe, 0xa4, 0x1b, 0x28, 0xbe,
  0x6c, 0x85, 0xec, 0xbe, 0x4a, 0x26, 0x21, 0x3d, 0x34, 0xc8, 0x7b, 0x3d,
  0xf7, 0x4a, 0x42, 0x3d, 0x3f, 0x1a, 0x24, 0x3d, 0x2b, 0xc4, 0x1d, 0xbe,
  0x66, 0x5d, 0x64, 0x3e, 0x9d, 0x4c, 0xb3, 0x3d, 0x33, 0x6f, 0x5f, 0xbe,
  0xd5, 0xd3, 0x37, 0x3d, 0xa0, 0x35, 0xe3, 0xbc, 0xe3, 0x22, 0x47, 0xbe,
  0x3e, 0x83, 0x62, 0x3e, 0x1a, 0xf8, 0x46, 0xbd, 0x67, 0xde, 0xf5, 0x3d,
  0x87, 0x6e, 0x35, 0xbd, 0x44, 0x7b, 0x74, 0xbe, 0x26, 0xbc, 0x05, 0x3e,
  0x88, 0x24, 0xcf, 0xbc, 0xe8, 0xbe, 0x10, 0x3e, 0x22, 0x34, 0x69, 0x3e,
  0x6b, 0x34, 0x38, 0xbe, 0xeb, 0xdd, 0x8b, 0x3d, 0x05, 0x15, 0xe8, 0x3d,
  0x53, 0x2c, 0x38, 0xbe, 0x12, 0xf3, 0x33, 0xbd, 0xb8, 0x76, 0xf4, 0xbc,
  0x88, 0x6d, 0xa1, 0xbd, 0x9c, 0x26, 0x98, 0xbd, 0x2f, 0xf2, 0x8b, 0xbd,
  0x27, 0x02, 0xe0, 0x3d, 0x59, 0x44, 0x9c, 0x3e, 0x14, 0x81, 0x64, 0xbe,
  0x78, 0xfa, 0xca, 0xbd, 0xff, 0x41, 0x9e, 0xbd, 0xef, 0x17, 0x1a, 0x3e,
  0x29, 0x5a, 0x1e, 0xbe, 0x0f, 0x84, 0x52, 0xbe, 0xaa, 0xbc, 0x9d, 0xbe,
  0x7d, 0x90, 0x05, 0x3e, 0x23, 0x38, 0xfd, 0xbd, 0xcd, 0xe2, 0xcb, 0xbe,
  0x02, 0x99, 0xe5, 0x3d, 0xe7, 0x3e, 0x91, 0x3d, 0x5f, 0x14, 0x27, 0xbd,
  0x42, 0x8f, 0x2c, 0xbc, 0xd9, 0x60, 0x3e, 0xbd, 0xd3, 0x99, 0x8e, 0xbe,
  0x41, 0x86, 0x95, 0xbe, 0x3b, 0xce, 0x32, 0xbd, 0x59, 0x21, 0x8e, 0xbe,
  0xd8, 0xf3, 0x14, 0x3d, 0x53, 0xf3, 0x3c, 0x3e, 0x44, 0x46, 0xac, 0x3e,
  0x11, 0x1a, 0x47, 0xbe, 0x57, 0x4c, 0x91, 0xbd, 0x86, 0x46, 0xfd, 0x3d,
  0x99, 0x7a, 0xbc, 0x3e, 0x5f, 0x93, 0x7e, 0x3e, 0xae, 0xf3, 0x12, 0x3e,
  0xc0, 0x7b, 0xaf, 0x3e, 0xec, 0x38, 0xc8, 0xbe, 0xfd, 0x93, 0x42, 0xbc,
  0xd4, 0xc1, 0xf8, 0x3c, 0xad, 0x3f, 0xbb, 0xbc, 0x09, 0x78, 0xa0, 0xbd,
  0x9c, 0x21, 0xfb, 0x3d, 0x29, 0xf3, 0x43, 0x3e, 0x43, 0x44, 0x82, 0x3e,
  0x6b, 0x9f, 0xf0, 0xbe, 0xb8, 0xdb, 0xa0, 0x3e, 0xe2, 0xdf, 0xd7, 0x3d,
  0x9f, 0xd2, 0x0c, 0xbe, 0xad, 0x22, 0x5d, 0xbd, 0x87, 0x48, 0x2e, 0x3c,
  0x58, 0x54, 0x72, 0xbd, 0x0f, 0x94, 0x52, 0xbe, 0xe8, 0xf6, 0x30, 0x3e,
  0x17, 0xf5, 0x2f, 0x3e, 0x42, 0x59, 0x0d, 0xbe, 0x0c, 0xd5, 0x97, 0x3e,
  0x3d, 0x83, 0x06, 0x3d, 0xec, 0x1e, 0x53, 0x3e, 0x07, 0xe9, 0xaa, 0xbe,
  0xc8, 0x13, 0xa8, 0xbe, 0x97, 0x69, 0x88, 0xbb, 0xe0, 0x84, 0x5f, 0xbd,
  0x02, 0xcc, 0x21, 0x3d, 0x81, 0xaf, 0x1a, 0xbe, 0x13, 0xba, 0xa4, 0xbe,
  0x69, 0x1b, 0xd5, 0xbb, 0x3e, 0xfb, 0xff, 0xff, 0x04, 0x00, 0x00, 0x00,
  0x00, 0x01, 0x00, 0x00, 0x3a, 0x3e, 0xbf, 0x3c, 0x25, 0xc8, 0x2a, 0x3d,
  0x6b, 0x36, 0x0d, 0x3e, 0x85, 0x9f, 0x2b, 0x3e, 0x22, 0xd8, 0x73, 0xbd,
  0x5b, 0x4d, 0x42, 0x3d, 0xcb, 0x15, 0xb4, 0x3d, 0xf1, 0x5d, 0x46, 0x3d,
  0x7c, 0x1b, 0xa8, 0x3d, 0x2f, 0x26, 0x34, 0x3e, 0xbc, 0xc7, 0x31, 0xbd,
  0xd9, 0x5d, 0x0e, 0xbd, 0xf5, 0xf6, 0xa6, 0x3d, 0xb9, 0x8d, 0x21, 0x3d,
  0x71, 0xc5, 0xbe, 0x3d, 0xdf, 0x37, 0x96, 0x3d, 0x2b, 0x16, 0x3f, 0xba,
  0xbf, 0x60, 0x3c, 0x3e, 0xd9, 0x7e, 0xe0, 0x3d, 0x25, 0x93, 0x0f, 0x3e,
  0x0d, 0xfc, 0xca, 0xbd, 0xe5, 0x8e, 0x9a, 0x3d, 0x6c, 0x32, 0x7e, 0x3d,
  0x34, 0xcd, 0xb7, 0x3d, 0x6c, 0xca, 0xa0, 0x3d, 0x59, 0x54, 0xdc, 0xbd,
  0x34, 0x73, 0xb1, 0x3d, 0xbb, 0xfe, 0x60, 0x3d, 0x2d, 0x65, 0x82, 0x3d,
  0x53, 0x6d, 0x6b, 0x3e, 0xa3, 0x47, 0xe0, 0x3c, 0x97, 0x43, 0xba, 0xbd,
  0x7d, 0xbf, 0xd2, 0x3d, 0x92, 0x21, 0x2b, 0x3e, 0xa6, 0xeb, 0x09, 0x3c,
  0xe9, 0x51, 0x14, 0x3e, 0x76, 0x35, 0x8f, 0xbc, 0xf1, 0xa7, 0xa6, 0x3d,
  0xa6, 0x2d, 0xa0, 0x3d, 0x04, 0x95, 0xc1, 0xbd, 0xb4, 0x62, 0x0d, 0x3d,
  0x05, 0xda, 0x18, 0x3e, 0x26, 0x9d, 0x35, 0x3e, 0x00, 0xc0, 0xcd, 0x3d,
  0x5e, 0x94, 0xdf, 0xbc, 0xd8, 0xb7, 0xc3, 0xbc, 0x4f, 0x8e, 0x04, 0x3e,
  0x5e, 0x37, 0x8e, 0x3d, 0xb1, 0x69, 0xd8, 0x3d, 0x3f, 0xbd, 0x05, 0xbe,
  0x83, 0x3a, 0x0f, 0x3d, 0xd7, 0xb5, 0xc3, 0x3d, 0x28, 0x60, 0xd6, 0x3d,
  0xf0, 0xcb, 0xd3, 0x3d, 0xe8, 0xb5, 0x9f, 0xbd, 0xc6, 0x99, 0xd9, 0x3d,
  0xa5, 0xd3, 0x87, 0xbd, 0xbd, 0x6d, 0x43, 0xbc, 0xe4, 0x65, 0xb1, 0x3d,
  0xf1, 0xcc, 0x15, 0xbd, 0xeb, 0xe2, 0x1f, 0x3e, 0x49, 0x07, 0x2a, 0x3e,
  0x70, 0xc2, 0x08, 0x3d, 0xbe, 0xc8, 0xdf, 0x3d, 0x4a, 0xfc, 0xff, 0xff,
  0x04, 0x00, 0x00, 0x00, 0x0c, 0x00, 0x00, 0x00, 0x43, 0x8e, 0xe1, 0x3c,
  0x3b, 0x69, 0xa8, 0xbd, 0xf7, 0xbb, 0x83, 0x3d, 0x62, 0xfc, 0xff, 0xff,
  0x04, 0x00, 0x00, 0x00, 0x00, 0x03, 0x00, 0x00, 0xce, 0xd7, 0x8f, 0x3e,
  0xc1, 0x21, 0xa1, 0x3d, 0x6a, 0xb4, 0xba, 0xbe, 0xca, 0x1a, 0xdb, 0xbe,
  0xc7, 0xb8, 0xce, 0x3d, 0x99, 0xb5, 0xcb, 0xbe, 0xd4, 0x2e, 0xb7, 0x3d,
  0x1e, 0x10, 0xb0, 0xbe, 0x70, 0xdf, 0x6d, 0x3c, 0x1e, 0xf9, 0xda, 0xbe,
  0xaf, 0x13, 0xa1, 0xbe, 0x7d, 0x29, 0x9e, 0xbe, 0x8a, 0x98, 0xcc, 0x3e,
  0xad, 0xf3, 0x5c, 0xbd, 0xa7, 0x8a, 0xb1, 0x3e, 0x07, 0xed, 0xdb, 0x3e,
  0xbd, 0x00, 0xfb, 0x3c, 0x8a, 0xd2, 0xc8, 0xbe, 0xa7, 0xb3, 0xcc, 0x3e,
  0xa2, 0x29, 0x0f, 0xbe, 0x6f, 0x6a, 0x9f, 0x3c, 0x00, 0xfb, 0x89, 0xbd,
  0xf0, 0x9e, 0x86, 0xbe, 0x65, 0xf2, 0x8a, 0x3e, 0xd9, 0x36, 0x0a, 0x3d,
  0x03, 0x76, 0x11, 0xbe, 0x23, 0x58, 0xbf, 0xbe, 0xcc, 0x8e, 0xae, 0x3d,
  0xb3, 0x08, 0x04, 0x3f, 0x97, 0x3a, 0xd5, 0xbe, 0x6d, 0x14, 0x7a, 0xbc,
  0x10, 0x61, 0xa6, 0x3d, 0x7f, 0x48, 0x6d, 0x3c, 0xec, 0xc4, 0x7f, 0xbe,
  0x72, 0xae, 0x96, 0xbe, 0xb5, 0xfc, 0xa5, 0xbe, 0x1e, 0xeb, 0xa1, 0x3c,
  0xb8, 0x7a, 0xfd, 0xbd, 0x4e, 0xec, 0x5a, 0x3e, 0xe6, 0x6c, 0xbb, 0xbd,
  0x3e, 0x11, 0xb3, 0xbe, 0x84, 0x9f, 0x92, 0xbe, 0x9e, 0x91, 0x76, 0x3e,
  0xf5, 0xfa, 0x81, 0x3e, 0xa8, 0xba, 0x6e, 0x3d, 0x4d, 0x07, 0x47, 0x3e,
  0xd3, 0xeb, 0xa4, 0xbe, 0xa7, 0x12, 0x54, 0xbd, 0xc6, 0xf6, 0x95, 0xbe,
  0x8f, 0xfc, 0x8d, 0xbd, 0xad, 0x0b, 0xc1, 0xbe, 0x5c, 0x23, 0xc0, 0x3e,
  0x44, 0x67, 0xe8, 0x3e, 0xe6, 0x87, 0xf5, 0xbd, 0xbc, 0x02, 0x83, 0xbe,
  0xcd, 0xb6, 0x2b, 0xbe, 0x3a, 0xa3, 0xa2, 0xbd, 0x3c, 0xef, 0x72, 0x3e,
  0x7d, 0xdf, 0x96, 0x3e, 0x96, 0x36, 0xc4, 0x3c, 0xbd, 0x67, 0x20, 0xbe,
  0x7c, 0xf0, 0x37, 0x3d, 0x09, 0x68, 0x06, 0xbe, 0xb2, 0xc8, 0x7c, 0x3e,
  0xf0, 0xa1, 0x42, 0x3e, 0x61, 0x69, 0x5b, 0x3e, 0x6a, 0x38, 0x8f, 0xbe,
  0x0b, 0x7c, 0xa0, 0xbe, 0xb8, 0xf8, 0x60, 0x3e, 0x38, 0xbb, 0x93, 0x3d,
  0x36, 0x87, 0xc7, 0xbe, 0xb5, 0xd4, 0xb7, 0x3e, 0xb2, 0xc6, 0xa6, 0xbe,
  0x0a, 0x59, 0x48, 0xbd, 0x3f, 0x12, 0x83, 0x3e, 0xd5, 0x61, 0xa2, 0x3e,
  0x7b, 0x32, 0x4a, 0xbe, 0x69, 0x41, 0x83, 0x3e, 0xef, 0x75, 0xed, 0x3d,
  0x21, 0xe0, 0x45, 0xbe, 0x7e, 0xc0, 0xdc, 0x3e, 0xdf, 0x10, 0x84, 0x3d,
  0x23, 0x97, 0xd2, 0xbe, 0x39, 0x79, 0xb8, 0xbe, 0xca, 0x72, 0x0f, 0xbe,
  0xd1, 0x0b, 0xaf, 0xbe, 0xa3, 0x74, 0xa6, 0x3d, 0xf3, 0xdc, 0xc0, 0xbe,
  0x1e, 0xb5, 0xba, 0xbe, 0xb7, 0x87, 0xfc, 0xbc, 0xd5, 0x60, 0xc4, 0x3e,
  0xea, 0x14, 0x36, 0x3e, 0xad, 0x30, 0xba, 0xbe, 0x9e, 0x79, 0x08, 0xbf,
  0x11, 0xd9, 0xf0, 0x3d, 0x8f, 0x26, 0xbb, 0x3e, 0xaf, 0x69, 0x61, 0xbe,
  0x75, 0x89, 0x24, 0xbc, 0xe1, 0x34, 0x6d, 0xbd, 0x6a, 0x08, 0xa1, 0xbe,
  0x85, 0x1b, 0x01, 0x3f, 0xa7, 0xca, 0xa2, 0x3e, 0xf5, 0xdd, 0x84, 0xbe,
  0xce, 0x49, 0x23, 0xbe, 0x76, 0xe1, 0xa5, 0x3e, 0x86, 0x37, 0x0c, 0xbf,
  0x17, 0x91, 0x5e, 0xbe, 0x0d, 0x76, 0x91, 0x3d, 0x54, 0x5c, 0x8f, 0x3d,
  0xb0, 0x9b, 0x2c, 0xbe, 0xdb, 0x0c, 0xd8, 0x3e, 0x7a, 0x69, 0x60, 0xbe,
  0xb9, 0x07, 0x94, 0x3e, 0x11, 0x95, 0xa3, 0x3d, 0x75, 0x6b, 0xef, 0x3d,
  0x8b, 0x18, 0x44, 0x3e, 0xe2, 0x81, 0xf3, 0x3d, 0x60, 0x3a, 0x43, 0xbd,
  0x2a, 0xdf, 0xf5, 0x3d, 0x04, 0xaa, 0xf1, 0xbe, 0x8a, 0x02, 0xed, 0x3d,
  0x11, 0x12, 0xbb, 0xbd, 0x96, 0x59, 0xf5, 0xbd, 0x9c, 0xea, 0x4e, 0x3e,
  0xa4, 0x62, 0x00, 0xbf, 0x02, 0xbf, 0xa1, 0xbe, 0xeb, 0x18, 0xc6, 0x3e,
  0xec, 0x18, 0xbb, 0x3d, 0x5c, 0x67, 0xa0, 0xbd, 0xe2, 0x0d, 0x93, 0xbd,
  0x6b, 0x10, 0x06, 0x3f, 0x58, 0xd7, 0xcf, 0x3e, 0x01, 0xd0, 0xf7, 0x3d,
  0xc3, 0xdd, 0xf2, 0xbe, 0x74, 0x6c, 0xd1, 0xbd, 0x06, 0xc1, 0xca, 0x3c,
  0x33, 0x7b, 0xb3, 0xbc, 0x5f, 0x63, 0xeb, 0x3e, 0x60, 0x0b, 0x3c, 0xbe,
  0xed, 0x6c, 0xaa, 0xbe, 0xe0, 0xb9, 0xc0, 0xbd, 0xf1, 0xdd, 0xc5, 0xbd,
  0x46, 0x83, 0x58, 0xbd, 0x25, 0xae, 0x1f, 0xbd, 0xee, 0x41, 0x0a, 0xbc,
  0x36, 0xd0, 0x7b, 0x3e, 0x9f, 0x84, 0xac, 0xbd, 0x3f, 0x80, 0xc4, 0x3e,
  0x85, 0x4f, 0x56, 0x3e, 0x96, 0xd6, 0x89, 0x3e, 0xeb, 0x69, 0x0c, 0xbf,
  0x02, 0xc2, 0xd8, 0xbd, 0x70, 0x7d, 0xd4, 0xbe, 0x01, 0x1f, 0x95, 0xbe,
  0xfd, 0xbd, 0xb5, 0x3d, 0x0b, 0x21, 0x39, 0x3e, 0x95, 0x30, 0x70, 0xbe,
  0x62, 0xf2, 0x61, 0x3e, 0xbd, 0xd5, 0xee, 0xbe, 0xea, 0x9b, 0x61, 0xbe,
  0x89, 0x1e, 0xa5, 0x3e, 0xc3, 0xc8, 0xa2, 0x3e, 0x8d, 0xfc, 0x91, 0xbd,
  0xda, 0xc2, 0x85, 0x3e, 0x8c, 0xa1, 0xcc, 0xbe, 0x1d, 0x13, 0x28, 0x3e,
  0x39, 0x63, 0x7f, 0x3c, 0xfa, 0x44, 0x14, 0x3e, 0x39, 0xad, 0x18, 0xbe,
  0xc9, 0xb1, 0xb3, 0x3e, 0x71, 0x0b, 0xa2, 0x3e, 0xf2, 0xff, 0x22, 0xbe,
  0x05, 0xe9, 0x0a, 0xbf, 0xb6, 0x4d, 0x06, 0xbe, 0x23, 0x66, 0xa9, 0x3d,
  0xb1, 0xf6, 0x7d, 0x3e, 0x74, 0xd4, 0xbb, 0x3d, 0x2f, 0x65, 0x54, 0x3e,
  0xed, 0xbf, 0x86, 0xbe, 0x84, 0xb3, 0x1a, 0xbe, 0x42, 0xea, 0xcf, 0x3d,
  0x4b, 0x50, 0xc9, 0x3e, 0xd7, 0xa1, 0x2e, 0xbe, 0x72, 0x1b, 0xc5, 0x3e,
  0xa5, 0xba, 0x87, 0xbd, 0xa0, 0xb9, 0x80, 0xbe, 0x3b, 0x2b, 0x7e, 0x3c,
  0x80, 0xab, 0xa3, 0xbe, 0xad, 0x7b, 0x1b, 0x3f, 0x63, 0x09, 0xe8, 0x3e,
  0x4b, 0x5a, 0x84, 0xbe, 0xbc, 0xde, 0xa6, 0xbe, 0xb4, 0xfb, 0xff, 0xff,
  0xb8, 0xfb, 0xff, 0xff, 0x0f, 0x00, 0x00, 0x00, 0x4d, 0x4c, 0x49, 0x52,
  0x20, 0x43, 0x6f, 0x6e, 0x76, 0x65, 0x72, 0x74, 0x65, 0x64, 0x2e, 0x00,
  0x01, 0x00, 0x00, 0x00, 0x14, 0x00, 0x00, 0x00, 0x00, 0x00, 0x0e, 0x00,
  0x18, 0x00, 0x14, 0x00, 0x10, 0x00, 0x0c, 0x00, 0x08, 0x00, 0x04, 0x00,
  0x0e, 0x00, 0x00, 0x00, 0x14, 0x00, 0x00, 0x00, 0x1c, 0x00, 0x00, 0x00,
  0xec, 0x00, 0x00, 0x00, 0xf0, 0x00, 0x00, 0x00, 0xf4, 0x00, 0x00, 0x00,
  0x04, 0x00, 0x00, 0x00, 0x6d, 0x61, 0x69, 0x6e, 0x00, 0x00, 0x00, 0x00,
  0x03, 0x00, 0x00, 0x00, 0x94, 0x00, 0x00, 0x00, 0x50, 0x00, 0x00, 0x00,
  0x14, 0x00, 0x00, 0x00, 0x00, 0x00, 0x0e, 0x00, 0x1a, 0x00, 0x14, 0x00,
  0x10, 0x00, 0x0c, 0x00, 0x0b, 0x00, 0x04, 0x00, 0x0e, 0x00, 0x00, 0x00,
  0x1c, 0x00, 0x00, 0x00, 0x00, 0x00, 0x00, 0x09, 0x1c, 0x00, 0x00, 0x00,
  0x20, 0x00, 0x00, 0x00, 0x01, 0x00, 0x00, 0x00, 0x00, 0x00, 0x06, 0x00,
  0x08, 0x00, 0x04, 0x00, 0x06, 0x00, 0x00, 0x00, 0x00, 0x00, 0x80, 0x3f,
  0x01, 0x00, 0x00, 0x00, 0x07, 0x00, 0x00, 0x00, 0x01, 0x00, 0x00, 0x00,
  0x06, 0x00, 0x00, 0x00, 0xce, 0xff, 0xff, 0xff, 0x10, 0x00, 0x00, 0x00,
  0x00, 0x00, 0x00, 0x08, 0x0c, 0x00, 0x00, 0x00, 0x10, 0x00, 0x00, 0x00,
  0x78, 0xfc, 0xff, 0xff, 0x01, 0x00, 0x00, 0x00, 0x06, 0x00, 0x00, 0x00,
  0x03, 0x00, 0x00, 0x00, 0x05, 0x00, 0x00, 0x00, 0x01, 0x00, 0x00, 0x00,
  0x02, 0x00, 0x00, 0x00, 0x00, 0x00, 0x0e, 0x00, 0x16, 0x00, 0x00, 0x00,
  0x10, 0x00, 0x0c, 0x00, 0x0b, 0x00, 0x04, 0x00, 0x0e, 0x00, 0x00, 0x00,
  0x18, 0x00, 0x00, 0x00, 0x00, 0x00, 0x00, 0x08, 0x18, 0x00, 0x00, 0x00,
  0x1c, 0x00, 0x00, 0x00, 0x00, 0x00, 0x06, 0x00, 0x08, 0x00, 0x07, 0x00,
  0x06, 0x00, 0x00, 0x00, 0x00, 0x00, 0x00, 0x01, 0x01, 0x00, 0x00, 0x00,
  0x05, 0x00, 0x00, 0x00, 0x03, 0x00, 0x00, 0x00, 0x00, 0x00, 0x00, 0x00,
  0x04, 0x00, 0x00, 0x00, 0x03, 0x00, 0x00, 0x00, 0x01, 0x00, 0x00, 0x00,
  0x07, 0x00, 0x00, 0x00, 0x01, 0x00, 0x00, 0x00, 0x00, 0x00, 0x00, 0x00,
  0x08, 0x00, 0x00, 0x00, 0xe4, 0x02, 0x00, 0x00, 0x8c, 0x02, 0x00, 0x00,
  0x18, 0x02, 0x00, 0x00, 0xc0, 0x01, 0x00, 0x00, 0x74, 0x01, 0x00, 0x00,
  0xe0, 0x00, 0x00, 0x00, 0x60, 0x00, 0x00, 0x00, 0x04, 0x00, 0x00, 0x00,
  0x52, 0xfd, 0xff, 0xff, 0x00, 0x00, 0x00, 0x01, 0x14, 0x00, 0x00, 0x00,
  0x1c, 0x00, 0x00, 0x00, 0x1c, 0x00, 0x00, 0x00, 0x08, 0x00, 0x00, 0x00,
  0x34, 0x00, 0x00, 0x00, 0x02, 0x00, 0x00, 0x00, 0xff, 0xff, 0xff, 0xff,
  0x03, 0x00, 0x00, 0x00, 0x3c, 0xfd, 0xff, 0xff, 0x1b, 0x00, 0x00, 0x00,
  0x53, 0x74, 0x61, 0x74, 0x65, 0x66, 0x75, 0x6c, 0x50, 0x61, 0x72, 0x74,
  0x69, 0x74, 0x69, 0x6f, 0x6e, 0x65, 0x64, 0x43, 0x61, 0x6c, 0x6c, 0x5f,
  0x31, 0x3a, 0x30, 0x00, 0x02, 0x00, 0x00, 0x00, 0x01, 0x00, 0x00, 0x00,
  0x03, 0x00, 0x00, 0x00, 0xaa, 0xfd, 0xff, 0xff, 0x00, 0x00, 0x00, 0x01,
  0x14, 0x00, 0x00, 0x00, 0x1c, 0x00, 0x00, 0x00, 0x1c, 0x00, 0x00, 0x00,
  0x07, 0x00, 0x00, 0x00, 0x58, 0x00, 0x00, 0x00, 0x02, 0x00, 0x00, 0x00,
  0xff, 0xff, 0xff, 0xff, 0x03, 0x00, 0x00, 0x00, 0x94, 0xfd, 0xff, 0xff,
  0x3c, 0x00, 0x00, 0x00, 0x73, 0x65, 0x71, 0x75, 0x65, 0x6e, 0x74, 0x69,
  0x61, 0x6c, 0x5f, 0x31, 0x2f, 0x64, 0x65, 0x6e, 0x73, 0x65, 0x5f, 0x31,
  0x5f, 0x32, 0x2f, 0x4d, 0x61, 0x74, 0x4d, 0x75, 0x6c, 0x3b, 0x73, 0x65,
  0x71, 0x75, 0x65, 0x6e, 0x74, 0x69, 0x61, 0x6c, 0x5f, 0x31, 0x2f, 0x64,
  0x65, 0x6e, 0x73, 0x65, 0x5f, 0x31, 0x5f, 0x32, 0x2f, 0x42, 0x69, 0x61,
  0x73, 0x41, 0x64, 0x64, 0x00, 0x00, 0x00, 0x00, 0x02, 0x00, 0x00, 0x00,
  0x01, 0x00, 0x00, 0x00, 0x03, 0x00, 0x00, 0x00, 0x26, 0xfe, 0xff, 0xff,
  0x00, 0x00, 0x00, 0x01, 0x14, 0x00, 0x00, 0x00, 0x1c, 0x00, 0x00, 0x00,
  0x1c, 0x00, 0x00, 0x00, 0x06, 0x00, 0x00, 0x00, 0x6c, 0x00, 0x00, 0x00,
  0x02, 0x00, 0x00, 0x00, 0xff, 0xff, 0xff, 0xff, 0x40, 0x00, 0x00, 0x00,
  0x10, 0xfe, 0xff, 0xff, 0x52, 0x00, 0x00, 0x00, 0x73, 0x65, 0x71, 0x75,
  0x65, 0x6e, 0x74, 0x69, 0x61, 0x6c, 0x5f, 0x31, 0x2f, 0x64, 0x65, 0x6e,
  0x73, 0x65, 0x5f, 0x31, 0x2f, 0x4d, 0x61, 0x74, 0x4d, 0x75, 0x6c, 0x3b,
  0x73, 0x65, 0x71, 0x75, 0x65, 0x6e, 0x74, 0x69, 0x61, 0x6c, 0x5f, 0x31,
  0x2f, 0x64, 0x65, 0x6e, 0x73, 0x65, 0x5f, 0x31, 0x2f, 0x52, 0x65, 0x6c,
  0x75, 0x3b, 0x73, 0x65, 0x71, 0x75, 0x65, 0x6e, 0x74, 0x69, 0x61, 0x6c,
  0x5f, 0x31, 0x2f, 0x64, 0x65, 0x6e, 0x73, 0x65, 0x5f, 0x31, 0x2f, 0x42,
  0x69, 0x61, 0x73, 0x41, 0x64, 0x64, 0x00, 0x00, 0x02, 0x00, 0x00, 0x00,
  0x01, 0x00, 0x00, 0x00, 0x40, 0x00, 0x00, 0x00, 0x0a, 0xff, 0xff, 0xff,
  0x00, 0x00, 0x00, 0x01, 0x10, 0x00, 0x00, 0x00, 0x10, 0x00, 0x00, 0x00,
  0x05, 0x00, 0x00, 0x00, 0x28, 0x00, 0x00, 0x00, 0x90, 0xfe, 0xff, 0xff,
  0x1b, 0x00, 0x00, 0x00, 0x73, 0x65, 0x71, 0x75, 0x65, 0x6e, 0x74, 0x69,
  0x61, 0x6c, 0x5f, 0x31, 0x2f, 0x64, 0x65, 0x6e, 0x73, 0x65, 0x5f, 0x31,
  0x2f, 0x4d, 0x61, 0x74, 0x4d, 0x75, 0x6c, 0x00, 0x02, 0x00, 0x00, 0x00,
  0x40, 0x00, 0x00, 0x00, 0x08, 0x00, 0x00, 0x00, 0x52, 0xff, 0xff, 0xff,
  0x00, 0x00, 0x00, 0x01, 0x10, 0x00, 0x00, 0x00, 0x10, 0x00, 0x00, 0x00,
  0x04, 0x00, 0x00, 0x00, 0x38, 0x00, 0x00, 0x00, 0xd8, 0xfe, 0xff, 0xff,
  0x2b, 0x00, 0x00, 0x00, 0x73, 0x65, 0x71, 0x75, 0x65, 0x6e, 0x74, 0x69,
  0x61, 0x6c, 0x5f, 0x31, 0x2f, 0x64, 0x65, 0x6e, 0x73, 0x65, 0x5f, 0x31,
  0x2f, 0x42, 0x69, 0x61, 0x73, 0x41, 0x64, 0x64, 0x2f, 0x52, 0x65, 0x61,
  0x64, 0x56, 0x61, 0x72, 0x69, 0x61, 0x62, 0x6c, 0x65, 0x4f, 0x70, 0x00,
  0x01, 0x00, 0x00, 0x00, 0x40, 0x00, 0x00, 0x00, 0xa6, 0xff, 0xff, 0xff,
  0x00, 0x00, 0x00, 0x01, 0x10, 0x00, 0x00, 0x00, 0x10, 0x00, 0x00, 0x00,
  0x03, 0x00, 0x00, 0x00, 0x3c, 0x00, 0x00, 0x00, 0x2c, 0xff, 0xff, 0xff,
  0x2d, 0x00, 0x00, 0x00, 0x73, 0x65, 0x71, 0x75, 0x65, 0x6e, 0x74, 0x69,
  0x61, 0x6c, 0x5f, 0x31, 0x2f, 0x64, 0x65, 0x6e, 0x73, 0x65, 0x5f, 0x31,
  0x5f, 0x32, 0x2f, 0x42, 0x69, 0x61, 0x73, 0x41, 0x64, 0x64, 0x2f, 0x52,
  0x65, 0x61, 0x64, 0x56, 0x61, 0x72, 0x69, 0x61, 0x62, 0x6c, 0x65, 0x4f,
  0x70, 0x00, 0x00, 0x00, 0x01, 0x00, 0x00, 0x00, 0x03, 0x00, 0x00, 0x00,
  0x00, 0x00, 0x16, 0x00, 0x18, 0x00, 0x14, 0x00, 0x00, 0x00, 0x10, 0x00,
  0x0c, 0x00, 0x08, 0x00, 0x00, 0x00, 0x00, 0x00, 0x00, 0x00, 0x07, 0x00,
  0x16, 0x00, 0x00, 0x00, 0x00, 0x00, 0x00, 0x01, 0x10, 0x00, 0x00, 0x00,
  0x10, 0x00, 0x00, 0x00, 0x02, 0x00, 0x00, 0x00, 0x1c, 0x00, 0x00, 0x00,
  0x9c, 0xff, 0xff, 0xff, 0x0e, 0x00, 0x00, 0x00, 0x61, 0x72, 0x69, 0x74,
  0x68, 0x2e, 0x63, 0x6f, 0x6e, 0x73, 0x74, 0x61, 0x6e, 0x74, 0x00, 0x00,
  0x02, 0x00, 0x00, 0x00, 0x03, 0x00, 0x00, 0x00, 0x40, 0x00, 0x00, 0x00,
  0x00, 0x00, 0x16, 0x00, 0x1c, 0x00, 0x18, 0x00, 0x00, 0x00, 0x14, 0x00,
  0x10, 0x00, 0x0c, 0x00, 0x00, 0x00, 0x00, 0x00, 0x08, 0x00, 0x07, 0x00,
  0x16, 0x00, 0x00, 0x00, 0x00, 0x00, 0x00, 0x01, 0x14, 0x00, 0x00, 0x00,
  0x20, 0x00, 0x00, 0x00, 0x20, 0x00, 0x00, 0x00, 0x01, 0x00, 0x00, 0x00,
  0x3c, 0x00, 0x00, 0x00, 0x02, 0x00, 0x00, 0x00, 0xff, 0xff, 0xff, 0xff,
  0x08, 0x00, 0x00, 0x00, 0x04, 0x00, 0x04, 0x00, 0x04, 0x00, 0x00, 0x00,
  0x1e, 0x00, 0x00, 0x00, 0x73, 0x65, 0x72, 0x76, 0x69, 0x6e, 0x67, 0x5f,
  0x64, 0x65, 0x66, 0x61, 0x75, 0x6c, 0x74, 0x5f, 0x6b, 0x65, 0x72, 0x61,
  0x73, 0x5f, 0x74, 0x65, 0x6e, 0x73, 0x6f, 0x72, 0x3a, 0x30, 0x00, 0x00,
  0x02, 0x00, 0x00, 0x00, 0x01, 0x00, 0x00, 0x00, 0x08, 0x00, 0x00, 0x00,
  0x02, 0x00, 0x00, 0x00, 0x20, 0x00, 0x00, 0x00, 0x04, 0x00, 0x00, 0x00,
  0xf4, 0xff, 0xff, 0xff, 0x19, 0x00, 0x00, 0x00, 0x00, 0x00, 0x00, 0x19,
  0x0c, 0x00, 0x0c, 0x00, 0x0b, 0x00, 0x00, 0x00, 0x00, 0x00, 0x04, 0x00,
  0x0c, 0x00, 0x00, 0x00, 0x09, 0x00, 0x00, 0x00, 0x00, 0x00, 0x00, 0x09
};
unsigned int model_tflite_len = 4812;
