unsigned char model_tflite[] = {
  0x1c, 0x00, 0x00, 0x00, 0x54, 0x46, 0x4c, 0x33, 0x14, 0x00, 0x20, 0x00,
  0x1c, 0x00, 0x18, 0x00, 0x14, 0x00, 0x10, 0x00, 0x0c, 0x00, 0x00, 0x00,
  0x08, 0x00, 0x04, 0x00, 0x14, 0x00, 0x00, 0x00, 0x1c, 0x00, 0x00, 0x00,
  0x98, 0x00, 0x00, 0x00, 0xf0, 0x00, 0x00, 0x00, 0xf4, 0x0d, 0x00, 0x00,
  0x04, 0x0e, 0x00, 0x00, 0x68, 0x12, 0x00, 0x00, 0x03, 0x00, 0x00, 0x00,
  0x01, 0x00, 0x00, 0x00, 0x10, 0x00, 0x00, 0x00, 0x00, 0x00, 0x0a, 0x00,
  0x10, 0x00, 0x0c, 0x00, 0x08, 0x00, 0x04, 0x00, 0x0a, 0x00, 0x00, 0x00,
  0x0c, 0x00, 0x00, 0x00, 0x1c, 0x00, 0x00, 0x00, 0x3c, 0x00, 0x00, 0x00,
  0x0f, 0x00, 0x00, 0x00, 0x73, 0x65, 0x72, 0x76, 0x69, 0x6e, 0x67, 0x5f,
  0x64, 0x65, 0x66, 0x61, 0x75, 0x6c, 0x74, 0x00, 0x01, 0x00, 0x00, 0x00,
  0x04, 0x00, 0x00, 0x00, 0x90, 0xff, 0xff, 0xff, 0x07, 0x00, 0x00, 0x00,
  0x04, 0x00, 0x00, 0x00, 0x08, 0x00, 0x00, 0x00, 0x6f, 0x75, 0x74, 0x70,
  0x75, 0x74, 0x5f, 0x30, 0x00, 0x00, 0x00, 0x00, 0x01, 0x00, 0x00, 0x00,
  0x04, 0x00, 0x00, 0x00, 0xf6, 0xf1, 0xff, 0xff, 0x04, 0x00, 0x00, 0x00,
  0x0c, 0x00, 0x00, 0x00, 0x6b, 0x65, 0x72, 0x61, 0x73, 0x5f, 0x74, 0x65,
  0x6e, 0x73, 0x6f, 0x72, 0x00, 0x00, 0x00, 0x00, 0x02, 0x00, 0x00, 0x00,
  0x34, 0x00, 0x00, 0x00, 0x04, 0x00, 0x00, 0x00, 0xdc, 0xff, 0xff, 0xff,
  0x0a, 0x00, 0x00, 0x00, 0x04, 0x00, 0x00, 0x00, 0x13, 0x00, 0x00, 0x00,
  0x43, 0x4f, 0x4e, 0x56, 0x45, 0x52, 0x53, 0x49, 0x4f, 0x4e, 0x5f, 0x4d,
  0x45, 0x54, 0x41, 0x44, 0x41, 0x54, 0x41, 0x00, 0x08, 0x00, 0x0c, 0x00,
  0x08, 0x00, 0x04, 0x00, 0x08, 0x00, 0x00, 0x00, 0x09, 0x00, 0x00, 0x00,
  0x04, 0x00, 0x00, 0x00, 0x13, 0x00, 0x00, 0x00, 0x6d, 0x69, 0x6e, 0x5f,
  0x72, 0x75, 0x6e, 0x74, 0x69, 0x6d, 0x65, 0x5f, 0x76, 0x65, 0x72, 0x73,
  0x69, 0x6f, 0x6e, 0x00, 0x0b, 0x00, 0x00, 0x00, 0x00, 0x0d, 0x00, 0x00,
  0xf8, 0x0c, 0x00, 0x00, 0xe8, 0x09, 0x00, 0x00, 0xcc, 0x09, 0x00, 0x00,
  0xbc, 0x08, 0x00, 0x00, 0xac, 0x00, 0x00, 0x00, 0xa4, 0x00, 0x00, 0x00,
  0x9c, 0x00, 0x00, 0x00, 0x94, 0x00, 0x00, 0x00, 0x74, 0x00, 0x00, 0x00,
  0x04, 0x00, 0x00, 0x00, 0x9e, 0xf2, 0xff, 0xff, 0x04, 0x00, 0x00, 0x00,
  0x60, 0x00, 0x00, 0x00, 0x10, 0x00, 0x00, 0x00, 0x00, 0x00, 0x00, 0x00,
  0x08, 0x00, 0x0e, 0x00, 0x08, 0x00, 0x04, 0x00, 0x08, 0x00, 0x00, 0x00,
  0x10, 0x00, 0x00, 0x00, 0x24, 0x00, 0x00, 0x00, 0x00, 0x00, 0x06, 0x00,
  0x08, 0x00, 0x04, 0x00, 0x06, 0x00, 0x00, 0x00, 0x04, 0x00, 0x00, 0x00,
  0x00, 0x00, 0x00, 0x00, 0x0c, 0x00, 0x18, 0x00, 0x14, 0x00, 0x10, 0x00,
  0x0c, 0x00, 0x04, 0x00, 0x0c, 0x00, 0x00, 0x00, 0x06, 0xe0, 0x2d, 0xe0,
  0xc2, 0x3c, 0x64, 0x53, 0x02, 0x00, 0x00, 0x00, 0x02, 0x00, 0x00, 0x00,
  0x04, 0x00, 0x00, 0x00, 0x06, 0x00, 0x00, 0x00, 0x32, 0x2e, 0x31, 0x39,
  0x2e, 0x30, 0x00, 0x00, 0x0a, 0xf3, 0xff, 0xff, 0x04, 0x00, 0x00, 0x00,
  0x10, 0x00, 0x00, 0x00, 0x31, 0x2e, 0x35, 0x2e, 0x30, 0x00, 0x00, 0x00,
  0x00, 0x00, 0x00, 0x00, 0x00, 0x00, 0x00, 0x00, 0x6c, 0xef, 0xff, 0xff,
  0x70, 0xef, 0xff, 0xff, 0x74, 0xef, 0xff, 0xff, 0x32, 0xf3, 0xff, 0xff,
  0x04, 0x00, 0x00, 0x00, 0x00, 0x08, 0x00, 0x00, 0xf7, 0xde, 0x00, 0xbe,
  0x46, 0xd7, 0x3b, 0x3e, 0x40, 0x0d, 0x81, 0x3c, 0x63, 0x9c, 0xe8, 0x3d,
  0x3e, 0xb2, 0x35, 0xbe, 0x20, 0x56, 0xc8, 0xbd, 0x07, 0x6c, 0xc9, 0x3d,
  0xd4, 0xba, 0xac, 0x3d, 0xc7, 0xeb, 0xd3, 0xbe, 0x1c, 0xef, 0x05, 0x3d,
  0x59, 0x5a, 0xd2, 0xbd, 0x6f, 0x1b, 0x99, 0x3e, 0x36, 0xe0, 0x72, 0xbe,
  0xc6, 0xee, 0xce, 0x3d, 0x08, 0x17, 0xf4, 0x3d, 0xd8, 0xca, 0x20, 0x3e,
  0x27, 0x86, 0x4c, 0x3e, 0x8b, 0xdb, 0x7b, 0x3e, 0x74, 0x71, 0xd8, 0xbd,
  0x0f, 0xe6, 0x2a, 0xbe, 0x14, 0x96, 0x63, 0x3e, 0xb2, 0x26, 0x91, 0x3e,
  0x5a, 0xa1, 0x06, 0xbe, 0xca, 0x1b, 0x84, 0xbd, 0x3e, 0x6a, 0x38, 0xbd,
  0x41, 0xf6, 0x8e, 0xbe, 0x2d, 0x1f, 0x54, 0xbe, 0x69, 0x86, 0xb8, 0x3c,
  0xbb, 0xa3, 0x87, 0xbe, 0x1e, 0x9b, 0x94, 0xbe, 0xcf, 0xca, 0x5b, 0xbe,
  0x3e, 0x69, 0x84, 0xbe, 0xc1, 0xbd, 0x79, 0xbe, 0xbb, 0xcb, 0x79, 0xbe,
  0xd4, 0x7a, 0x32, 0x3e, 0x75, 0x20, 0xe2, 0x3e, 0x9d, 0x84, 0x37, 0xbe,
  0x6e, 0x52, 0x0d, 0x3e, 0x2b, 0xa0, 0x68, 0xbd, 0x3d, 0x82, 0xc1, 0x3e,
  0x96, 0x11, 0xa7, 0xbe, 0xe3, 0x84, 0x6a, 0xbe, 0x7b, 0x0a, 0xc7, 0xbd,
  0xdc, 0x19, 0x6c, 0x3d, 0x12, 0x50, 0xa8, 0xba, 0xd2, 0xe8, 0xb7, 0x3c,
  0x63, 0x49, 0xa8, 0xbe, 0xcc, 0x2c, 0x42, 0xbc, 0x96, 0xdd, 0xa4, 0xbe,
  0x24, 0xa7, 0x6e, 0x3e, 0x73, 0x29, 0x82, 0x3c, 0x48, 0x47, 0x3b, 0x3d,
  0xa2, 0x32, 0xf3, 0xbe, 0xc0, 0xdf, 0x7b, 0x3e, 0x38, 0xc2, 0xc0, 0x3e,
  0x73, 0xf9, 0xae, 0x3d, 0xb2, 0xcb, 0xc7, 0xbd, 0xe4, 0x9d, 0x98, 0x3e,
  0xb6, 0x39, 0xea, 0xbd, 0xf3, 0x14, 0xe5, 0xbd, 0x09, 0x1d, 0xc1, 0x3d,
  0x1a, 0x81, 0x3c, 0x3e, 0x21, 0x25, 0xb2, 0x3c, 0xea, 0x5c, 0xc0, 0x3c,
  0x52, 0x99, 0xdb, 0x3e, 0xd3, 0xca, 0x50, 0x3d, 0x1d, 0x39, 0xf5, 0xbd,
  0xbf, 0x1a, 0xa7, 0x3e, 0xd2, 0x81, 0xaf, 0x3e, 0x70, 0x5a, 0x52, 0x3e,
  0x30, 0x56, 0x52, 0x3e, 0x3f, 0x53, 0x02, 0xbe, 0x2c, 0xf8, 0x05, 0x3e,
  0x22, 0x56, 0x30, 0xbe, 0x65, 0xd9, 0xaa, 0x3e, 0x80, 0x26, 0xb6, 0x3d,
  0x35, 0x87, 0x67, 0x3e, 0xfe, 0x34, 0x3f, 0xbe, 0xab, 0x5c, 0x09, 0x3e,
  0xca, 0x76, 0x2d, 0x3e, 0x7b, 0xf3, 0xb9, 0xbe, 0xc7, 0xda, 0x82, 0x3d,
  0x44, 0xcc, 0xba, 0xbe, 0x46, 0x91, 0xa0, 0xbe, 0x08, 0xfa, 0xb2, 0x3d,
  0xb7, 0xb1, 0xb0, 0xbe, 0xce, 0x1f, 0xde, 0xbe, 0xcb, 0x18, 0xe7, 0x3d,
  0x56, 0x82, 0x35, 0x3d, 0x91, 0x61, 0x33, 0x3e, 0x86, 0x89, 0x33, 0x3e,
  0x9d, 0xe2, 0xa7, 0x3e, 0x19, 0xd6, 0x52, 0x3e, 0x39, 0xaa, 0x95, 0xbc,
  0x79, 0xe8, 0xa7, 0x3d, 0x9d, 0xe0, 0xd3, 0xbd, 0xe9, 0xc0, 0x8f, 0x3e,
  0x8d, 0x09, 0xc0, 0x3e, 0x04, 0xb2, 0x4c, 0xbe, 0x50, 0x49, 0x94, 0x3e,
  0xfa, 0x02, 0xdd, 0x3e, 0xae, 0xce, 0x40, 0xbe, 0xce, 0xdc, 0x78, 0x3e,
  0xf3, 0x4a, 0xae, 0x3e, 0x7a, 0x69, 0x2d, 0x3e, 0xab, 0x2c, 0x88, 0x3d,
  0x4a, 0xb3, 0xbe, 0xbc, 0x6b, 0xd8, 0x93, 0xbe, 0xf4, 0x8b, 0xf2, 0x3d,
  0x54, 0x12, 0xf1, 0x3d, 0x80, 0xcc, 0x35, 0x3e, 0x48, 0xcf, 0x4f, 0x3d,
  0xc1, 0x9d, 0xee, 0xbe, 0xa3, 0x1d, 0x43, 0x3e, 0x3e, 0x7b, 0x71, 0xbe,
  0x98, 0x78, 0x30, 0x3e, 0x58, 0x65, 0x96, 0xbe, 0xd9, 0x64, 0x28, 0x3e,
  0x04, 0x61, 0xf5, 0xbd, 0x4e, 0x8e, 0x93, 0x3e, 0x94, 0xe7, 0x11, 0xbe,
  0xed, 0x72, 0x99, 0x3c, 0x5f, 0x6b, 0xac, 0xbd, 0x29, 0x8b, 0x17, 0xbe,
  0xb7, 0x22, 0x88, 0x3e, 0x77, 0x8d, 0x41, 0x3d, 0x4a, 0x5f, 0x35, 0xbd,
  0x74, 0xb8, 0x1e, 0x3d, 0x3d, 0x81, 0x8f, 0xbe, 0x1c, 0xf0, 0x8e, 0xbe,
  0x37, 0x84, 0x00, 0x3e, 0x99, 0xe6, 0x9e, 0xbe, 0xc5, 0x99, 0xb4, 0xbe,
  0xb3, 0x30, 0x9f, 0xbe, 0xf9, 0xaf, 0x40, 0xbe, 0x41, 0xce, 0xd3, 0xbe,
  0x3c, 0x33, 0x19, 0xbd, 0xeb, 0xc4, 0x23, 0x3d, 0x87, 0xc1, 0x61, 0x3e,
  0x54, 0x26, 0x41, 0x3d, 0x8a, 0x9b, 0x13, 0xbe, 0x97, 0x65, 0xcb, 0x3a,
  0xc8, 0xb8, 0x0c, 0x3e, 0xb9, 0x63, 0x5d, 0xbe, 0xdf, 0xb2, 0x53, 0xbe,
  0x80, 0x1b, 0x03, 0x3e, 0x18, 0xa1, 0x7a, 0xbe, 0xb3, 0xba, 0x23, 0x3e,
  0x52, 0xc5, 0xd0, 0xbe, 0x03, 0xfc, 0x85, 0x3e, 0x6e, 0x8d, 0x53, 0xbe,
  0x37, 0xf8, 0x3c, 0x3d, 0xd3, 0xe7, 0xe1, 0x3c, 0x69, 0xa3, 0x67, 0x3d,
  0xa5, 0x11, 0x0c, 0x3e, 0xe4, 0xab, 0xe6, 0xb8, 0x00, 0x2b, 0xe5, 0x3e,
  0x3c, 0xfc, 0x55, 0xbe, 0x12, 0x66, 0xb8, 0x3e, 0x52, 0x6b, 0x2a, 0xbe,
  0x33, 0x3d, 0x83, 0xbe, 0xc4, 0x95, 0xd8, 0x3d, 0xe1, 0xdc, 0x08, 0x3c,
  0xba, 0x60, 0x4c, 0xbb, 0x6f, 0x43, 0x3d, 0x3e, 0xf1, 0x4e, 0x08, 0xbb,
  0x08, 0x9f, 0x05, 0x3e, 0xe5, 0xb7, 0xa2, 0x3c, 0x39, 0xf2, 0x29, 0x3d,
  0xf0, 0xb4, 0xf2, 0xbc, 0xda, 0x4f, 0xb4, 0x3d, 0xeb, 0x9e, 0xfd, 0x3d,
  0x47, 0x2b, 0xc7, 0x3e, 0x59, 0x1e, 0x9d, 0x3d, 0x4d, 0x2e, 0x1f, 0xbc,
  0x9f, 0x72, 0x22, 0x3e, 0x3e, 0xdd, 0x24, 0xbe, 0xfd, 0x8f, 0x3e, 0xbe,
  0x7a, 0xa9, 0x09, 0xbe, 0x37, 0xc3, 0xbc, 0xbe, 0xc4, 0x10, 0xbb, 0xbb,
  0x82, 0x75, 0xec, 0xbc, 0x08, 0x57, 0xf2, 0xbe, 0x7e, 0xd6, 0xbc, 0xbe,
  0xfa, 0xf5, 0xbd, 0x3d, 0x18, 0x91, 0x31, 0x3e, 0x89, 0x78, 0xd0, 0xbe,
  0x09, 0xf5, 0xd3, 0xbe, 0x4a, 0x69, 0xc2, 0xbc, 0x4c, 0x51, 0x37, 0x3e,
  0x11, 0x65, 0xe2, 0xbd, 0x42, 0xd4, 0xb9, 0xbe, 0x15, 0x57, 0xc4, 0x3e,
  0xc2, 0x10, 0x41, 0x3e, 0xf8, 0xa4, 0xa6, 0x3e, 0x8e, 0x56, 0xac, 0x3e,
  0x26, 0xd1, 0xed, 0x3d, 0xc3, 0xd6, 0x09, 0xbe, 0x77, 0x3f, 0x50, 0x3e,
  0x14, 0xd9, 0x8f, 0x3e, 0x45, 0xbe, 0x7b, 0xbe, 0x47, 0x3e, 0x5f, 0x3c,
  0x50, 0x8f, 0x38, 0xbd, 0xd6, 0x4a, 0x5b, 0x3d, 0x8e, 0x9a, 0x10, 0x3e,
  0xe2, 0x3c, 0x3b, 0x3e, 0x0f, 0xfa, 0x0e, 0xbe, 0x15, 0x33, 0x22, 0xbe,
  0x3b, 0x96, 0x0a, 0xbf, 0x32, 0xe6, 0xa0, 0x3e, 0xe8, 0xe7, 0xea, 0xbd,
  0x41, 0xea, 0x09, 0x3e, 0xfd, 0x66, 0x63, 0xbe, 0x3f, 0x31, 0xcf, 0xbe,
  0xd4, 0x51, 0x10, 0x3e, 0x8d, 0x0d, 0xb3, 0x3e, 0x10, 0xbc, 0x18, 0x3e,
  0xde, 0xb1, 0x93, 0xbe, 0xa4, 0x39, 0xcc, 0xbe, 0x8f, 0xb3, 0xde, 0x3c,
  0x9d, 0xf2, 0x18, 0xbe, 0x07, 0xd9, 0x36, 0x3e, 0xe4, 0xd4, 0xa4, 0xbe,
  0x06, 0x36, 0x49, 0xbb, 0x5d, 0x6c, 0x16, 0x3e, 0xc4, 0xef, 0x77, 0xbd,
  0xa7, 0x3d, 0xb6, 0x3d, 0xd8, 0x3e, 0x7d, 0x3d, 0x17, 0x08, 0x69, 0xbe,
  0x67, 0x87, 0x95, 0x3c, 0x4b, 0x74, 0x22, 0xbe, 0x85, 0x78, 0x13, 0xbd,
  0xd5, 0xbd, 0x7f, 0x3e, 0x31, 0xa9, 0x53, 0x3e, 0x68, 0x95, 0x53, 0x3c,
  0x4c, 0x9c, 0x09, 0x3e, 0x89, 0xa1, 0xd9, 0x3e, 0x98, 0x2f, 0x3d, 0x3e,
  0x42, 0xee, 0x6b, 0xbc, 0xf3, 0xcc, 0x4b, 0x3e, 0x98, 0x5a, 0x40, 0x3e,
  0x72, 0x6e, 0xac, 0xbe, 0xc2, 0x3f, 0x0b, 0xbe, 0xc7, 0x43, 0xb6, 0xbe,
  0x5f, 0xd5, 0xa5, 0xbd, 0xa6, 0x25, 0xb6, 0xbe, 0x20, 0x46, 0x13, 0xbe,
  0x48, 0xba, 0x10, 0xbe, 0x4b, 0xc7, 0x09, 0xbd, 0x4c, 0xec, 0x42, 0x3e,
  0xae, 0xf3, 0xd4, 0x3d, 0x2e, 0x89, 0x27, 0x3e, 0x58, 0x37, 0x36, 0x3e,
  0x78, 0xab, 0x05, 0x3e, 0x51, 0xcf, 0xc7, 0xbd, 0x12, 0xb7, 0x57, 0xbe,
  0x7d, 0xd6, 0x9c, 0xbe, 0x28, 0x59, 0xc6, 0x3c, 0xd8, 0x86, 0x7a, 0xbe,
  0x75, 0x84, 0xab, 0xbe, 0xa1, 0x30, 0x2f, 0xbe, 0x21, 0x0a, 0x6c, 0xbd,
  0xc0, 0x7f, 0xf9, 0x3d, 0xb8, 0xb4, 0x8b, 0x3d, 0xb7, 0x59, 0xa2, 0xbd,
  0x23, 0x1e, 0x17, 0x3e, 0xa5, 0x79, 0x53, 0x3d, 0x3a, 0x43, 0x34, 0x3e,
  0x9b, 0xa5, 0x63, 0xbe, 0xa4, 0x77, 0x5f, 0xbd, 0x1b, 0x8a, 0x40, 0xbe,
  0x66, 0x48, 0x1f, 0xbe, 0xc5, 0xb2, 0xb3, 0x3e, 0x69, 0xaf, 0xc9, 0x3c,
  0x7b, 0xcd, 0x6d, 0x3e, 0x95, 0x9c, 0x6a, 0x3d, 0x7e, 0x46, 0x04, 0x3f,
  0x75, 0xa9, 0x3a, 0x3e, 0xbb, 0xcb, 0x7b, 0x3e, 0x15, 0xfa, 0x4c, 0x3e,
  0xba, 0x78, 0xb1, 0x3e, 0x96, 0xcb, 0xb9, 0xbd, 0x61, 0x99, 0x87, 0x3e,
  0xac, 0x27, 0x39, 0x3e, 0x49, 0xa6, 0xcf, 0x3e, 0x4f, 0xa6, 0xdc, 0xbd,
  0x71, 0x71, 0xa8, 0x3e, 0x74, 0x3b, 0xb8, 0x3d, 0x71, 0xe2, 0x56, 0x3e,
  0xef, 0x3e, 0x90, 0x3c, 0xbd, 0xf7, 0xb3, 0xbd, 0x05, 0x7f, 0x89, 0x3d,
  0x61, 0xbc, 0x16, 0xbd, 0x75, 0xba, 0x8f, 0x3c, 0x09, 0x12, 0x67, 0xbe,
  0xcd, 0x51, 0x38, 0x3e, 0xdf, 0xf1, 0x71, 0x3e, 0x80, 0x1f, 0x8d, 0x3e,
  0xd9, 0x95, 0x16, 0xbe, 0xeb, 0xfd, 0xb1, 0x3e, 0x4e, 0x6e, 0x09, 0x3e,
  0x42, 0xb7, 0x91, 0xbe, 0x94, 0x47, 0x27, 0x3e, 0xcd, 0xf2, 0x37, 0x3e,
  0xfe, 0x17, 0xa8, 0xbd, 0x06, 0x1e, 0xa7, 0xbe, 0x5b, 0x95, 0x5c, 0x3e,
  0x62, 0xdb, 0xb8, 0x3a, 0x1b, 0x89, 0xe3, 0x3e, 0xf7, 0xd1, 0xf6, 0x3a,
  0xcd, 0x49, 0xf1, 0x3d, 0x8e, 0xb7, 0x14, 0xbc, 0xf1, 0x94, 0x8f, 0xbd,
  0xbf, 0xa3, 0x8f, 0x3e, 0x97, 0xfb, 0xfd, 0xbd, 0xdb, 0xcc, 0x24, 0xbe,
  0x8c, 0x6e, 0x8e, 0xbe, 0x78, 0x76, 0x8c, 0x3e, 0x26, 0x2e, 0x9b, 0x3e,
  0xa8, 0xea, 0xcb, 0x3e, 0x73, 0xf4, 0xaa, 0xbe, 0xb5, 0x2e, 0x78, 0x3e,
  0xb4, 0xef, 0xc2, 0xbd, 0x86, 0x3d, 0xb0, 0x3e, 0xc3, 0x6c, 0xaf, 0xbe,
  0x5b, 0x97, 0x93, 0xbe, 0x7c, 0xfb, 0x08, 0x3e, 0xc6, 0x38, 0x1e, 0x3c,
  0xd2, 0x05, 0xf8, 0x3d, 0xc7, 0xbd, 0x8d, 0x3e, 0x65, 0x26, 0x5b, 0x3e,
  0x3e, 0xea, 0xd9, 0xba, 0xa4, 0x93, 0xb9, 0x3e, 0x9f, 0xd6, 0x2f, 0xbe,
  0x63, 0x6c, 0xbe, 0x3e, 0x12, 0xd0, 0x8b, 0xbd, 0x5a, 0x16, 0x01, 0xbf,
  0x8d, 0xec, 0x8d, 0x3e, 0xfa, 0xed, 0x06, 0xbe, 0x71, 0x7c, 0xbe, 0x3e,
  0xcf, 0xbd, 0xf8, 0xbe, 0xf6, 0x3e, 0x6d, 0x3c, 0xe9, 0x58, 0x78, 0x3e,
  0xcf, 0x78, 0x61, 0x3d, 0x58, 0xf4, 0xf1, 0x3e, 0xd8, 0xf0, 0x98, 0xba,
  0x72, 0xc9, 0x68, 0x3e, 0x46, 0xd0, 0x4f, 0x3e, 0x06, 0xc3, 0x13, 0x3e,
  0xb3, 0xba, 0x85, 0xbe, 0xef, 0x86, 0x82, 0x3e, 0x01, 0x71, 0x1e, 0x3e,
  0x11, 0xab, 0x3b, 0x3d, 0xc9, 0xae, 0x64, 0xbe, 0xc7, 0x9b, 0xd4, 0xbd,
  0x8b, 0xcf, 0x41, 0x3d, 0xfe, 0x47, 0x6b, 0xbd, 0x10, 0x01, 0x83, 0xbc,
  0x4c, 0x1a, 0xbd, 0x3d, 0xe5, 0x1a, 0x52, 0x3d, 0xe5, 0xf8, 0x10, 0x3e,
  0xc1, 0xe3, 0xd6, 0xbe, 0x8a, 0x15, 0x94, 0xbe, 0x2e, 0x71, 0xa3, 0xbe,
  0x5a, 0x5b, 0x7a, 0xbe, 0xe7, 0x65, 0x71, 0xbe, 0xa9, 0xb1, 0xd8, 0xbd,
  0x3e, 0x91, 0x14, 0xbb, 0xc4, 0x2c, 0x11, 0xbe, 0x15, 0x90, 0xda, 0x3c,
  0x2e, 0x96, 0x98, 0xbd, 0x5c, 0x45, 0x7d, 0x3e, 0x28, 0xb5, 0x2b, 0xbf,
  0xb5, 0xc1, 0xcd, 0xbe, 0x32, 0x07, 0xb8, 0x3e, 0x6a, 0x4a, 0xc5, 0x3e,
  0x2b, 0xaf, 0x8f, 0xbe, 0x7c, 0x67, 0xa6, 0xbe, 0xe1, 0x99, 0xa2, 0xbe,
  0xe3, 0x12, 0xc1, 0xbe, 0x22, 0x7f, 0x27, 0xbe, 0xb8, 0x6e, 0x44, 0x3e,
  0x2c, 0xb6, 0x93, 0xbe, 0xd4, 0x21, 0xa8, 0xbe, 0xa0, 0x8f, 0xe2, 0xbd,
  0xd5, 0x29, 0x5c, 0x3e, 0x6e, 0x0d, 0xdf, 0x3d, 0xdc, 0xc1, 0xf5, 0xbb,
  0x75, 0x97, 0xd4, 0xbe, 0x29, 0x83, 0xa5, 0xbe, 0xe0, 0xc9, 0x6c, 0xbb,
  0xe6, 0x66, 0xcf, 0xbd, 0xca, 0x94, 0x9f, 0x3e, 0xd6, 0xff, 0x66, 0x3e,
  0x88, 0x39, 0xf5, 0x3d, 0xa0, 0xe9, 0x35, 0x3e, 0xf6, 0xae, 0xf3, 0x3c,
  0x03, 0x5b, 0x6b, 0xbe, 0x54, 0x7c, 0x3f, 0xbe, 0xb9, 0x71, 0x6b, 0x3e,
  0x20, 0x2c, 0x82, 0x3e, 0x67, 0x1f, 0x91, 0x3d, 0xaf, 0x75, 0x13, 0x3e,
  0x9c, 0x67, 0x5e, 0xbd, 0x7b, 0x1a, 0xa2, 0x3e, 0x5f, 0x74, 0x07, 0xbe,
  0x40, 0x6d, 0xf4, 0xbd, 0x70, 0xa6, 0x60, 0x3e, 0x0f, 0xf4, 0x42, 0xbe,
  0x97, 0xa3, 0xb2, 0xbe, 0xc7, 0x2e, 0x53, 0x3c, 0xe8, 0xd6, 0x9a, 0xbe,
  0xcb, 0x4e, 0xd6, 0xbd, 0xac, 0x75, 0x7b, 0xbe, 0x3e, 0x8f, 0x6d, 0xbe,
  0xf6, 0xe7, 0x75, 0xbe, 0x2a, 0xac, 0x7c, 0xbe, 0xd0, 0xea, 0x13, 0x3e,
  0x8e, 0x5c, 0xf1, 0x3c, 0xdc, 0x8b, 0x85, 0xbd, 0xd8, 0x51, 0x08, 0xbf,
  0x61, 0x3a, 0x0f, 0xbf, 0x37, 0x68, 0x71, 0x3e, 0x7f, 0x5b, 0xf9, 0x3e,
  0x19, 0xf1, 0x1e, 0x3e, 0x55, 0x2f, 0x1f, 0xbe, 0x36, 0x3c, 0x08, 0x3e,
  0xb3, 0x88, 0xb5, 0xbb, 0x65, 0x68, 0xc1, 0x3e, 0xef, 0x44, 0x1c, 0xbd,
  0xb9, 0x82, 0x8b, 0x3e, 0x7d, 0xb0, 0x30, 0xbd, 0xa6, 0x13, 0x82, 0xbe,
  0x3a, 0x32, 0x2c, 0x3e, 0x7f, 0x47, 0x0b, 0x3d, 0x5b, 0x28, 0x9c, 0xbd,
  0x04, 0x0c, 0xb4, 0xbe, 0x09, 0x8d, 0x9f, 0x3e, 0xa5, 0xfb, 0xa8, 0x3e,
  0xf9, 0xd1, 0xee, 0x3d, 0xf0, 0x9c, 0x47, 0xba, 0x56, 0xc3, 0x82, 0xbd,
  0xe1, 0x69, 0xa5, 0x3e, 0x69, 0x3c, 0x1c, 0x3e, 0xc4, 0x21, 0x37, 0xbc,
  0x9c, 0x04, 0x58, 0x3e, 0xd5, 0x5a, 0x37, 0xbc, 0xaa, 0x07, 0x0e, 0x3e,
  0xd4, 0x37, 0x4e, 0xbe, 0xab, 0xff, 0x8c, 0x3c, 0x3d, 0xf3, 0x13, 0xbe,
  0xba, 0x26, 0x93, 0xbd, 0x0e, 0xff, 0x4e, 0xbe, 0xc3, 0xd3, 0x92, 0x3e,
  0x17, 0x4d, 0x40, 0xbd, 0x8e, 0xe0, 0xb7, 0x3e, 0x85, 0x55, 0xb3, 0xbd,
  0x25, 0x84, 0x3c, 0xbe, 0x1d, 0xf8, 0xf3, 0x3d, 0x98, 0x0d, 0x52, 0xbe,
  0xa9, 0xdf, 0x22, 0xbc, 0x91, 0xd2, 0x8f, 0x3c, 0x10, 0xea, 0xb3, 0xbe,
  0xe2, 0x41, 0x5f, 0xbe, 0x64, 0xe7, 0x7b, 0xbe, 0x0e, 0x52, 0x93, 0x3c,
  0x69, 0xf8, 0x2c, 0xbe, 0x5c, 0xac, 0xd4, 0x3e, 0x32, 0x6a, 0x03, 0xbf,
  0xb9, 0x01, 0xf5, 0x3d, 0x74, 0x49, 0xb5, 0x3e, 0x41, 0x9d, 0x9e, 0xbd,
  0xbd, 0xcd, 0x10, 0xbd, 0x4e, 0x2b, 0x98, 0xbd, 0xe6, 0xa9, 0x3c, 0xbd,
  0xd8, 0x44, 0x39, 0xbe, 0xeb, 0xb3, 0x2d, 0x3d, 0xe3, 0x02, 0xda, 0x3d,
  0x4e, 0xa3, 0x99, 0x3e, 0xcc, 0x0b, 0x1b, 0xbe, 0xe8, 0x8d, 0x11, 0xbf,
  0xce, 0xfd, 0xf6, 0x3d, 0x5f, 0x3f, 0x9b, 0x3d, 0x18, 0xe1, 0x86, 0x3e,
  0xa2, 0xe7, 0xab, 0xbe, 0xa4, 0x93, 0xf7, 0xbe, 0x2c, 0x83, 0x68, 0x3d,
  0x6e, 0xea, 0x82, 0x3e, 0xbe, 0xb6, 0x8e, 0x3e, 0x51, 0x84, 0x0e, 0xbf,
  0xf5, 0x96, 0xe0, 0x3d, 0x03, 0xcf, 0x4a, 0x3e, 0xb6, 0x7a, 0xa5, 0xbc,
  0xf9, 0x51, 0x9f, 0xbe, 0x01, 0x09, 0x85, 0xbe, 0x0f, 0x58, 0xcf, 0xbe,
  0x61, 0x2c, 0xe9, 0xbe, 0xd0, 0xc1, 0x90, 0x3d, 0x97, 0x1e, 0x9c, 0xbc,
  0x03, 0xb5, 0xdb, 0x3c, 0x14, 0xd7, 0x08, 0xbf, 0xe4, 0xea, 0x01, 0xbf,
  0xef, 0xad, 0xd4, 0x3e, 0x55, 0x85, 0xb5, 0x3e, 0x3b, 0xde, 0x26, 0xbb,
  0x75, 0x1e, 0x14, 0x3e, 0xd0, 0x84, 0x5c, 0x3e, 0x07, 0x24, 0xa8, 0x3e,
  0x80, 0xaa, 0xaa, 0xbe, 0xfc, 0xa4, 0xe7, 0xbe, 0x57, 0x38, 0x12, 0x3e,
  0x6f, 0x4c, 0x95, 0x3d, 0x3e, 0xfb, 0xff, 0xff, 0x04, 0x00, 0x00, 0x00,
  0x00, 0x01, 0x00, 0x00, 0xdd, 0x4c, 0xe6, 0xbc, 0xc4, 0x08, 0x01, 0x3e,
  0x6a, 0x79, 0x50, 0xbd, 0x93, 0x73, 0x04, 0x3d, 0x9b, 0xac, 0x50, 0x3e,
  0xd1, 0xb4, 0x34, 0xbd, 0xde, 0x4d, 0x45, 0x3e, 0x3e, 0xf9, 0x13, 0x3d,
  0xa3, 0x55, 0xe1, 0x3d, 0xde, 0xfa, 0x98, 0x3d, 0x58, 0x8e, 0xd8, 0x3d,
  0x4e, 0x00, 0xb1, 0x3d, 0x75, 0x1d, 0x5c, 0x3e, 0xc1, 0x84, 0x94, 0xbd,
  0xe9, 0xbf, 0x51, 0x3e, 0xfc, 0xfc, 0xca, 0xbd, 0x91, 0xe9, 0x6b, 0x3d,
  0x66, 0x3b, 0xa7, 0xbd, 0xf4, 0xfe, 0x63, 0x3e, 0xfe, 0xe2, 0x9c, 0x3d,
  0x00, 0xd0, 0xb4, 0xbd, 0x6b, 0xfe, 0x2b, 0x3e, 0x0d, 0xcf, 0xa9, 0x3d,
  0xad, 0x45, 0x62, 0xbd, 0x69, 0x28, 0x85, 0x3d, 0x32, 0x84, 0xa9, 0xbc,
  0xd8, 0x54, 0x2c, 0x3e, 0x16, 0x96, 0xcc, 0xbc, 0x68, 0x31, 0x25, 0xbd,
  0xe6, 0x92, 0x16, 0x3e, 0x68, 0xab, 0xf5, 0x3d, 0x3d, 0xc6, 0xa4, 0xbc,
  0x0e, 0xe7, 0x09, 0xbd, 0xa4, 0x10, 0x66, 0x3c, 0x9d, 0x64, 0xb7, 0xbc,
  0xcd, 0x21, 0x9e, 0x3d, 0xbd, 0x11, 0x6a, 0xbd, 0x2b, 0xd7, 0x34, 0x3e,
  0x7e, 0xa5, 0x86, 0x3d, 0x60, 0x4c, 0x3a, 0x3e, 0xc4, 0x8a, 0x28, 0x3e,
  0x43, 0x53, 0x2a, 0x3e, 0xc7, 0xd2, 0x39, 0x3e, 0x4f, 0x16, 0xbe, 0x3d,
  0xbc, 0x57, 0xd0, 0xbd, 0xd3, 0x70, 0x3d, 0x3d, 0xf5, 0x38, 0x6f, 0x3e,
  0xff, 0x79, 0x41, 0x3d, 0xec, 0xbc, 0x4f, 0x3e, 0x57, 0xa0, 0xf3, 0x3c,
  0x30, 0x67, 0x12, 0x3e, 0xbc, 0x8c, 0xd5, 0x3d, 0xd6, 0x1d, 0xa1, 0x3e,
  0x32, 0x46, 0x74, 0x3d, 0x98, 0xc6, 0x60, 0x3e, 0x5f, 0x2f, 0x5a, 0x3a,
  0x3a, 0xef, 0x16, 0x3e, 0x8b, 0x36, 0x08, 0x3e, 0xf4, 0x31, 0x42, 0x3e,
  0x46, 0xd0, 0xb0, 0xbd, 0x10, 0x43, 0x56, 0x3e, 0x84, 0x28, 0x92, 0x3e,
  0xa2, 0x8d, 0x78, 0x3e, 0x6c, 0x4a, 0x4e, 0x3e, 0x4a, 0xfc, 0xff, 0xff,
  0x04, 0x00, 0x00, 0x00, 0x0c, 0x00, 0x00, 0x00, 0x63, 0xd5, 0xdf, 0xbd,
  0xdd, 0x5a, 0x7f, 0xbd, 0x81, 0xb2, 0xdd, 0x3d, 0x62, 0xfc, 0xff, 0xff,
  0x04, 0x00, 0x00, 0x00, 0x00, 0x03, 0x00, 0x00, 0x7a, 0x71, 0x2c, 0x3e,
  0x2d, 0x8d, 0x5d, 0xbe, 0x11, 0x2e, 0x53, 0xbe, 0xe7, 0x0e, 0x99, 0x3e,
  0xdd, 0xee, 0xc4, 0xbe, 0xbd, 0x24, 0xe9, 0x3e, 0xd4, 0x7d, 0x9c, 0xbe,
  0x6c, 0x53, 0xb6, 0xbe, 0x71, 0xb6, 0x75, 0xbe, 0xea, 0xcd, 0xa4, 0x3c,
  0x29, 0x68, 0xe1, 0x3e, 0x04, 0x96, 0xdc, 0x3c, 0x46, 0x82, 0x0d, 0xbd,
  0x47, 0xac, 0xf2, 0x3d, 0x1d, 0xaf, 0x19, 0x3e, 0xcc, 0xa7, 0x39, 0xbd,
  0x30, 0x13, 0x99, 0x3e, 0x8b, 0x33, 0xaf, 0x3d, 0xeb, 0x78, 0x6a, 0x3e,
  0xa8, 0x85, 0x2a, 0xbe, 0x9d, 0x89, 0x53, 0x3e, 0x5f, 0xaf, 0x38, 0xbe,
  0xdf, 0xa5, 0x2b, 0x3d, 0x73, 0x19, 0x1b, 0x3e, 0x4b, 0x15, 0x4f, 0xbe,
  0x0a, 0x83, 0x88, 0x3e, 0xff, 0x5e, 0x85, 0xbc, 0x96, 0xdb, 0xee, 0x3d,
  0xd6, 0xee, 0x6c, 0x3d, 0x5b, 0x51, 0x27, 0xbe, 0x81, 0x29, 0xa7, 0x3e,
  0x52, 0x4c, 0xbe, 0xbd, 0xe4, 0x8c, 0x67, 0x3d, 0x3c, 0x0f, 0x17, 0xbe,
  0xc6, 0xce, 0x5e, 0xbd, 0x28, 0x45, 0x15, 0xbe, 0x3a, 0x10, 0x7a, 0x3d,
  0x85, 0xa3, 0xc9, 0xbe, 0x73, 0x9d, 0x44, 0xbe, 0x02, 0xf4, 0x3e, 0xbe,
  0x8e, 0x71, 0x52, 0xbe, 0x56, 0x68, 0x72, 0xbe, 0x81, 0x87, 0x1f, 0xbe,
  0x06, 0x66, 0x7c, 0xbe, 0xbb, 0xcb, 0xb6, 0x3d, 0xa8, 0x61, 0x9b, 0x3e,
  0xdc, 0x55, 0xf1, 0xbe, 0x94, 0x30, 0xa5, 0x3e, 0xd4, 0x0c, 0x33, 0x3e,
  0x2c, 0x47, 0x02, 0x3d, 0xb3, 0xe2, 0x5f, 0xbe, 0xb0, 0x80, 0x9b, 0x3e,
  0xe1, 0x4d, 0x95, 0xbe, 0x68, 0x83, 0x65, 0xbe, 0x00, 0xb8, 0xc1, 0xbe,
  0x89, 0x45, 0x90, 0xbe, 0x38, 0x1f, 0x1b, 0xbe, 0xcf, 0x7b, 0xc9, 0x3e,
  0xe4, 0xa4, 0xaa, 0xbe, 0xf2, 0x20, 0x56, 0xbe, 0x9f, 0x2f, 0x3b, 0xbe,
  0x25, 0x93, 0x25, 0x3d, 0x5b, 0x0d, 0xe2, 0xbe, 0x26, 0x8e, 0xe4, 0xbe,
  0x34, 0x0c, 0x97, 0x3d, 0xc0, 0x97, 0x10, 0xbf, 0x82, 0x11, 0x3b, 0xbd,
  0x6b, 0x4b, 0xfd, 0xbd, 0x30, 0x0f, 0xa3, 0xbd, 0xc6, 0xf2, 0xe2, 0x3d,
  0xc6, 0xfb, 0x57, 0xbe, 0x9b, 0x29, 0xc4, 0x3d, 0xd8, 0xf4, 0x93, 0x3e,
  0xc7, 0x2f, 0xca, 0x3e, 0xed, 0xad, 0x8e, 0x3d, 0x97, 0xfc, 0xc4, 0x3e,
  0x7b, 0xb7, 0xc7, 0x3e, 0x81, 0x00, 0x89, 0xbc, 0x2c, 0x20, 0x82, 0xbe,
  0x06, 0xca, 0x90, 0x3d, 0x22, 0x93, 0x81, 0xbe, 0x1e, 0xed, 0x36, 0x3e,
  0xc3, 0x6d, 0x3a, 0xbe, 0x2d, 0xac, 0x08, 0x3f, 0x89, 0x65, 0x20, 0xbe,
  0xe9, 0xfa, 0x8b, 0x3e, 0x25, 0x9b, 0x86, 0xbe, 0xfc, 0x30, 0xc2, 0x3d,
  0x44, 0xeb, 0xce, 0x3e, 0x14, 0x77, 0xb4, 0xbd, 0x7f, 0xf4, 0x9d, 0xbe,
  0xf8, 0xca, 0x39, 0x3e, 0x4e, 0x12, 0x59, 0xbd, 0x07, 0x0b, 0xc3, 0x3e,
  0x55, 0x22, 0xa2, 0xbe, 0x08, 0x80, 0x20, 0x3e, 0x2b, 0x66, 0x95, 0xbe,
  0x11, 0x0c, 0x25, 0xbe, 0x5d, 0x9e, 0x12, 0x3e, 0x32, 0x4a, 0xe9, 0x3e,
  0x7b, 0x56, 0x34, 0xbe, 0x4e, 0xf8, 0xc1, 0x3e, 0x2f, 0xf2, 0xd0, 0x3e,
  0x7d, 0x08, 0x91, 0xbe, 0x1a, 0x20, 0x04, 0xbf, 0x12, 0x7a, 0x08, 0x3f,
  0x84, 0xce, 0xbb, 0xbe, 0x4a, 0x13, 0xa4, 0x3e, 0x39, 0xeb, 0x55, 0xbd,
  0x28, 0xb5, 0xf1, 0xbd, 0xf4, 0x5f, 0xbb, 0xbe, 0x55, 0xba, 0x05, 0xbe,
  0xff, 0x5a, 0xe8, 0xbe, 0x4b, 0x22, 0xb0, 0x3e, 0x5d, 0xd5, 0xb7, 0x3e,
  0x05, 0x4f, 0xca, 0xbe, 0x69, 0x2b, 0xd4, 0xbd, 0x04, 0x87, 0xa4, 0x3e,
  0x3b, 0xd0, 0xa6, 0xbe, 0x6b, 0x0e, 0x28, 0xbe, 0xcd, 0x32, 0x9f, 0xbe,
  0x5d, 0x05, 0x5b, 0xbe, 0x94, 0x8f, 0xc3, 0xbe, 0x11, 0x78, 0x69, 0x3d,
  0x20, 0x61, 0xe7, 0xbd, 0x4d, 0xff, 0x10, 0xbd, 0x63, 0xf0, 0xef, 0xbe,
  0x7d, 0xdf, 0x24, 0x3e, 0x61, 0x88, 0x5e, 0x3e, 0x39, 0xb1, 0x19, 0x3e,
  0xb9, 0xea, 0x98, 0x3d, 0xdb, 0x55, 0x5c, 0xbe, 0xae, 0xe4, 0x01, 0x3e,
  0x4b, 0x41, 0xac, 0xbd, 0x09, 0xf0, 0xa9, 0x3e, 0xa0, 0x15, 0xab, 0x3d,
  0xac, 0x51, 0xb1, 0xbe, 0x11, 0x46, 0x43, 0x3d, 0xe4, 0x27, 0x62, 0x3e,
  0xcb, 0x5b, 0xcd, 0x3d, 0x3f, 0x42, 0x05, 0x3e, 0x9e, 0xf6, 0x23, 0xbd,
  0xff, 0x77, 0xbc, 0x3e, 0x0e, 0x9b, 0x5a, 0x3e, 0x72, 0x01, 0x90, 0xbe,
  0xe8, 0x0c, 0x30, 0xbd, 0xc8, 0x1b, 0x77, 0x3e, 0xfc, 0xbc, 0x0d, 0xbf,
  0xe0, 0x9c, 0xd6, 0xbd, 0xbe, 0xeb, 0xd1, 0xbc, 0x20, 0x21, 0xd9, 0xbe,
  0x30, 0xe2, 0x13, 0xbe, 0x89, 0x06, 0x0b, 0xbe, 0x99, 0x52, 0x6c, 0x3d,
  0x28, 0x95, 0xe5, 0x3e, 0x79, 0x97, 0x65, 0xbe, 0x16, 0x22, 0xdc, 0x3d,
  0x19, 0x02, 0x31, 0xbe, 0x7c, 0x8c, 0xa1, 0xbd, 0x10, 0x29, 0x4d, 0xbd,
  0x77, 0xa5, 0x55, 0xbe, 0xbc, 0x71, 0x4f, 0xbd, 0x6d, 0x95, 0x82, 0xbe,
  0xca, 0xcb, 0xb3, 0xbe, 0xcd, 0x70, 0x9b, 0xbe, 0xe4, 0x49, 0xd5, 0xbb,
  0xd4, 0xf6, 0xa3, 0xbe, 0xdd, 0xac, 0x43, 0x3e, 0x6a, 0x7c, 0x9a, 0x3e,
  0x23, 0xaa, 0x4e, 0xbc, 0xff, 0xde, 0xd0, 0x3e, 0xb8, 0x79, 0x85, 0xbe,
  0xfa, 0xe1, 0x1f, 0xbe, 0x4b, 0x23, 0xae, 0xbe, 0xcd, 0x56, 0x6b, 0x3c,
  0x11, 0x88, 0x89, 0xbe, 0x30, 0x3d, 0x93, 0x3e, 0xa8, 0x03, 0xb1, 0x3d,
  0xb1, 0xe9, 0xe6, 0xbe, 0xe7, 0xac, 0x7e, 0xbd, 0x1d, 0xa4, 0xde, 0x3e,
  0x0f, 0xdb, 0x17, 0xbf, 0x1c, 0x7f, 0x9c, 0x3e, 0x38, 0x5e, 0x44, 0xbe,
  0xdc, 0x8f, 0xa8, 0x3e, 0x6f, 0x66, 0x39, 0xbe, 0x98, 0x5a, 0xfc, 0x3e,
  0xda, 0xaa, 0x5b, 0x3e, 0x12, 0x85, 0x0a, 0x3f, 0x13, 0x5d, 0xcc, 0xbe,
  0x28, 0x02, 0x6f, 0x3e, 0x4b, 0xfa, 0x8c, 0x3e, 0xb4, 0xfb, 0xff, 0xff,
  0xb8, 0xfb, 0xff, 0xff, 0x0f, 0x00, 0x00, 0x00, 0x4d, 0x4c, 0x49, 0x52,
  0x20, 0x43, 0x6f, 0x6e, 0x76, 0x65, 0x72, 0x74, 0x65, 0x64, 0x2e, 0x00,
  0x01, 0x00, 0x00, 0x00, 0x14, 0x00, 0x00, 0x00, 0x00, 0x00, 0x0e, 0x00,
  0x18, 0x00, 0x14, 0x00, 0x10, 0x00, 0x0c, 0x00, 0x08, 0x00, 0x04, 0x00,
  0x0e, 0x00, 0x00, 0x00, 0x14, 0x00, 0x00, 0x00, 0x1c, 0x00, 0x00, 0x00,
  0xec, 0x00, 0x00, 0x00, 0xf0, 0x00, 0x00, 0x00, 0xf4, 0x00, 0x00, 0x00,
  0x04, 0x00, 0x00, 0x00, 0x6d, 0x61, 0x69, 0x6e, 0x00, 0x00, 0x00, 0x00,
  0x03, 0x00, 0x00, 0x00, 0x94, 0x00, 0x00, 0x00, 0x50, 0x00, 0x00, 0x00,
  0x14, 0x00, 0x00, 0x00, 0x00, 0x00, 0x0e, 0x00, 0x1a, 0x00, 0x14, 0x00,
  0x10, 0x00, 0x0c, 0x00, 0x0b, 0x00, 0x04, 0x00, 0x0e, 0x00, 0x00, 0x00,
  0x1c, 0x00, 0x00, 0x00, 0x00, 0x00, 0x00, 0x09, 0x1c, 0x00, 0x00, 0x00,
  0x20, 0x00, 0x00, 0x00, 0x01, 0x00, 0x00, 0x00, 0x00, 0x00, 0x06, 0x00,
  0x08, 0x00, 0x04, 0x00, 0x06, 0x00, 0x00, 0x00, 0x00, 0x00, 0x80, 0x3f,
  0x01, 0x00, 0x00, 0x00, 0x07, 0x00, 0x00, 0x00, 0x01, 0x00, 0x00, 0x00,
  0x06, 0x00, 0x00, 0x00, 0xce, 0xff, 0xff, 0xff, 0x10, 0x00, 0x00, 0x00,
  0x00, 0x00, 0x00, 0x08, 0x0c, 0x00, 0x00, 0x00, 0x10, 0x00, 0x00, 0x00,
  0x78, 0xfc, 0xff, 0xff, 0x01, 0x00, 0x00, 0x00, 0x06, 0x00, 0x00, 0x00,
  0x03, 0x00, 0x00, 0x00, 0x05, 0x00, 0x00, 0x00, 0x01, 0x00, 0x00, 0x00,
  0x02, 0x00, 0x00, 0x00, 0x00, 0x00, 0x0e, 0x00, 0x16, 0x00, 0x00, 0x00,
  0x10, 0x00, 0x0c, 0x00, 0x0b, 0x00, 0x04, 0x00, 0x0e, 0x00, 0x00, 0x00,
  0x18, 0x00, 0x00, 0x00, 0x00, 0x00, 0x00, 0x08, 0x18, 0x00, 0x00, 0x00,
  0x1c, 0x00, 0x00, 0x00, 0x00, 0x00, 0x06, 0x00, 0x08, 0x00, 0x07, 0x00,
  0x06, 0x00, 0x00, 0x00, 0x00, 0x00, 0x00, 0x01, 0x01, 0x00, 0x00, 0x00,
  0x05, 0x00, 0x00, 0x00, 0x03, 0x00, 0x00, 0x00, 0x00, 0x00, 0x00, 0x00,
  0x04, 0x00, 0x00, 0x00, 0x03, 0x00, 0x00, 0x00, 0x01, 0x00, 0x00, 0x00,
  0x07, 0x00, 0x00, 0x00, 0x01, 0x00, 0x00, 0x00, 0x00, 0x00, 0x00, 0x00,
  0x08, 0x00, 0x00, 0x00, 0xe4, 0x02, 0x00, 0x00, 0x8c, 0x02, 0x00, 0x00,
  0x18, 0x02, 0x00, 0x00, 0xc0, 0x01, 0x00, 0x00, 0x74, 0x01, 0x00, 0x00,
  0xe0, 0x00, 0x00, 0x00, 0x60, 0x00, 0x00, 0x00, 0x04, 0x00, 0x00, 0x00,
  0x52, 0xfd, 0xff, 0xff, 0x00, 0x00, 0x00, 0x01, 0x14, 0x00, 0x00, 0x00,
  0x1c, 0x00, 0x00, 0x00, 0x1c, 0x00, 0x00, 0x00, 0x08, 0x00, 0x00, 0x00,
  0x34, 0x00, 0x00, 0x00, 0x02, 0x00, 0x00, 0x00, 0xff, 0xff, 0xff, 0xff,
  0x03, 0x00, 0x00, 0x00, 0x3c, 0xfd, 0xff, 0xff, 0x1b, 0x00, 0x00, 0x00,
  0x53, 0x74, 0x61, 0x74, 0x65, 0x66, 0x75, 0x6c, 0x50, 0x61, 0x72, 0x74,
  0x69, 0x74, 0x69, 0x6f, 0x6e, 0x65, 0x64, 0x43, 0x61, 0x6c, 0x6c, 0x5f,
  0x31, 0x3a, 0x30, 0x00, 0x02, 0x00, 0x00, 0x00, 0x01, 0x00, 0x00, 0x00,
  0x03, 0x00, 0x00, 0x00, 0xaa, 0xfd, 0xff, 0xff, 0x00, 0x00, 0x00, 0x01,
  0x14, 0x00, 0x00, 0x00, 0x1c, 0x00, 0x00, 0x00, 0x1c, 0x00, 0x00, 0x00,
  0x07, 0x00, 0x00, 0x00, 0x58, 0x00, 0x00, 0x00, 0x02, 0x00, 0x00, 0x00,
  0xff, 0xff, 0xff, 0xff, 0x03, 0x00, 0x00, 0x00, 0x94, 0xfd, 0xff, 0xff,
  0x3c, 0x00, 0x00, 0x00, 0x73, 0x65, 0x71, 0x75, 0x65, 0x6e, 0x74, 0x69,
  0x61, 0x6c, 0x5f, 0x31, 0x2f, 0x64, 0x65, 0x6e, 0x73, 0x65, 0x5f, 0x31,
  0x5f, 0x32, 0x2f, 0x4d, 0x61, 0x74, 0x4d, 0x75, 0x6c, 0x3b, 0x73, 0x65,
  0x71, 0x75, 0x65, 0x6e, 0x74, 0x69, 0x61, 0x6c, 0x5f, 0x31, 0x2f, 0x64,
  0x65, 0x6e, 0x73, 0x65, 0x5f, 0x31, 0x5f, 0x32, 0x2f, 0x42, 0x69, 0x61,
  0x73, 0x41, 0x64, 0x64, 0x00, 0x00, 0x00, 0x00, 0x02, 0x00, 0x00, 0x00,
  0x01, 0x00, 0x00, 0x00, 0x03, 0x00, 0x00, 0x00, 0x26, 0xfe, 0xff, 0xff,
  0x00, 0x00, 0x00, 0x01, 0x14, 0x00, 0x00, 0x00, 0x1c, 0x00, 0x00, 0x00,
  0x1c, 0x00, 0x00, 0x00, 0x06, 0x00, 0x00, 0x00, 0x6c, 0x00, 0x00, 0x00,
  0x02, 0x00, 0x00, 0x00, 0xff, 0xff, 0xff, 0xff, 0x40, 0x00, 0x00, 0x00,
  0x10, 0xfe, 0xff, 0xff, 0x52, 0x00, 0x00, 0x00, 0x73, 0x65, 0x71, 0x75,
  0x65, 0x6e, 0x74, 0x69, 0x61, 0x6c, 0x5f, 0x31, 0x2f, 0x64, 0x65, 0x6e,
  0x73, 0x65, 0x5f, 0x31, 0x2f, 0x4d, 0x61, 0x74, 0x4d, 0x75, 0x6c, 0x3b,
  0x73, 0x65, 0x71, 0x75, 0x65, 0x6e, 0x74, 0x69, 0x61, 0x6c, 0x5f, 0x31,
  0x2f, 0x64, 0x65, 0x6e, 0x73, 0x65, 0x5f, 0x31, 0x2f, 0x52, 0x65, 0x6c,
  0x75, 0x3b, 0x73, 0x65, 0x71, 0x75, 0x65, 0x6e, 0x74, 0x69, 0x61, 0x6c,
  0x5f, 0x31, 0x2f, 0x64, 0x65, 0x6e, 0x73, 0x65, 0x5f, 0x31, 0x2f, 0x42,
  0x69, 0x61, 0x73, 0x41, 0x64, 0x64, 0x00, 0x00, 0x02, 0x00, 0x00, 0x00,
  0x01, 0x00, 0x00, 0x00, 0x40, 0x00, 0x00, 0x00, 0x0a, 0xff, 0xff, 0xff,
  0x00, 0x00, 0x00, 0x01, 0x10, 0x00, 0x00, 0x00, 0x10, 0x00, 0x00, 0x00,
  0x05, 0x00, 0x00, 0x00, 0x28, 0x00, 0x00, 0x00, 0x90, 0xfe, 0xff, 0xff,
  0x1b, 0x00, 0x00, 0x00, 0x73, 0x65, 0x71, 0x75, 0x65, 0x6e, 0x74, 0x69,
  0x61, 0x6c, 0x5f, 0x31, 0x2f, 0x64, 0x65, 0x6e, 0x73, 0x65, 0x5f, 0x31,
  0x2f, 0x4d, 0x61, 0x74, 0x4d, 0x75, 0x6c, 0x00, 0x02, 0x00, 0x00, 0x00,
  0x40, 0x00, 0x00, 0x00, 0x08, 0x00, 0x00, 0x00, 0x52, 0xff, 0xff, 0xff,
  0x00, 0x00, 0x00, 0x01, 0x10, 0x00, 0x00, 0x00, 0x10, 0x00, 0x00, 0x00,
  0x04, 0x00, 0x00, 0x00, 0x38, 0x00, 0x00, 0x00, 0xd8, 0xfe, 0xff, 0xff,
  0x2b, 0x00, 0x00, 0x00, 0x73, 0x65, 0x71, 0x75, 0x65, 0x6e, 0x74, 0x69,
  0x61, 0x6c, 0x5f, 0x31, 0x2f, 0x64, 0x65, 0x6e, 0x73, 0x65, 0x5f, 0x31,
  0x2f, 0x42, 0x69, 0x61, 0x73, 0x41, 0x64, 0x64, 0x2f, 0x52, 0x65, 0x61,
  0x64, 0x56, 0x61, 0x72, 0x69, 0x61, 0x62, 0x6c, 0x65, 0x4f, 0x70, 0x00,
  0x01, 0x00, 0x00, 0x00, 0x40, 0x00, 0x00, 0x00, 0xa6, 0xff, 0xff, 0xff,
  0x00, 0x00, 0x00, 0x01, 0x10, 0x00, 0x00, 0x00, 0x10, 0x00, 0x00, 0x00,
  0x03, 0x00, 0x00, 0x00, 0x3c, 0x00, 0x00, 0x00, 0x2c, 0xff, 0xff, 0xff,
  0x2d, 0x00, 0x00, 0x00, 0x73, 0x65, 0x71, 0x75, 0x65, 0x6e, 0x74, 0x69,
  0x61, 0x6c, 0x5f, 0x31, 0x2f, 0x64, 0x65, 0x6e, 0x73, 0x65, 0x5f, 0x31,
  0x5f, 0x32, 0x2f, 0x42, 0x69, 0x61, 0x73, 0x41, 0x64, 0x64, 0x2f, 0x52,
  0x65, 0x61, 0x64, 0x56, 0x61, 0x72, 0x69, 0x61, 0x62, 0x6c, 0x65, 0x4f,
  0x70, 0x00, 0x00, 0x00, 0x01, 0x00, 0x00, 0x00, 0x03, 0x00, 0x00, 0x00,
  0x00, 0x00, 0x16, 0x00, 0x18, 0x00, 0x14, 0x00, 0x00, 0x00, 0x10, 0x00,
  0x0c, 0x00, 0x08, 0x00, 0x00, 0x00, 0x00, 0x00, 0x00, 0x00, 0x07, 0x00,
  0x16, 0x00, 0x00, 0x00, 0x00, 0x00, 0x00, 0x01, 0x10, 0x00, 0x00, 0x00,
  0x10, 0x00, 0x00, 0x00, 0x02, 0x00, 0x00, 0x00, 0x1c, 0x00, 0x00, 0x00,
  0x9c, 0xff, 0xff, 0xff, 0x0e, 0x00, 0x00, 0x00, 0x61, 0x72, 0x69, 0x74,
  0x68, 0x2e, 0x63, 0x6f, 0x6e, 0x73, 0x74, 0x61, 0x6e, 0x74, 0x00, 0x00,
  0x02, 0x00, 0x00, 0x00, 0x03, 0x00, 0x00, 0x00, 0x40, 0x00, 0x00, 0x00,
  0x00, 0x00, 0x16, 0x00, 0x1c, 0x00, 0x18, 0x00, 0x00, 0x00, 0x14, 0x00,
  0x10, 0x00, 0x0c, 0x00, 0x00, 0x00, 0x00, 0x00, 0x08, 0x00, 0x07, 0x00,
  0x16, 0x00, 0x00, 0x00, 0x00, 0x00, 0x00, 0x01, 0x14, 0x00, 0x00, 0x00,
  0x20, 0x00, 0x00, 0x00, 0x20, 0x00, 0x00, 0x00, 0x01, 0x00, 0x00, 0x00,
  0x3c, 0x00, 0x00, 0x00, 0x02, 0x00, 0x00, 0x00, 0xff, 0xff, 0xff, 0xff,
  0x08, 0x00, 0x00, 0x00, 0x04, 0x00, 0x04, 0x00, 0x04, 0x00, 0x00, 0x00,
  0x1e, 0x00, 0x00, 0x00, 0x73, 0x65, 0x72, 0x76, 0x69, 0x6e, 0x67, 0x5f,
  0x64, 0x65, 0x66, 0x61, 0x75, 0x6c, 0x74, 0x5f, 0x6b, 0x65, 0x72, 0x61,
  0x73, 0x5f, 0x74, 0x65, 0x6e, 0x73, 0x6f, 0x72, 0x3a, 0x30, 0x00, 0x00,
  0x02, 0x00, 0x00, 0x00, 0x01, 0x00, 0x00, 0x00, 0x08, 0x00, 0x00, 0x00,
  0x02, 0x00, 0x00, 0x00, 0x20, 0x00, 0x00, 0x00, 0x04, 0x00, 0x00, 0x00,
  0xf4, 0xff, 0xff, 0xff, 0x19, 0x00, 0x00, 0x00, 0x00, 0x00, 0x00, 0x19,
  0x0c, 0x00, 0x0c, 0x00, 0x0b, 0x00, 0x00, 0x00, 0x00, 0x00, 0x04, 0x00,
  0x0c, 0x00, 0x00, 0x00, 0x09, 0x00, 0x00, 0x00, 0x00, 0x00, 0x00, 0x09
};
unsigned int model_tflite_len = 4812;
