unsigned char model_tflite[] = {
  0x1c, 0x00, 0x00, 0x00, 0x54, 0x46, 0x4c, 0x33, 0x14, 0x00, 0x20, 0x00,
  0x1c, 0x00, 0x18, 0x00, 0x14, 0x00, 0x10, 0x00, 0x0c, 0x00, 0x00, 0x00,
  0x08, 0x00, 0x04, 0x00, 0x14, 0x00, 0x00, 0x00, 0x1c, 0x00, 0x00, 0x00,
  0x98, 0x00, 0x00, 0x00, 0xf0, 0x00, 0x00, 0x00, 0xf4, 0x0d, 0x00, 0x00,
  0x04, 0x0e, 0x00, 0x00, 0x68, 0x12, 0x00, 0x00, 0x03, 0x00, 0x00, 0x00,
  0x01, 0x00, 0x00, 0x00, 0x10, 0x00, 0x00, 0x00, 0x00, 0x00, 0x0a, 0x00,
  0x10, 0x00, 0x0c, 0x00, 0x08, 0x00, 0x04, 0x00, 0x0a, 0x00, 0x00, 0x00,
  0x0c, 0x00, 0x00, 0x00, 0x1c, 0x00, 0x00, 0x00, 0x3c, 0x00, 0x00, 0x00,
  0x0f, 0x00, 0x00, 0x00, 0x73, 0x65, 0x72, 0x76, 0x69, 0x6e, 0x67, 0x5f,
  0x64, 0x65, 0x66, 0x61, 0x75, 0x6c, 0x74, 0x00, 0x01, 0x00, 0x00, 0x00,
  0x04, 0x00, 0x00, 0x00, 0x90, 0xff, 0xff, 0xff, 0x07, 0x00, 0x00, 0x00,
  0x04, 0x00, 0x00, 0x00, 0x08, 0x00, 0x00, 0x00, 0x6f, 0x75, 0x74, 0x70,
  0x75, 0x74, 0x5f, 0x30, 0x00, 0x00, 0x00, 0x00, 0x01, 0x00, 0x00, 0x00,
  0x04, 0x00, 0x00, 0x00, 0xf6, 0xf1, 0xff, 0xff, 0x04, 0x00, 0x00, 0x00,
  0x0c, 0x00, 0x00, 0x00, 0x6b, 0x65, 0x72, 0x61, 0x73, 0x5f, 0x74, 0x65,
  0x6e, 0x73, 0x6f, 0x72, 0x00, 0x00, 0x00, 0x00, 0x02, 0x00, 0x00, 0x00,
  0x34, 0x00, 0x00, 0x00, 0x04, 0x00, 0x00, 0x00, 0xdc, 0xff, 0xff, 0xff,
  0x0a, 0x00, 0x00, 0x00, 0x04, 0x00, 0x00, 0x00, 0x13, 0x00, 0x00, 0x00,
  0x43, 0x4f, 0x4e, 0x56, 0x45, 0x52, 0x53, 0x49, 0x4f, 0x4e, 0x5f, 0x4d,
  0x45, 0x54, 0x41, 0x44, 0x41, 0x54, 0x41, 0x00, 0x08, 0x00, 0x0c, 0x00,
  0x08, 0x00, 0x04, 0x00, 0x08, 0x00, 0x00, 0x00, 0x09, 0x00, 0x00, 0x00,
  0x04, 0x00, 0x00, 0x00, 0x13, 0x00, 0x00, 0x00, 0x6d, 0x69, 0x6e, 0x5f,
  0x72, 0x75, 0x6e, 0x74, 0x69, 0x6d, 0x65, 0x5f, 0x76, 0x65, 0x72, 0x73,
  0x69, 0x6f, 0x6e, 0x00, 0x0b, 0x00, 0x00, 0x00, 0x00, 0x0d, 0x00, 0x00,
  0xf8, 0x0c, 0x00, 0x00, 0xe8, 0x09, 0x00, 0x00, 0xcc, 0x09, 0x00, 0x00,
  0xbc, 0x08, 0x00, 0x00, 0xac, 0x00, 0x00, 0x00, 0xa4, 0x00, 0x00, 0x00,
  0x9c, 0x00, 0x00, 0x00, 0x94, 0x00, 0x00, 0x00, 0x74, 0x00, 0x00, 0x00,
  0x04, 0x00, 0x00, 0x00, 0x9e, 0xf2, 0xff, 0xff, 0x04, 0x00, 0x00, 0x00,
  0x60, 0x00, 0x00, 0x00, 0x10, 0x00, 0x00, 0x00, 0x00, 0x00, 0x00, 0x00,
  0x08, 0x00, 0x0e, 0x00, 0x08, 0x00, 0x04, 0x00, 0x08, 0x00, 0x00, 0x00,
  0x10, 0x00, 0x00, 0x00, 0x24, 0x00, 0x00, 0x00, 0x00, 0x00, 0x06, 0x00,
  0x08, 0x00, 0x04, 0x00, 0x06, 0x00, 0x00, 0x00, 0x04, 0x00, 0x00, 0x00,
  0x00, 0x00, 0x00, 0x00, 0x0c, 0x00, 0x18, 0x00, 0x14, 0x00, 0x10, 0x00,
  0x0c, 0x00, 0x04, 0x00, 0x0c, 0x00, 0x00, 0x00, 0x06, 0xe0, 0x2d, 0xe0,
  0xc2, 0x3c, 0x64, 0x53, 0x02, 0x00, 0x00, 0x00, 0x02, 0x00, 0x00, 0x00,
  0x04, 0x00, 0x00, 0x00, 0x06, 0x00, 0x00, 0x00, 0x32, 0x2e, 0x31, 0x39,
  0x2e, 0x30, 0x00, 0x00, 0x0a, 0xf3, 0xff, 0xff, 0x04, 0x00, 0x00, 0x00,
  0x10, 0x00, 0x00, 0x00, 0x31, 0x2e, 0x35, 0x2e, 0x30, 0x00, 0x00, 0x00,
  0x00, 0x00, 0x00, 0x00, 0x00, 0x00, 0x00, 0x00, 0x6c, 0xef, 0xff, 0xff,
  0x70, 0xef, 0xff, 0xff, 0x74, 0xef, 0xff, 0xff, 0x32, 0xf3, 0xff, 0xff,
  0x04, 0x00, 0x00, 0x00, 0x00, 0x08, 0x00, 0x00, 0xf4, 0xa8, 0x13, 0x3e,
  0xa8, 0x98, 0xb4, 0x3e, 0x70, 0x79, 0xac, 0xbd, 0xfb, 0x63, 0xa3, 0xbe,
  0x50, 0x2a, 0xd2, 0xbd, 0x87, 0xda, 0x13, 0x3c, 0x82, 0x93, 0xfa, 0xbd,
  0xbf, 0x96, 0x17, 0xbe, 0xf2, 0x18, 0x77, 0xbe, 0xda, 0xd6, 0x0e, 0xbf,
  0xfe, 0x7a, 0x9f, 0xbe, 0xb0, 0x7c, 0xa1, 0xbe, 0x65, 0xd2, 0x46, 0x3e,
  0x0b, 0xb0, 0x04, 0x3d, 0x7b, 0x98, 0xde, 0x3d, 0x27, 0xec, 0xc3, 0x3b,
  0x1c, 0xd0, 0x42, 0xbe, 0xdb, 0xbb, 0xaa, 0x3e, 0x3a, 0x0f, 0x05, 0x3e,
  0xa1, 0x03, 0x20, 0x3e, 0x06, 0x69, 0xb0, 0x3e, 0x27, 0xfc, 0x25, 0xbe,
  0x54, 0x76, 0x6c, 0x3d, 0x6a, 0x4d, 0x32, 0xbc, 0x90, 0xa6, 0xc1, 0x3d,
  0xc8, 0x48, 0x06, 0x3e, 0x52, 0x3e, 0xd9, 0x3b, 0xaa, 0x31, 0x6d, 0x3e,
  0xe7, 0x8e, 0x5e, 0xbe, 0x9b, 0x49, 0x9e, 0x3d, 0x30, 0x94, 0x82, 0x3d,
  0x5e, 0x9e, 0x14, 0x3e, 0x2f, 0x0e, 0x9d, 0xbe, 0xc4, 0x38, 0x87, 0x3d,
  0x2a, 0xa8, 0xc5, 0xbe, 0x49, 0x38, 0x52, 0xbd, 0xa0, 0x9b, 0x9b, 0xbe,
  0x17, 0x8f, 0x4f, 0xbe, 0x9d, 0x71, 0x03, 0x3d, 0xbf, 0x90, 0x87, 0x3c,
  0x6f, 0x8b, 0x58, 0xbe, 0x09, 0x6a, 0x75, 0xbe, 0x88, 0xa6, 0x94, 0x3e,
  0xdb, 0x52, 0x06, 0x3e, 0x16, 0x36, 0xcc, 0xbd, 0xcb, 0x13, 0xb6, 0xbc,
  0xf5, 0xb4, 0xd0, 0xbd, 0xba, 0xe3, 0x72, 0xbe, 0xe3, 0xdd, 0xad, 0x3e,
  0x23, 0xe0, 0x75, 0x3e, 0x60, 0xad, 0xe3, 0x3c, 0x64, 0xfb, 0xb8, 0xbe,
  0xdc, 0x33, 0x8a, 0xbe, 0xf1, 0x0d, 0xbf, 0xbe, 0x2b, 0x33, 0x67, 0xbe,
  0x98, 0x1f, 0x0c, 0xbe, 0xe2, 0x11, 0x9c, 0x3e, 0xa2, 0xfc, 0x9e, 0x3d,
  0x5e, 0xb1, 0x7f, 0xbe, 0x81, 0x57, 0x34, 0xbe, 0x55, 0x92, 0xa6, 0xbc,
  0x47, 0x9a, 0x6e, 0xbe, 0x92, 0xcf, 0x8b, 0xbd, 0xf2, 0x4c, 0x3c, 0x3e,
  0xf7, 0x47, 0x0a, 0xbe, 0x58, 0x27, 0x95, 0xbe, 0x83, 0xb7, 0x25, 0xbe,
  0xf0, 0x83, 0xef, 0xbd, 0xf7, 0x41, 0xb7, 0xbd, 0xbc, 0x44, 0xba, 0x3c,
  0xd1, 0x7a, 0xc4, 0xbd, 0x1f, 0xad, 0x7c, 0x3e, 0xae, 0x56, 0x8a, 0x3e,
  0xe2, 0xaf, 0x25, 0xbd, 0x5a, 0x2b, 0x91, 0x3e, 0xd6, 0x00, 0x23, 0xbe,
  0x97, 0xcb, 0x8b, 0x3e, 0x2d, 0x8a, 0x3b, 0xbe, 0x70, 0x87, 0x02, 0x3e,
  0xab, 0x12, 0x9a, 0xbd, 0x78, 0x79, 0x0e, 0x3e, 0xfa, 0x6e, 0x95, 0xbe,
  0xed, 0x6e, 0xc5, 0xbc, 0xaa, 0x9c, 0xb2, 0x3d, 0xaa, 0xff, 0xb4, 0x3d,
  0x5d, 0xa1, 0x70, 0x3e, 0x9a, 0x8b, 0xee, 0x3d, 0x24, 0xf5, 0x06, 0x3e,
  0x03, 0x55, 0xfd, 0x3d, 0x13, 0x5a, 0x43, 0xbc, 0x2c, 0x5f, 0xbb, 0x3d,
  0x76, 0x87, 0xba, 0xbd, 0x50, 0x61, 0xd5, 0xbd, 0x59, 0x4d, 0xe3, 0x3d,
  0xb6, 0xb8, 0x6c, 0xbe, 0xfb, 0xca, 0x5e, 0xbe, 0xe7, 0xc6, 0x9a, 0xbd,
  0xb0, 0x7e, 0x62, 0x3d, 0x64, 0x55, 0x09, 0x3e, 0xec, 0xb4, 0xf2, 0x3d,
  0xb9, 0x68, 0x72, 0x3e, 0x98, 0x93, 0x8e, 0x3e, 0x34, 0xaf, 0xb2, 0x3e,
  0x83, 0xcd, 0xa1, 0xbd, 0xb4, 0x66, 0xb5, 0x3e, 0xee, 0x65, 0xeb, 0x3c,
  0xeb, 0xd8, 0xb9, 0x3e, 0x6d, 0xb1, 0xa0, 0x3e, 0x3c, 0x6b, 0xd5, 0x3e,
  0xcb, 0x00, 0x79, 0x3e, 0x1f, 0x24, 0xb6, 0x3e, 0xa8, 0x9a, 0xbd, 0xbd,
  0xcd, 0x7b, 0xa6, 0x3e, 0x7f, 0x83, 0x3f, 0xbe, 0x6a, 0x9b, 0x97, 0x3e,
  0x33, 0x8b, 0x98, 0x3e, 0xa3, 0x69, 0x8f, 0x3e, 0xce, 0x68, 0xad, 0x3e,
  0x24, 0x99, 0x2c, 0x3e, 0x71, 0xa9, 0xa9, 0xbb, 0x78, 0x2b, 0xfd, 0xbe,
  0x4b, 0xa5, 0x03, 0xbe, 0x81, 0xdd, 0x99, 0x3d, 0x74, 0x93, 0xcb, 0xbe,
  0xbf, 0x3c, 0xb0, 0xbe, 0xac, 0x11, 0xc3, 0x3d, 0x36, 0x6c, 0x8d, 0xbe,
  0xac, 0xc9, 0x9a, 0xbe, 0xb0, 0xe7, 0x19, 0x3f, 0x3d, 0xc0, 0x35, 0x3e,
  0x95, 0xd2, 0x6a, 0xbe, 0x55, 0xea, 0x9d, 0xbe, 0x68, 0x3f, 0x2d, 0xbd,
  0xfd, 0xec, 0x16, 0xbe, 0x91, 0x0c, 0x29, 0xbe, 0xc8, 0x7f, 0xae, 0xbe,
  0x95, 0x39, 0xc4, 0x3e, 0xeb, 0x77, 0xba, 0x3e, 0x1e, 0x54, 0x0a, 0x38,
  0x70, 0x2d, 0x21, 0xbe, 0x87, 0xa8, 0xa1, 0xbe, 0x48, 0xb9, 0xb4, 0xbe,
  0x73, 0x3e, 0xc8, 0xbd, 0x06, 0x81, 0x99, 0xbe, 0xa9, 0xa5, 0x26, 0x3d,
  0x39, 0x4e, 0x2b, 0xbd, 0xa9, 0x2c, 0x08, 0xbe, 0xb9, 0x99, 0x69, 0x3e,
  0xa7, 0x34, 0x28, 0x3b, 0x8c, 0x43, 0x29, 0xbe, 0xdc, 0x76, 0x44, 0x3e,
  0x01, 0x95, 0x1f, 0x3e, 0xae, 0x86, 0xff, 0x3e, 0xc2, 0x07, 0x1b, 0x3e,
  0x08, 0x59, 0xa2, 0xbc, 0xf5, 0x35, 0x22, 0x3c, 0xe9, 0xe1, 0x95, 0xbc,
  0x5c, 0xf2, 0xc9, 0xbe, 0x29, 0x88, 0x85, 0xbe, 0x47, 0xea, 0xb7, 0xbe,
  0xe2, 0x5b, 0x42, 0x3d, 0x26, 0xcc, 0xa0, 0x3e, 0xdd, 0x90, 0x10, 0x3e,
  0x59, 0x51, 0xac, 0xbd, 0x5c, 0x6a, 0x17, 0x3e, 0x20, 0x44, 0x97, 0xbc,
  0x55, 0xfc, 0xa4, 0x3e, 0x24, 0x04, 0xfc, 0x3c, 0x28, 0x99, 0x16, 0x3f,
  0xd8, 0x21, 0x2e, 0x3e, 0x69, 0x96, 0x94, 0xbd, 0x03, 0xbe, 0xd1, 0xbe,
  0x20, 0x63, 0xcc, 0xbe, 0xc9, 0x7e, 0xbf, 0x3d, 0x22, 0x14, 0xe6, 0xbd,
  0x67, 0x32, 0x98, 0xbe, 0x0f, 0xdf, 0xae, 0x3e, 0x52, 0xce, 0x75, 0x3d,
  0xab, 0xfd, 0x1f, 0x3e, 0x8c, 0xcd, 0x94, 0x3e, 0x0f, 0xfe, 0x1d, 0x3e,
  0x3a, 0x6c, 0xaf, 0x3e, 0xf2, 0x58, 0xf0, 0x3d, 0x1c, 0x53, 0x9c, 0x3e,
  0xa6, 0x95, 0xe9, 0xbd, 0x80, 0xa6, 0xba, 0x3d, 0xf7, 0xa7, 0x83, 0xbe,
  0x13, 0x91, 0x02, 0x3c, 0x9a, 0x1e, 0x90, 0xbe, 0xba, 0x24, 0xb7, 0xbe,
  0x20, 0x91, 0x5d, 0xbe, 0x9b, 0xd3, 0x7c, 0xbe, 0x57, 0x19, 0x81, 0xbe,
  0x7d, 0x19, 0xb9, 0x3d, 0xfc, 0x3c, 0x9f, 0xbd, 0x4a, 0xb9, 0x45, 0x3e,
  0x85, 0xba, 0x04, 0x3e, 0x1c, 0xc5, 0x70, 0x3e, 0x6f, 0x87, 0x33, 0xbd,
  0xe8, 0xff, 0x2c, 0x3e, 0x7f, 0x74, 0xf2, 0xbe, 0xdb, 0x3f, 0x7c, 0xbe,
  0xbd, 0x58, 0xd9, 0xbd, 0x03, 0xb9, 0x85, 0xbe, 0x11, 0xa2, 0xd5, 0xbd,
  0x6c, 0xbb, 0x08, 0xbe, 0x33, 0xa6, 0xfd, 0x3d, 0x66, 0x4a, 0x97, 0xbe,
  0xed, 0xa6, 0xbc, 0xbe, 0xe5, 0x2d, 0xb2, 0xbe, 0x9b, 0x9f, 0x26, 0xbe,
  0xa7, 0x98, 0xa4, 0xbc, 0xcf, 0x22, 0x87, 0x3d, 0x09, 0xd0, 0x58, 0x3e,
  0x1b, 0x2e, 0x92, 0xbe, 0x99, 0x7a, 0x45, 0xbc, 0x7b, 0x33, 0x7d, 0x3e,
  0x05, 0xe4, 0xc3, 0x3d, 0xea, 0x87, 0xa6, 0x3d, 0x09, 0x03, 0xd7, 0xbd,
  0x2c, 0x49, 0xff, 0x3d, 0xaf, 0x6d, 0xeb, 0x3d, 0x24, 0x50, 0x96, 0x3e,
  0x36, 0xac, 0x48, 0x3e, 0x1c, 0xbb, 0x39, 0x3e, 0x17, 0xe2, 0x1b, 0x3e,
  0x1e, 0x13, 0x93, 0x3e, 0xf3, 0xde, 0x6d, 0x3e, 0xf9, 0x77, 0xce, 0x3c,
  0x1c, 0xba, 0xaf, 0x3d, 0x59, 0xf3, 0x6a, 0xbc, 0x98, 0x1f, 0x63, 0x3d,
  0x24, 0x43, 0x6c, 0x3e, 0xb9, 0xea, 0x23, 0xbe, 0x15, 0x5d, 0x7e, 0x3e,
  0xe9, 0x73, 0x91, 0x3e, 0x69, 0x17, 0x7e, 0xbd, 0x7d, 0xc4, 0x00, 0x3d,
  0xc9, 0xd0, 0xb9, 0x3e, 0x01, 0x22, 0xd5, 0x3c, 0xbb, 0x38, 0x9f, 0x3d,
  0x23, 0xae, 0x36, 0x3e, 0x88, 0x6c, 0xa3, 0xbd, 0xf9, 0x4c, 0x98, 0xbd,
  0x2a, 0x6e, 0xf1, 0x3d, 0x7d, 0x86, 0x26, 0xbe, 0x21, 0x81, 0x5c, 0xbd,
  0xdc, 0x8f, 0x10, 0x3e, 0x94, 0xa0, 0x8a, 0x3e, 0x9b, 0x91, 0xbb, 0x3d,
  0xe0, 0x7e, 0xbd, 0xbd, 0x8b, 0xd7, 0x1b, 0xbd, 0x8e, 0x9c, 0xc4, 0x3d,
  0x94, 0xa4, 0x45, 0x3e, 0x33, 0x1b, 0x74, 0xbd, 0x3c, 0x54, 0x33, 0x3d,
  0x1e, 0x4a, 0xcb, 0xbe, 0xd9, 0xc0, 0x0a, 0xbf, 0x1d, 0xfd, 0xc9, 0x3d,
  0xfd, 0x89, 0x80, 0xbe, 0x83, 0x97, 0x0e, 0x3e, 0xb3, 0xeb, 0xa1, 0xbd,
  0x2a, 0x1c, 0xe5, 0xbd, 0x3e, 0x62, 0xc7, 0x3d, 0x33, 0x92, 0x3b, 0x3f,
  0x67, 0x94, 0x91, 0x3e, 0x1d, 0xdd, 0xe6, 0xbe, 0x0f, 0x3b, 0xf4, 0xbe,
  0x9d, 0xfd, 0x08, 0xbe, 0xef, 0x2c, 0x6d, 0xbd, 0x82, 0x64, 0xdd, 0xbd,
  0x2f, 0x26, 0xf1, 0xbd, 0xa4, 0x35, 0x43, 0xbe, 0x63, 0x2c, 0xe8, 0x3d,
  0xd3, 0x1d, 0xe9, 0x3d, 0xc2, 0xb9, 0x07, 0xbe, 0x68, 0xa9, 0x65, 0x3e,
  0x24, 0x39, 0xa1, 0x3d, 0x83, 0x33, 0x99, 0xbe, 0xef, 0x9e, 0xef, 0x3d,
  0x22, 0xb4, 0x9a, 0x3d, 0x07, 0x9b, 0xbc, 0x3e, 0xc9, 0xfa, 0x55, 0x3e,
  0xf6, 0x15, 0xb4, 0x3e, 0xb5, 0xa8, 0xec, 0x3c, 0x9c, 0x62, 0x5b, 0x3e,
  0xd9, 0x39, 0x4c, 0x3e, 0x80, 0xb6, 0x13, 0x3e, 0xe2, 0xba, 0x28, 0xbe,
  0xca, 0xa2, 0x95, 0xbe, 0xa2, 0xcf, 0xcd, 0xbd, 0x00, 0xb1, 0x0c, 0x3c,
  0xd5, 0x0c, 0x26, 0x3e, 0xd2, 0xf2, 0x0b, 0xbe, 0x1f, 0xfe, 0x85, 0xbe,
  0x40, 0x21, 0x2f, 0x3e, 0x93, 0xce, 0x99, 0x3e, 0xe1, 0x4d, 0x3f, 0x3e,
  0x39, 0x79, 0x11, 0x3e, 0x27, 0x26, 0xfa, 0x3b, 0x5f, 0x3b, 0x88, 0x3a,
  0xa4, 0x5a, 0x8d, 0x3e, 0xd7, 0xe3, 0xb3, 0x3e, 0x62, 0x12, 0x53, 0x3e,
  0xc6, 0xc1, 0x52, 0xbe, 0x2c, 0xe7, 0x56, 0x3e, 0xe1, 0x59, 0x33, 0xbd,
  0x61, 0xc0, 0x3f, 0x3e, 0x6d, 0x6c, 0xac, 0x3e, 0x65, 0xdf, 0xfc, 0x3d,
  0xa3, 0x48, 0x87, 0x3e, 0x3e, 0x19, 0xfc, 0x3d, 0x7a, 0x00, 0xed, 0xbe,
  0x3c, 0x01, 0xd4, 0xbe, 0xc4, 0xd4, 0x99, 0xbe, 0xd2, 0xd9, 0x7e, 0x3e,
  0x7a, 0xe7, 0x6e, 0xbe, 0x90, 0xf3, 0xe3, 0x3d, 0x91, 0xbb, 0xe5, 0xbd,
  0x73, 0x08, 0xc8, 0xbd, 0x6f, 0x3b, 0xb3, 0x3d, 0x98, 0x36, 0x31, 0xbe,
  0x6a, 0x92, 0xf6, 0x3c, 0x39, 0x46, 0x3b, 0x3e, 0x1b, 0x62, 0xc8, 0x3d,
  0xee, 0x5b, 0xb9, 0x3e, 0x19, 0x1f, 0xef, 0x3c, 0x67, 0x10, 0x0d, 0x3e,
  0xb4, 0x18, 0xbc, 0x3b, 0xab, 0xac, 0x5f, 0x3a, 0x13, 0x8e, 0x6b, 0x3e,
  0xb7, 0xd6, 0x25, 0x3e, 0x61, 0x4f, 0xe3, 0x3a, 0x46, 0xf9, 0x08, 0xbe,
  0xc3, 0xe5, 0x62, 0x3e, 0x17, 0xa5, 0xa3, 0x3e, 0xe1, 0x68, 0xd9, 0xbe,
  0xfe, 0x88, 0xbb, 0xb9, 0x59, 0xd8, 0x25, 0xbd, 0x0c, 0xfa, 0xbf, 0xbb,
  0xa5, 0x2d, 0x8a, 0xbd, 0xb7, 0x48, 0x83, 0xbe, 0x57, 0x35, 0xd5, 0xbc,
  0x6e, 0x99, 0x96, 0x3d, 0xa4, 0xf7, 0x66, 0x3e, 0x83, 0xd3, 0xed, 0xbd,
  0xf5, 0xc9, 0xe5, 0x3d, 0xdf, 0x37, 0x52, 0xbe, 0x8b, 0xd7, 0x51, 0xbd,
  0x48, 0xac, 0x5b, 0xbe, 0x45, 0xda, 0x66, 0xbe, 0x2f, 0x7f, 0x0e, 0xbe,
  0xee, 0x86, 0x24, 0x3d, 0x8f, 0xdd, 0x61, 0xbe, 0x4c, 0x51, 0x81, 0x3d,
  0x09, 0x16, 0x47, 0xbe, 0x18, 0x54, 0x50, 0xbe, 0x03, 0x19, 0x30, 0x3e,
  0x70, 0xa6, 0x9c, 0xbe, 0x70, 0xb2, 0xc1, 0xbd, 0x5b, 0xb2, 0x10, 0xbe,
  0x6e, 0x8b, 0xd8, 0xbe, 0xc6, 0x8f, 0x70, 0xbe, 0x03, 0x80, 0x0b, 0xbe,
  0x45, 0xd3, 0x93, 0x3e, 0x4f, 0xe5, 0x01, 0xbe, 0x4f, 0x5c, 0x2a, 0xbe,
  0x35, 0x0a, 0x8b, 0x3e, 0x30, 0xf4, 0x75, 0x3d, 0xfa, 0x2e, 0x35, 0x3e,
  0xb0, 0x7b, 0x0e, 0xbe, 0x18, 0xaa, 0x37, 0x3d, 0xa8, 0xf5, 0x1d, 0x3d,
  0x60, 0xa3, 0x64, 0x3e, 0x2f, 0x54, 0x51, 0x3e, 0xba, 0x5d, 0x74, 0x3e,
  0x2f, 0x94, 0x44, 0xbe, 0xf5, 0x6b, 0x79, 0x3e, 0x7b, 0x22, 0x17, 0xbe,
  0x53, 0xa2, 0xb0, 0x3c, 0xa0, 0xe6, 0x7b, 0xbd, 0xa0, 0xc8, 0x28, 0x3e,
  0x20, 0x70, 0x28, 0x3e, 0xdb, 0x11, 0x21, 0xbe, 0xc4, 0x2b, 0xb2, 0x3e,
  0x03, 0x97, 0xef, 0xbc, 0x75, 0x00, 0x2d, 0xbe, 0xac, 0xb3, 0x29, 0xbe,
  0x41, 0x9b, 0xc0, 0xbe, 0xab, 0xd8, 0xb3, 0xbe, 0x47, 0xe5, 0xb8, 0xbe,
  0xfe, 0xd4, 0x88, 0xbc, 0xe2, 0xa3, 0xa2, 0x3d, 0x19, 0xc1, 0x5c, 0xbd,
  0xef, 0x8a, 0xd2, 0x3d, 0xa8, 0x8f, 0x0d, 0xbe, 0x47, 0x8d, 0xb9, 0x3d,
  0x2d, 0x51, 0x41, 0x3e, 0xa6, 0x21, 0xa6, 0x3e, 0x34, 0xe7, 0x12, 0xbc,
  0x38, 0xcf, 0xc8, 0x3e, 0x2b, 0x3d, 0xe8, 0x3e, 0xb1, 0x2e, 0x3d, 0xbc,
  0x48, 0x7a, 0xde, 0xbe, 0xd7, 0xfb, 0x79, 0xbe, 0x1a, 0xf0, 0x64, 0xbe,
  0x63, 0xc1, 0x16, 0xbe, 0x6a, 0xdc, 0x1b, 0xbe, 0xe2, 0xcb, 0x31, 0x3f,
  0x98, 0x1f, 0xdf, 0x3e, 0x4c, 0x3f, 0x06, 0xbe, 0xca, 0x0f, 0x9f, 0xbe,
  0x67, 0xb0, 0x21, 0xbe, 0x9a, 0x85, 0x82, 0xbd, 0x51, 0x5b, 0xe9, 0xbe,
  0xd4, 0xef, 0xdf, 0xbe, 0x76, 0x83, 0xf0, 0xbe, 0xff, 0x61, 0x6f, 0xbe,
  0x5c, 0xb2, 0xd2, 0xbd, 0x15, 0x0e, 0xf5, 0xbd, 0x07, 0xbc, 0x41, 0x3e,
  0x19, 0x43, 0x74, 0xbe, 0x57, 0x05, 0x23, 0x3d, 0xd8, 0x22, 0x52, 0x3c,
  0xee, 0x0e, 0x68, 0xbd, 0xe8, 0x90, 0xc4, 0xbd, 0x1a, 0x2a, 0x4b, 0xbe,
  0x4e, 0x37, 0x56, 0xbd, 0xef, 0x20, 0x4f, 0x3e, 0x0b, 0x67, 0x8d, 0xbd,
  0xec, 0x47, 0x1f, 0xbe, 0xcb, 0xc6, 0xec, 0xbd, 0x94, 0x05, 0x0b, 0x3e,
  0xac, 0x1b, 0xfa, 0x3d, 0x82, 0x24, 0x7a, 0x3e, 0x7c, 0xea, 0x97, 0x3e,
  0x35, 0x82, 0x97, 0x3e, 0xed, 0xf5, 0xab, 0x3d, 0x9d, 0x03, 0x9c, 0x3d,
  0x48, 0x1e, 0x18, 0xbe, 0xe6, 0xc5, 0x17, 0x3e, 0x46, 0xd1, 0xae, 0x3e,
  0xea, 0x9a, 0x4e, 0xbe, 0xf5, 0x71, 0xc4, 0xbe, 0x2c, 0xb9, 0x9a, 0xbe,
  0xc5, 0x89, 0x1b, 0xbe, 0xec, 0x21, 0xee, 0xbd, 0x86, 0xe7, 0x9a, 0xbe,
  0xa9, 0xa7, 0x07, 0x3e, 0x6f, 0x79, 0x69, 0x3e, 0x39, 0x56, 0x0b, 0xbe,
  0x5e, 0x76, 0xec, 0xbc, 0x84, 0x02, 0x90, 0x3e, 0x5b, 0x0f, 0xbe, 0xbd,
  0x9b, 0x70, 0xf2, 0xbd, 0x45, 0x5b, 0x36, 0x3e, 0xa9, 0x31, 0x94, 0xbe,
  0xdd, 0xc5, 0x98, 0x3d, 0xb0, 0xfa, 0x26, 0x3e, 0x9c, 0xbd, 0x1b, 0x3e,
  0x7a, 0x6d, 0x9d, 0xbe, 0x23, 0x61, 0x0f, 0xbe, 0xa9, 0x63, 0x5f, 0xbe,
  0x13, 0xd3, 0x9f, 0xbe, 0x01, 0xbd, 0x14, 0x3f, 0x61, 0x67, 0xc0, 0xbd,
  0x76, 0xd3, 0x8b, 0xbd, 0x8d, 0xe8, 0xb7, 0xbe, 0x3f, 0x7d, 0x79, 0xbe,
  0x5d, 0xc4, 0xc3, 0xbd, 0x39, 0x11, 0x91, 0xbe, 0x10, 0x04, 0x04, 0xbe,
  0x84, 0x70, 0xad, 0x3e, 0x04, 0x13, 0x3f, 0x3e, 0x92, 0x57, 0xfa, 0x3c,
  0x5a, 0x11, 0x51, 0x3d, 0x02, 0x42, 0x70, 0x3e, 0xcd, 0xc1, 0x50, 0xbe,
  0x7a, 0x57, 0xa0, 0xbc, 0x53, 0x7b, 0xb2, 0x3b, 0x0f, 0x25, 0x38, 0x3e,
  0x49, 0xda, 0xa9, 0x3e, 0xfc, 0x15, 0x4a, 0xbe, 0x8d, 0x27, 0xd8, 0xbd,
  0x76, 0x43, 0x4d, 0xbe, 0xa3, 0xc3, 0x9f, 0xbc, 0x29, 0x01, 0x60, 0xbe,
  0xd0, 0x6c, 0xbf, 0xbd, 0x32, 0xb7, 0x64, 0x3d, 0x47, 0xd1, 0x0c, 0xbd,
  0x4f, 0x47, 0x1c, 0xbe, 0x8a, 0x30, 0xf9, 0xbd, 0x58, 0x64, 0x7d, 0xbe,
  0x93, 0xfe, 0x3a, 0xbe, 0x32, 0xd4, 0x13, 0x3e, 0x5d, 0x2d, 0x86, 0xbe,
  0xbf, 0x9b, 0xfb, 0xbe, 0x74, 0x8b, 0xf9, 0xbd, 0x23, 0x40, 0xdb, 0xbc,
  0xee, 0xa2, 0x6c, 0xbe, 0xf5, 0x2c, 0x38, 0xbe, 0x2b, 0x85, 0x84, 0x3d,
  0x86, 0x65, 0x82, 0x3d, 0xe2, 0x19, 0x94, 0xbd, 0x8d, 0x8a, 0x37, 0x3e,
  0x30, 0x66, 0x41, 0x3e, 0x4c, 0xa0, 0x97, 0x3e, 0xc6, 0xbb, 0x27, 0x3d,
  0x53, 0xad, 0xda, 0x3e, 0x66, 0x57, 0x4a, 0x3e, 0x75, 0xdc, 0x9f, 0x3d,
  0x8e, 0xfb, 0x9c, 0x3e, 0x3e, 0xfb, 0xff, 0xff, 0x04, 0x00, 0x00, 0x00,
  0x00, 0x01, 0x00, 0x00, 0xb2, 0x81, 0x21, 0x3d, 0x34, 0xd6, 0xf1, 0x3c,
  0xf9, 0x10, 0x8e, 0x3d, 0x97, 0x39, 0x49, 0xbd, 0x54, 0x7e, 0x4d, 0x3d,
  0xd6, 0xa7, 0xc9, 0xbc, 0x2d, 0xde, 0x05, 0x3e, 0x6b, 0xe7, 0xb7, 0x3d,
  0x3a, 0x99, 0x47, 0xbc, 0x3c, 0x9f, 0x06, 0xbd, 0xe5, 0x1e, 0x51, 0xbd,
  0x4f, 0x0c, 0x3e, 0xbd, 0x8f, 0x83, 0xa1, 0x3d, 0x03, 0x87, 0x27, 0x3e,
  0x1d, 0xbe, 0x88, 0x3d, 0xe8, 0x1b, 0x1a, 0x3e, 0xc0, 0xa3, 0xf6, 0x3d,
  0x69, 0x38, 0x87, 0x3d, 0xf0, 0x36, 0x3f, 0xbd, 0x09, 0x26, 0xe7, 0x3d,
  0x85, 0x5f, 0x94, 0x3d, 0xce, 0x15, 0x09, 0x3e, 0xc8, 0x9b, 0x31, 0x3e,
  0x00, 0x2b, 0xe7, 0x3d, 0x65, 0xed, 0xad, 0xb8, 0x3b, 0xeb, 0xc3, 0x3d,
  0xa1, 0xb7, 0x92, 0x3d, 0x3f, 0x48, 0xa2, 0x3d, 0xc8, 0xc0, 0x83, 0x3d,
  0x8b, 0x97, 0xa1, 0x3d, 0x79, 0x85, 0xbe, 0xbd, 0x7d, 0x48, 0x26, 0xbd,
  0x40, 0xdf, 0x05, 0xbb, 0x9b, 0x4e, 0xa7, 0x3e, 0x48, 0xae, 0x69, 0xbd,
  0xfc, 0xda, 0xf6, 0x3d, 0x15, 0x91, 0x4b, 0x3c, 0xe5, 0xa1, 0xc5, 0x3d,
  0x0c, 0x77, 0x8e, 0x3d, 0x9b, 0x2d, 0xd3, 0xbb, 0x5a, 0x57, 0xbe, 0x3d,
  0xfe, 0x31, 0x8b, 0x3d, 0x6c, 0x31, 0x60, 0x3d, 0xa4, 0xc4, 0xef, 0x3d,
  0x08, 0xeb, 0x3e, 0x3d, 0xf9, 0x72, 0x27, 0xbd, 0x2b, 0xd8, 0xaa, 0x3d,
  0x66, 0x5f, 0x48, 0xbd, 0x12, 0xda, 0x01, 0x3e, 0x68, 0xa2, 0xa3, 0x3d,
  0x0e, 0xc5, 0x34, 0x3e, 0x8b, 0x71, 0xa0, 0x3e, 0xde, 0x5c, 0x27, 0xbb,
  0xcb, 0x0d, 0x95, 0xbd, 0x65, 0xf8, 0x8f, 0x3d, 0x33, 0xa0, 0xdc, 0x3d,
  0x89, 0x3a, 0x38, 0xbd, 0x71, 0x87, 0x24, 0x3d, 0x46, 0x7d, 0xf4, 0x3d,
  0x70, 0x0c, 0xb9, 0xbc, 0xeb, 0xe4, 0x21, 0x3c, 0x8d, 0x67, 0x4a, 0x3d,
  0x37, 0xbb, 0xe5, 0x3b, 0x1b, 0xde, 0x15, 0x3e, 0x4a, 0xfc, 0xff, 0xff,
  0x04, 0x00, 0x00, 0x00, 0x0c, 0x00, 0x00, 0x00, 0x28, 0x53, 0x0e, 0x3d,
  0xf3, 0x23, 0xc9, 0xbd, 0x3c, 0x64, 0xbc, 0x3c, 0x62, 0xfc, 0xff, 0xff,
  0x04, 0x00, 0x00, 0x00, 0x00, 0x03, 0x00, 0x00, 0xe1, 0x6a, 0xd6, 0xbe,
  0x61, 0x85, 0x23, 0x3f, 0x84, 0x51, 0xa2, 0xbe, 0x35, 0x5e, 0x7b, 0x3e,
  0x75, 0xbd, 0x54, 0x3e, 0x76, 0x08, 0x23, 0x3e, 0xff, 0x53, 0xf7, 0x3c,
  0x9c, 0x8b, 0xe0, 0xbe, 0x7d, 0x0e, 0xc9, 0x3e, 0x10, 0xe7, 0x16, 0x3d,
  0x12, 0xe5, 0x00, 0xbe, 0x0f, 0xc2, 0x18, 0xbe, 0x03, 0x1f, 0x9f, 0xbd,
  0xbe, 0x5b, 0x5f, 0x3e, 0x1f, 0x7d, 0x8f, 0xbe, 0xe7, 0x8b, 0x11, 0x3d,
  0x65, 0xfa, 0x74, 0xbe, 0x4e, 0x38, 0x54, 0xbe, 0x93, 0x8b, 0x68, 0xbd,
  0x34, 0xc6, 0x70, 0xbe, 0x99, 0x78, 0xbd, 0xbe, 0xa4, 0x08, 0xf3, 0xbd,
  0x58, 0x71, 0x5e, 0xbd, 0xe9, 0x1f, 0x4c, 0x3e, 0x67, 0x5b, 0x1c, 0x3e,
  0x92, 0xdb, 0x9e, 0x3e, 0x77, 0xc8, 0xbb, 0x3e, 0xb6, 0x14, 0xa6, 0xbe,
  0x7c, 0x9f, 0x48, 0xbe, 0x69, 0xe0, 0x8f, 0xbe, 0xba, 0xb7, 0x05, 0xbe,
  0x34, 0xef, 0x46, 0xbe, 0xd5, 0xf8, 0x6a, 0x3d, 0x21, 0x4c, 0x98, 0xbe,
  0xce, 0x99, 0x8f, 0xbe, 0x80, 0x26, 0x90, 0xbe, 0xc5, 0x4f, 0x1b, 0x3d,
  0x8b, 0x7d, 0x94, 0xbe, 0x06, 0x68, 0xba, 0xbe, 0x9f, 0x61, 0x9e, 0x3e,
  0x93, 0x89, 0x93, 0x3d, 0x18, 0xbf, 0x9b, 0xbd, 0x12, 0xce, 0xe5, 0x3e,
  0xf7, 0x18, 0xa0, 0x3d, 0xaa, 0xe9, 0xb4, 0x3d, 0xf5, 0x16, 0xf6, 0x3e,
  0xee, 0xbb, 0xc0, 0xbe, 0x8b, 0xe6, 0x00, 0xbe, 0x77, 0x8f, 0xc9, 0x3d,
  0x9b, 0x92, 0xf0, 0xbd, 0x5f, 0x7a, 0xd7, 0xbe, 0xde, 0x8d, 0xb8, 0xbe,
  0xf6, 0x13, 0xd9, 0x3e, 0x20, 0xb5, 0xe2, 0xbd, 0x7e, 0xb6, 0x27, 0x3d,
  0xaf, 0x31, 0x10, 0xbe, 0x51, 0xfb, 0x36, 0x3c, 0xb3, 0xff, 0x9e, 0x3e,
  0x80, 0xd1, 0x53, 0xbc, 0xc0, 0xd4, 0x65, 0xbe, 0x58, 0xf4, 0xb5, 0xbe,
  0xc1, 0x7d, 0x3d, 0xbe, 0x56, 0x58, 0xb3, 0x3e, 0x5d, 0xa8, 0x42, 0xbe,
  0xfd, 0x85, 0x47, 0x3d, 0x8c, 0x74, 0x98, 0xbd, 0xd9, 0x34, 0x81, 0x3e,
  0x06, 0xc1, 0xf9, 0x3d, 0x0e, 0x5a, 0x3a, 0xbe, 0x70, 0x4c, 0xf3, 0x3d,
  0x66, 0xb3, 0x1f, 0xbc, 0x54, 0x50, 0x07, 0x3d, 0x54, 0x9d, 0xf4, 0xbd,
  0xac, 0x43, 0x00, 0x3e, 0x94, 0x20, 0x41, 0xbe, 0xdf, 0x31, 0xdc, 0xbd,
  0x39, 0xfd, 0x39, 0x3e, 0xe7, 0x74, 0xa0, 0x3e, 0x67, 0x97, 0x93, 0x3e,
  0xc7, 0x83, 0x05, 0xbf, 0x9c, 0x68, 0xb3, 0x3d, 0x89, 0xf1, 0x3c, 0xbd,
  0x00, 0xcb, 0x41, 0xbe, 0xdc, 0x26, 0xad, 0xbb, 0x73, 0xb8, 0x2c, 0x3e,
  0xb8, 0x8c, 0xcf, 0xbe, 0x65, 0x33, 0x64, 0x3e, 0x2a, 0xce, 0xc5, 0xbe,
  0x05, 0xc9, 0xc2, 0x3d, 0x48, 0x3f, 0xac, 0xbe, 0xae, 0xea, 0xc2, 0xbe,
  0x58, 0x13, 0xca, 0x3d, 0x98, 0xdf, 0xc1, 0x3e, 0x48, 0x06, 0xd1, 0x3d,
  0x64, 0x58, 0x88, 0x3d, 0x3a, 0x26, 0x12, 0xbe, 0x46, 0xed, 0x38, 0xbe,
  0x90, 0xc8, 0x00, 0xbd, 0x86, 0x28, 0x66, 0xbe, 0x9a, 0xd4, 0x2c, 0x3e,
  0x90, 0xeb, 0x24, 0xbe, 0x35, 0xc2, 0x0d, 0x3e, 0x24, 0x4d, 0xae, 0x3e,
  0x55, 0x9a, 0xdb, 0xbc, 0x82, 0xb3, 0xb3, 0x3e, 0x6c, 0xd2, 0xac, 0x3e,
  0xc6, 0x77, 0xf8, 0xbe, 0xff, 0x6e, 0xd4, 0xbe, 0x8e, 0x86, 0xac, 0xbe,
  0x10, 0x42, 0x48, 0x3e, 0x9f, 0x3b, 0x19, 0x3d, 0xa8, 0x3b, 0x03, 0x3e,
  0xe3, 0xe2, 0x00, 0xbe, 0x37, 0x73, 0xd4, 0x3e, 0x9b, 0x56, 0xd1, 0x3d,
  0xb9, 0x14, 0x0d, 0x3d, 0xc2, 0x0c, 0xff, 0x3d, 0xc1, 0x7e, 0xb9, 0x3d,
  0x7c, 0xf6, 0x6e, 0x3e, 0x68, 0x43, 0xa4, 0xbe, 0x52, 0x27, 0x7c, 0x3e,
  0x3d, 0x6d, 0xb3, 0xbe, 0x7c, 0xd1, 0xa5, 0xbe, 0xc2, 0x79, 0x42, 0x3e,
  0xca, 0x71, 0xc1, 0x3c, 0x0a, 0xe0, 0x79, 0xbe, 0x81, 0xa8, 0x02, 0xbe,
  0x71, 0x24, 0xf1, 0x3a, 0x2d, 0x0a, 0xa6, 0x3e, 0x16, 0x8b, 0x14, 0xbe,
  0x7e, 0x14, 0x9c, 0xbe, 0xa3, 0x85, 0x5c, 0x3e, 0x1c, 0xa4, 0x13, 0xbe,
  0xd7, 0x3f, 0x90, 0xbd, 0x9d, 0x74, 0xef, 0x3e, 0xe5, 0x22, 0x17, 0x3f,
  0x98, 0x34, 0xe3, 0xbe, 0x15, 0x7f, 0x3f, 0xbe, 0xa7, 0xd3, 0x52, 0xbd,
  0xec, 0x74, 0x96, 0xbd, 0x69, 0xd6, 0xf1, 0xbd, 0xce, 0x85, 0xf5, 0x3d,
  0x59, 0x56, 0x4f, 0xbe, 0x91, 0xb5, 0x7a, 0xbe, 0xa1, 0xfd, 0x8d, 0x3e,
  0x74, 0x43, 0xa7, 0x3e, 0xc6, 0x64, 0x08, 0xbe, 0x26, 0x8d, 0x02, 0x3f,
  0xb9, 0x68, 0x36, 0xbe, 0x24, 0x51, 0xf3, 0x3e, 0x9a, 0x2e, 0xd5, 0x3c,
  0x47, 0x69, 0x85, 0x3e, 0x57, 0xfa, 0x87, 0x3c, 0x01, 0x82, 0xb0, 0xbd,
  0x6f, 0x03, 0x9f, 0xbe, 0x29, 0xca, 0x29, 0xbe, 0xb6, 0xf9, 0x02, 0x3e,
  0x46, 0x08, 0x3c, 0xbe, 0x1f, 0x5b, 0x4e, 0xbe, 0xdf, 0xd0, 0x92, 0xbe,
  0x56, 0x50, 0x07, 0xbf, 0xee, 0x8e, 0xe5, 0x3e, 0x83, 0xab, 0x60, 0x3e,
  0xcf, 0x6b, 0x52, 0x3d, 0xba, 0x01, 0xd6, 0xbd, 0x0c, 0xc1, 0x1d, 0xbc,
  0xd1, 0x9f, 0xfb, 0x3c, 0x11, 0xf9, 0x3f, 0xbe, 0x09, 0x87, 0xa4, 0xbb,
  0xb0, 0x30, 0x8f, 0xbe, 0xdd, 0x23, 0xd9, 0xbe, 0x4e, 0xc1, 0xc7, 0x3e,
  0xc0, 0xd0, 0x40, 0xbe, 0x6b, 0x83, 0x6b, 0xbe, 0x2c, 0xe3, 0x83, 0xbe,
  0x34, 0xd5, 0x72, 0x3e, 0x3d, 0x9c, 0xcf, 0x3e, 0xb1, 0x31, 0xa2, 0xbe,
  0x43, 0x9d, 0x04, 0x3f, 0x72, 0x32, 0x05, 0x3f, 0x49, 0xf8, 0x99, 0xbe,
  0xec, 0xe0, 0xc2, 0xbd, 0xd3, 0x9e, 0x87, 0xbe, 0x62, 0x74, 0xcd, 0x3e,
  0xa2, 0xab, 0x59, 0xbe, 0xb0, 0xe5, 0xa5, 0xbe, 0x92, 0x11, 0xee, 0x3e,
  0x96, 0x75, 0x54, 0xbe, 0xb1, 0xce, 0x2e, 0x3e, 0xbd, 0x17, 0x4c, 0x3c,
  0x6c, 0xc5, 0xa9, 0xbe, 0x4d, 0x69, 0x3e, 0xbe, 0xb4, 0xfb, 0xff, 0xff,
  0xb8, 0xfb, 0xff, 0xff, 0x0f, 0x00, 0x00, 0x00, 0x4d, 0x4c, 0x49, 0x52,
  0x20, 0x43, 0x6f, 0x6e, 0x76, 0x65, 0x72, 0x74, 0x65, 0x64, 0x2e, 0x00,
  0x01, 0x00, 0x00, 0x00, 0x14, 0x00, 0x00, 0x00, 0x00, 0x00, 0x0e, 0x00,
  0x18, 0x00, 0x14, 0x00, 0x10, 0x00, 0x0c, 0x00, 0x08, 0x00, 0x04, 0x00,
  0x0e, 0x00, 0x00, 0x00, 0x14, 0x00, 0x00, 0x00, 0x1c, 0x00, 0x00, 0x00,
  0xec, 0x00, 0x00, 0x00, 0xf0, 0x00, 0x00, 0x00, 0xf4, 0x00, 0x00, 0x00,
  0x04, 0x00, 0x00, 0x00, 0x6d, 0x61, 0x69, 0x6e, 0x00, 0x00, 0x00, 0x00,
  0x03, 0x00, 0x00, 0x00, 0x94, 0x00, 0x00, 0x00, 0x50, 0x00, 0x00, 0x00,
  0x14, 0x00, 0x00, 0x00, 0x00, 0x00, 0x0e, 0x00, 0x1a, 0x00, 0x14, 0x00,
  0x10, 0x00, 0x0c, 0x00, 0x0b, 0x00, 0x04, 0x00, 0x0e, 0x00, 0x00, 0x00,
  0x1c, 0x00, 0x00, 0x00, 0x00, 0x00, 0x00, 0x09, 0x1c, 0x00, 0x00, 0x00,
  0x20, 0x00, 0x00, 0x00, 0x01, 0x00, 0x00, 0x00, 0x00, 0x00, 0x06, 0x00,
  0x08, 0x00, 0x04, 0x00, 0x06, 0x00, 0x00, 0x00, 0x00, 0x00, 0x80, 0x3f,
  0x01, 0x00, 0x00, 0x00, 0x07, 0x00, 0x00, 0x00, 0x01, 0x00, 0x00, 0x00,
  0x06, 0x00, 0x00, 0x00, 0xce, 0xff, 0xff, 0xff, 0x10, 0x00, 0x00, 0x00,
  0x00, 0x00, 0x00, 0x08, 0x0c, 0x00, 0x00, 0x00, 0x10, 0x00, 0x00, 0x00,
  0x78, 0xfc, 0xff, 0xff, 0x01, 0x00, 0x00, 0x00, 0x06, 0x00, 0x00, 0x00,
  0x03, 0x00, 0x00, 0x00, 0x05, 0x00, 0x00, 0x00, 0x01, 0x00, 0x00, 0x00,
  0x02, 0x00, 0x00, 0x00, 0x00, 0x00, 0x0e, 0x00, 0x16, 0x00, 0x00, 0x00,
  0x10, 0x00, 0x0c, 0x00, 0x0b, 0x00, 0x04, 0x00, 0x0e, 0x00, 0x00, 0x00,
  0x18, 0x00, 0x00, 0x00, 0x00, 0x00, 0x00, 0x08, 0x18, 0x00, 0x00, 0x00,
  0x1c, 0x00, 0x00, 0x00, 0x00, 0x00, 0x06, 0x00, 0x08, 0x00, 0x07, 0x00,
  0x06, 0x00, 0x00, 0x00, 0x00, 0x00, 0x00, 0x01, 0x01, 0x00, 0x00, 0x00,
  0x05, 0x00, 0x00, 0x00, 0x03, 0x00, 0x00, 0x00, 0x00, 0x00, 0x00, 0x00,
  0x04, 0x00, 0x00, 0x00, 0x03, 0x00, 0x00, 0x00, 0x01, 0x00, 0x00, 0x00,
  0x07, 0x00, 0x00, 0x00, 0x01, 0x00, 0x00, 0x00, 0x00, 0x00, 0x00, 0x00,
  0x08, 0x00, 0x00, 0x00, 0xe4, 0x02, 0x00, 0x00, 0x8c, 0x02, 0x00, 0x00,
  0x18, 0x02, 0x00, 0x00, 0xc0, 0x01, 0x00, 0x00, 0x74, 0x01, 0x00, 0x00,
  0xe0, 0x00, 0x00, 0x00, 0x60, 0x00, 0x00, 0x00, 0x04, 0x00, 0x00, 0x00,
  0x52, 0xfd, 0xff, 0xff, 0x00, 0x00, 0x00, 0x01, 0x14, 0x00, 0x00, 0x00,
  0x1c, 0x00, 0x00, 0x00, 0x1c, 0x00, 0x00, 0x00, 0x08, 0x00, 0x00, 0x00,
  0x34, 0x00, 0x00, 0x00, 0x02, 0x00, 0x00, 0x00, 0xff, 0xff, 0xff, 0xff,
  0x03, 0x00, 0x00, 0x00, 0x3c, 0xfd, 0xff, 0xff, 0x1b, 0x00, 0x00, 0x00,
  0x53, 0x74, 0x61, 0x74, 0x65, 0x66, 0x75, 0x6c, 0x50, 0x61, 0x72, 0x74,
  0x69, 0x74, 0x69, 0x6f, 0x6e, 0x65, 0x64, 0x43, 0x61, 0x6c, 0x6c, 0x5f,
  0x31, 0x3a, 0x30, 0x00, 0x02, 0x00, 0x00, 0x00, 0x01, 0x00, 0x00, 0x00,
  0x03, 0x00, 0x00, 0x00, 0xaa, 0xfd, 0xff, 0xff, 0x00, 0x00, 0x00, 0x01,
  0x14, 0x00, 0x00, 0x00, 0x1c, 0x00, 0x00, 0x00, 0x1c, 0x00, 0x00, 0x00,
  0x07, 0x00, 0x00, 0x00, 0x58, 0x00, 0x00, 0x00, 0x02, 0x00, 0x00, 0x00,
  0xff, 0xff, 0xff, 0xff, 0x03, 0x00, 0x00, 0x00, 0x94, 0xfd, 0xff, 0xff,
  0x3c, 0x00, 0x00, 0x00, 0x73, 0x65, 0x71, 0x75, 0x65, 0x6e, 0x74, 0x69,
  0x61, 0x6c, 0x5f, 0x31, 0x2f, 0x64, 0x65, 0x6e, 0x73, 0x65, 0x5f, 0x31,
  0x5f, 0x32, 0x2f, 0x4d, 0x61, 0x74, 0x4d, 0x75, 0x6c, 0x3b, 0x73, 0x65,
  0x71, 0x75, 0x65, 0x6e, 0x74, 0x69, 0x61, 0x6c, 0x5f, 0x31, 0x2f, 0x64,
  0x65, 0x6e, 0x73, 0x65, 0x5f, 0x31, 0x5f, 0x32, 0x2f, 0x42, 0x69, 0x61,
  0x73, 0x41, 0x64, 0x64, 0x00, 0x00, 0x00, 0x00, 0x02, 0x00, 0x00, 0x00,
  0x01, 0x00, 0x00, 0x00, 0x03, 0x00, 0x00, 0x00, 0x26, 0xfe, 0xff, 0xff,
  0x00, 0x00, 0x00, 0x01, 0x14, 0x00, 0x00, 0x00, 0x1c, 0x00, 0x00, 0x00,
  0x1c, 0x00, 0x00, 0x00, 0x06, 0x00, 0x00, 0x00, 0x6c, 0x00, 0x00, 0x00,
  0x02, 0x00, 0x00, 0x00, 0xff, 0xff, 0xff, 0xff, 0x40, 0x00, 0x00, 0x00,
  0x10, 0xfe, 0xff, 0xff, 0x52, 0x00, 0x00, 0x00, 0x73, 0x65, 0x71, 0x75,
  0x65, 0x6e, 0x74, 0x69, 0x61, 0x6c, 0x5f, 0x31, 0x2f, 0x64, 0x65, 0x6e,
  0x73, 0x65, 0x5f, 0x31, 0x2f, 0x4d, 0x61, 0x74, 0x4d, 0x75, 0x6c, 0x3b,
  0x73, 0x65, 0x71, 0x75, 0x65, 0x6e, 0x74, 0x69, 0x61, 0x6c, 0x5f, 0x31,
  0x2f, 0x64, 0x65, 0x6e, 0x73, 0x65, 0x5f, 0x31, 0x2f, 0x52, 0x65, 0x6c,
  0x75, 0x3b, 0x73, 0x65, 0x71, 0x75, 0x65, 0x6e, 0x74, 0x69, 0x61, 0x6c,
  0x5f, 0x31, 0x2f, 0x64, 0x65, 0x6e, 0x73, 0x65, 0x5f, 0x31, 0x2f, 0x42,
  0x69, 0x61, 0x73, 0x41, 0x64, 0x64, 0x00, 0x00, 0x02, 0x00, 0x00, 0x00,
  0x01, 0x00, 0x00, 0x00, 0x40, 0x00, 0x00, 0x00, 0x0a, 0xff, 0xff, 0xff,
  0x00, 0x00, 0x00, 0x01, 0x10, 0x00, 0x00, 0x00, 0x10, 0x00, 0x00, 0x00,
  0x05, 0x00, 0x00, 0x00, 0x28, 0x00, 0x00, 0x00, 0x90, 0xfe, 0xff, 0xff,
  0x1b, 0x00, 0x00, 0x00, 0x73, 0x65, 0x71, 0x75, 0x65, 0x6e, 0x74, 0x69,
  0x61, 0x6c, 0x5f, 0x31, 0x2f, 0x64, 0x65, 0x6e, 0x73, 0x65, 0x5f, 0x31,
  0x2f, 0x4d, 0x61, 0x74, 0x4d, 0x75, 0x6c, 0x00, 0x02, 0x00, 0x00, 0x00,
  0x40, 0x00, 0x00, 0x00, 0x08, 0x00, 0x00, 0x00, 0x52, 0xff, 0xff, 0xff,
  0x00, 0x00, 0x00, 0x01, 0x10, 0x00, 0x00, 0x00, 0x10, 0x00, 0x00, 0x00,
  0x04, 0x00, 0x00, 0x00, 0x38, 0x00, 0x00, 0x00, 0xd8, 0xfe, 0xff, 0xff,
  0x2b, 0x00, 0x00, 0x00, 0x73, 0x65, 0x71, 0x75, 0x65, 0x6e, 0x74, 0x69,
  0x61, 0x6c, 0x5f, 0x31, 0x2f, 0x64, 0x65, 0x6e, 0x73, 0x65, 0x5f, 0x31,
  0x2f, 0x42, 0x69, 0x61, 0x73, 0x41, 0x64, 0x64, 0x2f, 0x52, 0x65, 0x61,
  0x64, 0x56, 0x61, 0x72, 0x69, 0x61, 0x62, 0x6c, 0x65, 0x4f, 0x70, 0x00,
  0x01, 0x00, 0x00, 0x00, 0x40, 0x00, 0x00, 0x00, 0xa6, 0xff, 0xff, 0xff,
  0x00, 0x00, 0x00, 0x01, 0x10, 0x00, 0x00, 0x00, 0x10, 0x00, 0x00, 0x00,
  0x03, 0x00, 0x00, 0x00, 0x3c, 0x00, 0x00, 0x00, 0x2c, 0xff, 0xff, 0xff,
  0x2d, 0x00, 0x00, 0x00, 0x73, 0x65, 0x71, 0x75, 0x65, 0x6e, 0x74, 0x69,
  0x61, 0x6c, 0x5f, 0x31, 0x2f, 0x64, 0x65, 0x6e, 0x73, 0x65, 0x5f, 0x31,
  0x5f, 0x32, 0x2f, 0x42, 0x69, 0x61, 0x73, 0x41, 0x64, 0x64, 0x2f, 0x52,
  0x65, 0x61, 0x64, 0x56, 0x61, 0x72, 0x69, 0x61, 0x62, 0x6c, 0x65, 0x4f,
  0x70, 0x00, 0x00, 0x00, 0x01, 0x00, 0x00, 0x00, 0x03, 0x00, 0x00, 0x00,
  0x00, 0x00, 0x16, 0x00, 0x18, 0x00, 0x14, 0x00, 0x00, 0x00, 0x10, 0x00,
  0x0c, 0x00, 0x08, 0x00, 0x00, 0x00, 0x00, 0x00, 0x00, 0x00, 0x07, 0x00,
  0x16, 0x00, 0x00, 0x00, 0x00, 0x00, 0x00, 0x01, 0x10, 0x00, 0x00, 0x00,
  0x10, 0x00, 0x00, 0x00, 0x02, 0x00, 0x00, 0x00, 0x1c, 0x00, 0x00, 0x00,
  0x9c, 0xff, 0xff, 0xff, 0x0e, 0x00, 0x00, 0x00, 0x61, 0x72, 0x69, 0x74,
  0x68, 0x2e, 0x63, 0x6f, 0x6e, 0x73, 0x74, 0x61, 0x6e, 0x74, 0x00, 0x00,
  0x02, 0x00, 0x00, 0x00, 0x03, 0x00, 0x00, 0x00, 0x40, 0x00, 0x00, 0x00,
  0x00, 0x00, 0x16, 0x00, 0x1c, 0x00, 0x18, 0x00, 0x00, 0x00, 0x14, 0x00,
  0x10, 0x00, 0x0c, 0x00, 0x00, 0x00, 0x00, 0x00, 0x08, 0x00, 0x07, 0x00,
  0x16, 0x00, 0x00, 0x00, 0x00, 0x00, 0x00, 0x01, 0x14, 0x00, 0x00, 0x00,
  0x20, 0x00, 0x00, 0x00, 0x20, 0x00, 0x00, 0x00, 0x01, 0x00, 0x00, 0x00,
  0x3c, 0x00, 0x00, 0x00, 0x02, 0x00, 0x00, 0x00, 0xff, 0xff, 0xff, 0xff,
  0x08, 0x00, 0x00, 0x00, 0x04, 0x00, 0x04, 0x00, 0x04, 0x00, 0x00, 0x00,
  0x1e, 0x00, 0x00, 0x00, 0x73, 0x65, 0x72, 0x76, 0x69, 0x6e, 0x67, 0x5f,
  0x64, 0x65, 0x66, 0x61, 0x75, 0x6c, 0x74, 0x5f, 0x6b, 0x65, 0x72, 0x61,
  0x73, 0x5f, 0x74, 0x65, 0x6e, 0x73, 0x6f, 0x72, 0x3a, 0x30, 0x00, 0x00,
  0x02, 0x00, 0x00, 0x00, 0x01, 0x00, 0x00, 0x00, 0x08, 0x00, 0x00, 0x00,
  0x02, 0x00, 0x00, 0x00, 0x20, 0x00, 0x00, 0x00, 0x04, 0x00, 0x00, 0x00,
  0xf4, 0xff, 0xff, 0xff, 0x19, 0x00, 0x00, 0x00, 0x00, 0x00, 0x00, 0x19,
  0x0c, 0x00, 0x0c, 0x00, 0x0b, 0x00, 0x00, 0x00, 0x00, 0x00, 0x04, 0x00,
  0x0c, 0x00, 0x00, 0x00, 0x09, 0x00, 0x00, 0x00, 0x00, 0x00, 0x00, 0x09
};
unsigned int model_tflite_len = 4812;
