// Generated multi-task model for Board1
#include "model_data.h"

const unsigned char model_tflite[] = {0x1c, 0x00, 0x00, 0x00, 0x54, 0x46, 0x4c, 0x33, 0x14, 0x00, 0x20, 0x00, 0x1c, 0x00, 0x18, 0x00, 0x14, 0x00, 0x10, 0x00, 0x0c, 0x00, 0x00, 0x00, 0x08, 0x00, 0x04, 0x00, 0x14, 0x00, 0x00, 0x00, 0x1c, 0x00, 0x00, 0x00, 0x1c, 0x00, 0x00, 0x00, 0x74, 0x00, 0x00, 0x00, 0xa4, 0x14, 0x00, 0x00, 0xb4, 0x14, 0x00, 0x00, 0x0c, 0x21, 0x00, 0x00, 0x03, 0x00, 0x00, 0x00, 0x00, 0x00, 0x00, 0x00, 0x02, 0x00, 0x00, 0x00, 0x34, 0x00, 0x00, 0x00, 0x04, 0x00, 0x00, 0x00, 0xdc, 0xff, 0xff, 0xff, 0x1b, 0x00, 0x00, 0x00, 0x04, 0x00, 0x00, 0x00, 0x13, 0x00, 0x00, 0x00, 0x43, 0x4f, 0x4e, 0x56, 0x45, 0x52, 0x53, 0x49, 0x4f, 0x4e, 0x5f, 0x4d, 0x45, 0x54, 0x41, 0x44, 0x41, 0x54, 0x41, 0x00, 0x08, 0x00, 0x0c, 0x00, 0x08, 0x00, 0x04, 0x00, 0x08, 0x00, 0x00, 0x00, 0x1a, 0x00, 0x00, 0x00, 0x04, 0x00, 0x00, 0x00, 0x13, 0x00, 0x00, 0x00, 0x6d, 0x69, 0x6e, 0x5f, 0x72, 0x75, 0x6e, 0x74, 0x69, 0x6d, 0x65, 0x5f, 0x76, 0x65, 0x72, 0x73, 0x69, 0x6f, 0x6e, 0x00, 0x1c, 0x00, 0x00, 0x00, 0x2c, 0x14, 0x00, 0x00, 0x24, 0x14, 0x00, 0x00, 0xe4, 0x13, 0x00, 0x00, 0x94, 0x13, 0x00, 0x00, 0x74, 0x13, 0x00, 0x00, 0x60, 0x13, 0x00, 0x00, 0x4c, 0x13, 0x00, 0x00, 0x24, 0x13, 0x00, 0x00, 0x54, 0x12, 0x00, 0x00, 0x14, 0x12, 0x00, 0x00, 0xd4, 0x11, 0x00, 0x00, 0xa4, 0x10, 0x00, 0x00, 0x94, 0x0d, 0x00, 0x00, 0x84, 0x05, 0x00, 0x00, 0x74, 0x01, 0x00, 0x00, 0xe4, 0x00, 0x00, 0x00, 0xdc, 0x00, 0x00, 0x00, 0xd4, 0x00, 0x00, 0x00, 0xcc, 0x00, 0x00, 0x00, 0xc4, 0x00, 0x00, 0x00, 0xbc, 0x00, 0x00, 0x00, 0xb4, 0x00, 0x00, 0x00, 0xac, 0x00, 0x00, 0x00, 0xa4, 0x00, 0x00, 0x00, 0x9c, 0x00, 0x00, 0x00, 0x94, 0x00, 0x00, 0x00, 0x74, 0x00, 0x00, 0x00, 0x04, 0x00, 0x00, 0x00, 0x9e, 0xea, 0xff, 0xff, 0x04, 0x00, 0x00, 0x00, 0x60, 0x00, 0x00, 0x00, 0x10, 0x00, 0x00, 0x00, 0x00, 0x00, 0x00, 0x00, 0x08, 0x00, 0x0e, 0x00, 0x08, 0x00, 0x04, 0x00, 0x08, 0x00, 0x00, 0x00, 0x10, 0x00, 0x00, 0x00, 0x24, 0x00, 0x00, 0x00, 0x00, 0x00, 0x06, 0x00, 0x08, 0x00, 0x04, 0x00, 0x06, 0x00, 0x00, 0x00, 0x04, 0x00, 0x00, 0x00, 0x00, 0x00, 0x00, 0x00, 0x0c, 0x00, 0x18, 0x00, 0x14, 0x00, 0x10, 0x00, 0x0c, 0x00, 0x04, 0x00, 0x0c, 0x00, 0x00, 0x00, 0x10, 0x05, 0xcd, 0x4e, 0xd1, 0xdc, 0x77, 0x75, 0x03, 0x00, 0x00, 0x00, 0x02, 0x00, 0x00, 0x00, 0x04, 0x00, 0x00, 0x00, 0x06, 0x00, 0x00, 0x00, 0x32, 0x2e, 0x32, 0x31, 0x2e, 0x30, 0x00, 0x00, 0x0a, 0xeb, 0xff, 0xff, 0x04, 0x00, 0x00, 0x00, 0x10, 0x00, 0x00, 0x00, 0x31, 0x2e, 0x31, 0x34, 0x2e, 0x30, 0x00, 0x00, 0x00, 0x00, 0x00, 0x00, 0x00, 0x00, 0x00, 0x00, 0x80, 0xe0, 0xff, 0xff, 0x84, 0xe0, 0xff, 0xff, 0x88, 0xe0, 0xff, 0xff, 0x8c, 0xe0, 0xff, 0xff, 0x90, 0xe0, 0xff, 0xff, 0x94, 0xe0, 0xff, 0xff, 0x98, 0xe0, 0xff, 0xff, 0x9c, 0xe0, 0xff, 0xff, 0xa0, 0xe0, 0xff, 0xff, 0xa4, 0xe0, 0xff, 0xff, 0x4e, 0xeb, 0xff, 0xff, 0x04, 0x00, 0x00, 0x00, 0x80, 0x00, 0x00, 0x00, 0xb0, 0x4a, 0x23, 0xbc, 0xd8, 0x96, 0x1e, 0xbc, 0x83, 0xa2, 0xd9, 0xbb, 0x1f, 0xd2, 0x1d, 0xbc, 0x46, 0xab, 0x20, 0xbc, 0x4f, 0x21, 0x27, 0xbc, 0xbe, 0x9f, 0x2a, 0x3c, 0x3f, 0xfb, 0x1a, 0x3c, 0xa7, 0xfb, 0xa9, 0x3b, 0xdf, 0xb4, 0xeb, 0xbb, 0x9d, 0xc6, 0x25, 0xbc, 0xf3, 0xf4, 0x27, 0x3c, 0x6c, 0x73, 0x13, 0xbc, 0xc6, 0x88, 0x26, 0xbc, 0xb2, 0x9a, 0x26, 0xbc, 0xfb, 0xfa, 0xf1, 0x3b, 0xc7, 0x83, 0xe5, 0xbb, 0x61, 0x0a, 0x24, 0x3c, 0x75, 0x7f, 0x24, 0x3a, 0xe3, 0x37, 0x21, 0xbc, 0x66, 0xfa, 0xe7, 0xbb, 0xf9, 0xd7, 0x24, 0xbc, 0x7a, 0x12, 0xce, 0xbb, 0xb6, 0xd9, 0x1f, 0x3c, 0x7a, 0x27, 0x0d, 0xbc, 0xbc, 0xff, 0x34, 0x3b, 0xca, 0xeb, 0x26, 0x3c, 0x72, 0x18, 0x90, 0xbb, 0x66, 0xf2, 0x4d, 0x3b, 0x36, 0xc1, 0xac, 0x3a, 0xe9, 0xb1, 0x20, 0xbc, 0x51, 0xc2, 0x25, 0x3c, 0xda, 0xeb, 0xff, 0xff, 0x04, 0x00, 0x00, 0x00, 0x00, 0x04, 0x00, 0x00, 0xdc, 0x7a, 0xb6, 0x3e, 0x5f, 0x20, 0xd6, 0xbd, 0x82, 0xf2, 0x3d, 0xbe, 0xdc, 0xf2, 0x63, 0x3e, 0x4b, 0x01, 0xb9, 0xbe, 0x9c, 0x7f, 0x73, 0x3e, 0xcf, 0x89, 0xc1, 0xbe, 0xbe, 0x30, 0x20, 0x3d, 0x50, 0xa8, 0xef, 0x3c, 0x58, 0x52, 0x89, 0xbe, 0xf2, 0x3c, 0x8f, 0xbd, 0x16, 0x3f, 0x4a, 0x3d, 0x09, 0x6f, 0xb4, 0xbe, 0xeb, 0x06, 0xe8, 0xbd, 0x2a, 0x25, 0x34, 0xbe, 0xc2, 0x56, 0x10, 0x3e, 0x83, 0xcf, 0x90, 0xbe, 0xcb, 0x2f, 0xaa, 0xbe, 0x14, 0x22, 0x5c, 0x3d, 0x02, 0x12, 0xc7, 0x3e, 0x14, 0xfd, 0xa8, 0x3d, 0xb7, 0x80, 0x92, 0xbe, 0xa7, 0x61, 0xc0, 0x3e, 0x34, 0xf4, 0xb1, 0xbe, 0x49, 0xd0, 0x3d, 0x3d, 0xb5, 0x38, 0xd5, 0x3d, 0x24, 0x20, 0x85, 0x3e, 0x2c, 0x6e, 0x77, 0xbe, 0x59, 0x54, 0x23, 0x3e, 0x60, 0x9f, 0x55, 0x3e, 0x49, 0xee, 0xdd, 0x3d, 0x41, 0xf4, 0x24, 0x3d, 0x80, 0xd8, 0xa5, 0xbe, 0x5b, 0x56, 0x9c, 0xbe, 0x98, 0xef, 0x8b, 0x3e, 0x05, 0x31, 0x94, 0x3e, 0x35, 0xc4, 0xa5, 0x3e, 0x08, 0xc5, 0x91, 0x3e, 0x3d, 0x4a, 0x38, 0xbe, 0xf1, 0x68, 0x54, 0x3e, 0x92, 0xbc, 0xa7, 0xbe, 0xc6, 0x7f, 0x45, 0x3d, 0x5b, 0x8d, 0x89, 0x3e, 0xef, 0xf4, 0x6d, 0xbe, 0x38, 0xc1, 0x88, 0x3e, 0x8d, 0x5a, 0xaa, 0x3e, 0x2c, 0x25, 0xc6, 0xbe, 0x2a, 0x1a, 0x94, 0x3e, 0xb7, 0x38, 0x87, 0x3d, 0xb1, 0x52, 0x21, 0x3e, 0x91, 0x87, 0x4f, 0xbd, 0x20, 0xe2, 0xa1, 0x3e, 0xc1, 0x5b, 0x95, 0x3e, 0x19, 0xf8, 0x48, 0xbe, 0xad, 0x52, 0x3a, 0x3e, 0x74, 0x84, 0x90, 0xbe, 0xd5, 0xf0, 0x3e, 0x3d, 0xcf, 0x7c, 0xa6, 0xbe, 0x5a, 0x7f, 0xad, 0x3e, 0x29, 0xd2, 0x59, 0x3c, 0x13, 0x0c, 0x2f, 0xbe, 0xfe, 0x0d, 0x6d, 0xbe, 0x30, 0x48, 0x80, 0xbe, 0xde, 0x1a, 0x8c, 0xbe, 0xc9, 0x83, 0x58, 0x3e, 0x31, 0x99, 0xaf, 0xbe, 0x5c, 0xa2, 0x23, 0x3e, 0xd1, 0xcd, 0xcb, 0x3d, 0x37, 0xb9, 0xd6, 0xbd, 0xe2, 0x9f, 0x6a, 0xbe, 0x08, 0x38, 0x36, 0x3e, 0x32, 0x34, 0xcf, 0x3d, 0xa0, 0x86, 0xa1, 0x3e, 0xff, 0x11, 0x76, 0xbe, 0x45, 0x85, 0xd0, 0xbd, 0x5a, 0x41, 0xc2, 0x3e, 0x1d, 0x34, 0x83, 0x3d, 0xa8, 0xbb, 0x89, 0x3d, 0x26, 0xed, 0xa8, 0x3e, 0xee, 0x25, 0x8b, 0x3e, 0xf3, 0x47, 0xfd, 0xbd, 0xeb, 0xb6, 0x6b, 0xbe, 0x9e, 0xde, 0xb5, 0xbe, 0xda, 0xa4, 0x67, 0xbe, 0xe1, 0x0c, 0xa5, 0x3d, 0x4b, 0x29, 0xff, 0x3d, 0x7d, 0x6d, 0x26, 0x3e, 0xb4, 0xa0, 0x33, 0xbd, 0xb1, 0x02, 0x9a, 0x3c, 0xbc, 0xe8, 0xa6, 0xbd, 0xda, 0x40, 0x11, 0x3e, 0x9c, 0xc4, 0x5b, 0x3e, 0x52, 0x96, 0x12, 0x3e, 0xfb, 0x88, 0x38, 0x3e, 0x27, 0xf6, 0x99, 0xbe, 0xf2, 0xbc, 0x84, 0x3e, 0x33, 0x26, 0x41, 0x3e, 0x57, 0xee, 0x60, 0xbe, 0x25, 0xfd, 0x4d, 0x3e, 0x2b, 0x28, 0xff, 0xbd, 0xbb, 0x43, 0xe7, 0xbb, 0x28, 0x13, 0x08, 0xbe, 0x8e, 0x82, 0xb6, 0x3e, 0xc9, 0x82, 0x2a, 0xbe, 0x9e, 0xa8, 0x98, 0xbd, 0x88, 0x09, 0x87, 0xbe, 0xb4, 0xdb, 0xd8, 0x3d, 0x24, 0xb7, 0xb4, 0xbe, 0xdb, 0x30, 0x5b, 0x3e, 0x1a, 0x94, 0x1b, 0x3e, 0x4d, 0xd5, 0x12, 0xbe, 0xac, 0x18, 0x7b, 0x3e, 0xf1, 0x9f, 0x73, 0xbe, 0xf2, 0x16, 0x37, 0xbe, 0x88, 0x78, 0x94, 0x3e, 0x1f, 0x68, 0xa8, 0x3d, 0xeb, 0xf8, 0xb6, 0x3e, 0x15, 0x35, 0x96, 0x3e, 0xa8, 0xbf, 0x78, 0xbe, 0x3c, 0xba, 0x7f, 0xbe, 0xf4, 0x9b, 0x4f, 0x3e, 0x68, 0x28, 0x86, 0xbe, 0x7b, 0x80, 0xf7, 0x3d, 0xd3, 0xc2, 0xc5, 0xbe, 0x33, 0x3e, 0x89, 0xbe, 0xb1, 0x2c, 0xf2, 0x3d, 0xdb, 0xc4, 0x6b, 0xbe, 0x16, 0x55, 0xad, 0x3e, 0xf0, 0x75, 0xc8, 0xbd, 0xaf, 0x4f, 0x0d, 0xbe, 0x6d, 0x73, 0x81, 0xbd, 0x20, 0x10, 0x81, 0x3d, 0x00, 0x00, 0x1b, 0x3e, 0xd0, 0xbc, 0x94, 0x3e, 0x57, 0xed, 0x59, 0xbe, 0xdf, 0x93, 0x29, 0xbe, 0x58, 0xf7, 0xb1, 0x3e, 0x8c, 0x52, 0x43, 0xbe, 0x29, 0xc3, 0xcc, 0xbd, 0x01, 0x20, 0x62, 0xbe, 0x38, 0x63, 0x8a, 0xbe, 0xe3, 0x77, 0xdf, 0x3d, 0x7f, 0xc0, 0xb4, 0xbe, 0x66, 0xf6, 0xa4, 0xbd, 0xa4, 0xeb, 0x0a, 0xbe, 0xa8, 0x3b, 0xdd, 0xbd, 0x08, 0x81, 0x0c, 0xbe, 0xf8, 0xc2, 0x96, 0x3e, 0x38, 0x67, 0x31, 0x3e, 0xc5, 0x42, 0xa9, 0xbe, 0x1c, 0x12, 0x34, 0xbe, 0x7c, 0x67, 0x13, 0x3d, 0x94, 0x35, 0x5a, 0xbe, 0x5f, 0x24, 0x8b, 0xbd, 0x17, 0x76, 0x0f, 0x3e, 0x63, 0xd0, 0x05, 0xbc, 0x65, 0x21, 0xc3, 0x3d, 0x05, 0x8d, 0x6e, 0x3d, 0x9d, 0xfe, 0xc4, 0xbd, 0x45, 0xe9, 0x35, 0x3e, 0xc5, 0xa3, 0xa8, 0x3e, 0x05, 0xd6, 0x6e, 0x3c, 0x9d, 0x9e, 0x4e, 0xbe, 0xc3, 0x49, 0x03, 0x3e, 0xdf, 0xff, 0x77, 0xbd, 0x5d, 0xb0, 0x9b, 0xbe, 0xd2, 0x57, 0x01, 0xbc, 0xb5, 0x7d, 0xb5, 0xbe, 0x9e, 0x5f, 0x35, 0xbc, 0x85, 0x06, 0xa8, 0xbe, 0x91, 0x88, 0xb1, 0xbe, 0x00, 0x50, 0x59, 0x3e, 0x76, 0x2f, 0xb7, 0xbe, 0xf6, 0xcf, 0xfe, 0xbd, 0x0d, 0x96, 0xb0, 0x3c, 0xef, 0x71, 0x22, 0xbd, 0x28, 0xf0, 0x9b, 0x3e, 0xae, 0x91, 0xb6, 0x3e, 0x86, 0x9e, 0xa6, 0x3d, 0xb9, 0xdb, 0xbf, 0xbe, 0x08, 0x75, 0x73, 0xbe, 0x1a, 0x97, 0x0c, 0xbc, 0x1c, 0xe2, 0xae, 0x3d, 0x1d, 0xb7, 0xa0, 0xbe, 0xc0, 0xd7, 0x14, 0x3e, 0xb6, 0xd6, 0x94, 0x3b, 0x93, 0xcd, 0x8e, 0x3e, 0x7e, 0x01, 0x9e, 0xbe, 0x11, 0x95, 0x52, 0x3d, 0x2f, 0xc2, 0x8f, 0x3e, 0x45, 0xd3, 0x06, 0x3c, 0x1e, 0xa5, 0xcf, 0xbd, 0xd7, 0xa1, 0x34, 0x3e, 0x5b, 0xdf, 0xab, 0x3e, 0xf4, 0x2e, 0x11, 0x3e, 0x3f, 0x33, 0x3c, 0xbe, 0xf9, 0x29, 0x79, 0x3e, 0x6e, 0x4c, 0xe7, 0x3b, 0x20, 0x8c, 0xc6, 0xbe, 0x3c, 0x53, 0x64, 0x3e, 0xc4, 0xa9, 0x92, 0x3e, 0xe3, 0x4c, 0x32, 0xbe, 0xc5, 0xc4, 0x4e, 0x3c, 0x9d, 0xac, 0xfc, 0x3c, 0xaf, 0x0f, 0xe4, 0x3d, 0x30, 0x28, 0x64, 0xbe, 0x70, 0x66, 0xe8, 0xbb, 0x18, 0x33, 0x5c, 0xbe, 0xee, 0xb9, 0x49, 0x3e, 0x24, 0x22, 0x1d, 0xbe, 0xa5, 0x96, 0x6d, 0xbb, 0x42, 0x5a, 0x69, 0x3e, 0xc1, 0x39, 0x36, 0x3e, 0xe2, 0xb3, 0x02, 0xbe, 0xf7, 0x84, 0x94, 0x3e, 0x9f, 0x65, 0xe3, 0x3d, 0x7d, 0x82, 0x72, 0x3d, 0xfb, 0x11, 0xa8, 0x3e, 0x07, 0x8e, 0xb2, 0x3e, 0xd1, 0x9e, 0x15, 0xbe, 0xf8, 0xfa, 0x57, 0xbe, 0x82, 0x70, 0xc1, 0xbe, 0xf6, 0x01, 0xc5, 0xbe, 0x67, 0x7d, 0x90, 0xbe, 0x55, 0x03, 0x9f, 0x3e, 0x9a, 0x2f, 0x20, 0xbd, 0xd5, 0x75, 0xd0, 0x3d, 0x7a, 0x0b, 0xa8, 0xbe, 0xa5, 0x8f, 0xf1, 0x3c, 0x99, 0x93, 0xb8, 0x3e, 0x9c, 0x2d, 0x63, 0x3e, 0x78, 0x48, 0x9d, 0x3d, 0x39, 0x58, 0xbe, 0xbe, 0x27, 0x26, 0x73, 0xbe, 0xff, 0x2c, 0xb1, 0xbe, 0x29, 0xac, 0x3a, 0x3d, 0xe3, 0x80, 0x42, 0xbe, 0x1c, 0xbe, 0xa8, 0x3e, 0x8f, 0xdf, 0xc0, 0x3e, 0x85, 0x2f, 0x4b, 0x3e, 0x24, 0x3c, 0x6e, 0x3e, 0xb5, 0xb1, 0x97, 0xbe, 0x46, 0x8e, 0x8d, 0xbe, 0x37, 0x94, 0x18, 0x3d, 0x8c, 0x13, 0xc3, 0x3d, 0xef, 0x82, 0x4c, 0x3e, 0x11, 0xc7, 0x45, 0x3e, 0x83, 0xfa, 0x01, 0xbd, 0xc4, 0x0e, 0xb1, 0xbe, 0x31, 0x1e, 0xfc, 0xbd, 0xc0, 0xe8, 0x15, 0x3d, 0xfe, 0x5d, 0x53, 0x3e, 0x32, 0x3e, 0x09, 0x3d, 0x1f, 0xd3, 0xa8, 0x3e, 0x5b, 0x5e, 0x73, 0x3d, 0xa5, 0x2e, 0xd4, 0xbc, 0xe6, 0xef, 0xff, 0xff, 0x04, 0x00, 0x00, 0x00, 0x00, 0x08, 0x00, 0x00, 0x7f, 0x23, 0x99, 0x3e, 0x92, 0x57, 0xe5, 0x3d, 0x6b, 0x8e, 0xd3, 0x3d, 0xf7, 0x60, 0x4f, 0x3e, 0x90, 0x56, 0x76, 0x3e, 0xa0, 0xa0, 0x92, 0x3d, 0xf9, 0x90, 0x07, 0xbe, 0xf1, 0x10, 0x9f, 0xbe, 0xf9, 0xf1, 0x61, 0x3e, 0xe6, 0x22, 0x28, 0xbe, 0x0e, 0x87, 0x81, 0x3e, 0x8d, 0x5f, 0xbb, 0x3d, 0xc1, 0xab, 0x54, 0x3e, 0x0f, 0xca, 0x81, 0x3e, 0x8a, 0xbc, 0x8b, 0x3e, 0x8f, 0xb3, 0x6f, 0xbe, 0x83, 0xe6, 0x7c, 0x3e, 0x16, 0x1e, 0x89, 0xbe, 0xd8, 0x5e, 0x4b, 0xbe, 0x23, 0x7f, 0x77, 0x3e, 0x4f, 0x91, 0x60, 0x3e, 0x75, 0x5b, 0x0b, 0x3e, 0xcb, 0x23, 0x4f, 0xbe, 0xb7, 0xa5, 0x78, 0xbe, 0x86, 0xda, 0x96, 0x3e, 0xd7, 0x36, 0x31, 0xbd, 0x51, 0x79, 0x84, 0x3e, 0x3f, 0xa0, 0x59, 0x3e, 0xbe, 0x08, 0x8b, 0xbe, 0x0a, 0xa6, 0x9e, 0xbe, 0x0f, 0x3d, 0xea, 0xbb, 0xfe, 0xb9, 0x42, 0xbc, 0xf0, 0xf7, 0x0b, 0x3e, 0x58, 0x5d, 0x65, 0x3c, 0xc6, 0xea, 0x45, 0x3d, 0x25, 0x8a, 0x47, 0x3e, 0x16, 0x8f, 0xad, 0x3e, 0x99, 0xd4, 0xab, 0x3d, 0xec, 0xf0, 0x91, 0xbe, 0x4b, 0xd2, 0x4e, 0x3e, 0xe5, 0x61, 0x28, 0x3e, 0x12, 0xe0, 0xa7, 0xbe, 0x4b, 0x99, 0x2c, 0xbe, 0x1c, 0x8a, 0x82, 0xbe, 0xc4, 0x29, 0xf1, 0xbd, 0x23, 0xe5, 0x4c, 0x3d, 0x3a, 0xef, 0x54, 0xbe, 0x51, 0x51, 0x88, 0xbe, 0x59, 0x33, 0xa3, 0x3e, 0x05, 0x4e, 0x56, 0xbe, 0x31, 0xba, 0xfa, 0xbd, 0x05, 0x40, 0x43, 0x3e, 0x27, 0x99, 0x66, 0xbe, 0x45, 0x78, 0x31, 0x3e, 0xfc, 0x94, 0x54, 0x3b, 0x92, 0x70, 0x01, 0xbe, 0xef, 0x7c, 0x8b, 0xbe, 0x53, 0x54, 0xcd, 0xbd, 0x68, 0xdb, 0xc6, 0xbd, 0x92, 0x20, 0x6a, 0xbe, 0x3d, 0x3d, 0x65, 0xbd, 0x5f, 0x2b, 0x9a, 0xbe, 0x31, 0x76, 0x0a, 0xbe, 0xc5, 0x84, 0xad, 0x3e, 0xf4, 0xa8, 0x04, 0xbe, 0x5a, 0x41, 0x1e, 0xbe, 0x65, 0x12, 0xec, 0xbd, 0xaf, 0x37, 0x48, 0x3e, 0x3a, 0x0d, 0xab, 0x3e, 0xac, 0x01, 0xcf, 0xbd, 0x60, 0xc8, 0x8c, 0x3e, 0xaa, 0xf1, 0x89, 0xbe, 0xce, 0xf3, 0x37, 0x3e, 0x9c, 0x39, 0x3d, 0x3e, 0xd6, 0x2d, 0xad, 0xbe, 0x71, 0x39, 0x89, 0xbe, 0xb1, 0xb3, 0x1d, 0x3d, 0x69, 0x0c, 0x48, 0xbe, 0x0f, 0x8b, 0x97, 0xbe, 0xbc, 0x45, 0x9a, 0x3e, 0x90, 0x81, 0x86, 0xbe, 0xad, 0x0b, 0x9c, 0xbd, 0x52, 0x12, 0x4c, 0x3e, 0xcc, 0x58, 0x64, 0x3e, 0xfa, 0xb3, 0xb1, 0xbe, 0xe3, 0x4c, 0x17, 0x3e, 0x22, 0x37, 0xf0, 0xbd, 0x07, 0xd0, 0x9a, 0x3e, 0x96, 0xa3, 0xa9, 0x3e, 0xe0, 0xe1, 0x57, 0x3d, 0xd5, 0xfe, 0x19, 0x3e, 0xee, 0x3a, 0x4b, 0xbd, 0xd4, 0x89, 0xbc, 0xbc, 0x99, 0x4f, 0x1b, 0xbe, 0x11, 0x30, 0x61, 0xbe, 0x06, 0xce, 0xd7, 0x3d, 0xcb, 0xb8, 0x91, 0xbe, 0x53, 0xa4, 0xa8, 0x3e, 0x38, 0x64, 0x81, 0xbe, 0x29, 0x08, 0x7d, 0xbd, 0x61, 0x54, 0x9d, 0xbc, 0x1e, 0xc1, 0x97, 0xbe, 0x3b, 0xa6, 0xb8, 0x3e, 0x67, 0x83, 0x36, 0xbe, 0xcb, 0x59, 0x47, 0xbe, 0xe3, 0x6d, 0x1e, 0x3e, 0xf5, 0xf5, 0x26, 0x3e, 0x9a, 0x07, 0x75, 0x3e, 0x4a, 0xd0, 0x5f, 0x3d, 0xad, 0x58, 0x98, 0x3e, 0x06, 0x4f, 0x1a, 0xbd, 0x3b, 0x6c, 0xad, 0x3e, 0x66, 0xe4, 0x26, 0xbe, 0x98, 0x72, 0x58, 0x3d, 0x01, 0xc4, 0x97, 0x3e, 0x73, 0xee, 0x54, 0xbe, 0xd9, 0xc7, 0xb0, 0x3e, 0xb7, 0xc9, 0x50, 0x3e, 0x05, 0x3a, 0x5a, 0x3e, 0xc5, 0x43, 0x29, 0xbe, 0x6c, 0x56, 0x1e, 0xbe, 0x5a, 0x7c, 0x9c, 0xbe, 0x13, 0x95, 0x22, 0x3d, 0x77, 0x9f, 0x0e, 0x3d, 0x94, 0xc3, 0x96, 0xbd, 0x89, 0x40, 0xa8, 0xbe, 0x29, 0x2e, 0x91, 0x3e, 0x79, 0x63, 0xa2, 0xbe, 0x95, 0x75, 0x2e, 0x3e, 0xb2, 0x24, 0xc1, 0x3c, 0x22, 0xf4, 0x11, 0x3e, 0x40, 0xa8, 0x7e, 0xbd, 0x2c, 0x70, 0x6a, 0xbe, 0xcf, 0x60, 0x9f, 0x3e, 0x99, 0xb7, 0x77, 0xbe, 0xcd, 0xd9, 0x20, 0x3d, 0x7f, 0xbe, 0x2f, 0x3e, 0xb8, 0xfd, 0x82, 0xbc, 0xe6, 0x3f, 0xaa, 0x3d, 0xee, 0xf8, 0x4e, 0xbe, 0x38, 0x77, 0x12, 0xbd, 0x2d, 0xbd, 0xb3, 0x3c, 0x11, 0x70, 0xa5, 0x3e, 0x55, 0x62, 0x0c, 0x3d, 0x8d, 0x03, 0x5d, 0xbe, 0x4f, 0x30, 0x21, 0xbe, 0x03, 0x9e, 0xe8, 0x3d, 0xb0, 0x24, 0xa1, 0x3e, 0x37, 0x15, 0xab, 0x3e, 0x4c, 0xc1, 0xa8, 0x3e, 0x98, 0xf6, 0x25, 0x3e, 0x84, 0xd2, 0xe2, 0xba, 0x47, 0xa5, 0x0d, 0x3a, 0x10, 0x48, 0x22, 0xbe, 0x1e, 0x20, 0xaa, 0xbe, 0x27, 0xe3, 0x85, 0xbd, 0xca, 0xf6, 0x70, 0xbe, 0xfd, 0xad, 0xe3, 0x3d, 0xe8, 0xe4, 0x83, 0x3e, 0x75, 0x0a, 0x9f, 0xbd, 0xd2, 0x45, 0x67, 0xbc, 0x3c, 0x72, 0x18, 0x3e, 0x48, 0x82, 0xa5, 0xbe, 0x6c, 0x50, 0xec, 0x3d, 0x57, 0x2c, 0x74, 0x3e, 0xca, 0x3e, 0xaa, 0x3e, 0x5f, 0xa3, 0xa7, 0xbe, 0x06, 0x39, 0xae, 0xbd, 0xf0, 0xa9, 0x89, 0x3e, 0xdf, 0xd3, 0x1f, 0x3d, 0xd8, 0x26, 0x70, 0xbe, 0xef, 0x3a, 0x24, 0x3c, 0x69, 0x4e, 0xf7, 0x3d, 0x9d, 0x91, 0x66, 0x3d, 0x67, 0x58, 0xa0, 0x3e, 0x9f, 0x25, 0xa6, 0x3b, 0x6d, 0xc4, 0x31, 0xbd, 0x62, 0x04, 0x8d, 0xbe, 0x30, 0xa9, 0x6c, 0x3d, 0x65, 0x78, 0x48, 0x3d, 0xc7, 0x48, 0x8d, 0x3d, 0x94, 0x52, 0x69, 0x3e, 0xcd, 0x55, 0xf4, 0xbd, 0x7f, 0x96, 0xb3, 0xbe, 0xf4, 0xa0, 0x0a, 0xbe, 0xcd, 0x31, 0x95, 0x3d, 0xdd, 0x2c, 0x0b, 0x3e, 0xfd, 0xc9, 0x5f, 0xbe, 0xe8, 0x88, 0x8f, 0x3e, 0x34, 0x36, 0x3e, 0x3e, 0x46, 0x6a, 0x46, 0x3d, 0x7b, 0x4b, 0xa7, 0xbe, 0x6e, 0xa9, 0x25, 0xbd, 0x59, 0x39, 0x2b, 0xbe, 0xf1, 0xbb, 0x1a, 0xbe, 0x74, 0xb2, 0xa6, 0xbe, 0x3f, 0x02, 0x4c, 0x3e, 0x95, 0x66, 0x87, 0x3c, 0xcb, 0x7d, 0x1c, 0x3e, 0x97, 0x44, 0x1b, 0xbe, 0xe3, 0x4c, 0x2d, 0xbe, 0xdb, 0x12, 0x3a, 0xbe, 0x03, 0x09, 0xa6, 0xbe, 0xe0, 0xc4, 0x23, 0x3e, 0x2c, 0xaa, 0x1d, 0xbe, 0x85, 0x2c, 0x96, 0x3e, 0x92, 0x46, 0xb4, 0xbe, 0x06, 0xe6, 0x8d, 0xbe, 0x83, 0xf0, 0xe3, 0x3d, 0x58, 0x61, 0x82, 0xbe, 0x64, 0x7c, 0x30, 0xbe, 0x04, 0x8a, 0x00, 0xbe, 0x6f, 0x9c, 0x5a, 0x3e, 0xcd, 0x57, 0x13, 0x3e, 0x4b, 0xe4, 0x56, 0x3d, 0x19, 0x6b, 0x7e, 0x3e, 0x31, 0x8f, 0x33, 0xbe, 0xe4, 0x91, 0x49, 0x3e, 0x9b, 0x07, 0x44, 0x3e, 0xae, 0xe3, 0x7c, 0x3e, 0xa3, 0x47, 0x7d, 0xbc, 0x0c, 0x2a, 0xd1, 0x3d, 0x78, 0x87, 0xc4, 0xba, 0x40, 0x9e, 0xcb, 0x3d, 0x0a, 0xb0, 0x0b, 0xbe, 0x93, 0x22, 0xb1, 0x3e, 0x6b, 0xa7, 0xf6, 0xbd, 0x01, 0xbe, 0x90, 0xbd, 0x37, 0x60, 0xa0, 0x3e, 0x03, 0xc4, 0x4d, 0x3e, 0x2e, 0x79, 0x80, 0x3c, 0xaf, 0x7d, 0xb2, 0xbe, 0xe6, 0xdf, 0x9f, 0xbe, 0xb6, 0xc8, 0x84, 0x3d, 0xd8, 0x3e, 0x9b, 0xbe, 0xaf, 0x86, 0x97, 0xbe, 0x9d, 0x5c, 0xba, 0x3d, 0xa2, 0xc7, 0xd3, 0x3c, 0x5e, 0xf7, 0x96, 0xbe, 0xf8, 0xd9, 0xaa, 0x3e, 0xda, 0x1e, 0x0a, 0xbe, 0xb5, 0x58, 0x9e, 0xbe, 0x3e, 0xa0, 0x8e, 0xbe, 0x1e, 0xbe, 0x40, 0x3e, 0x50, 0x06, 0x15, 0x3e, 0x5b, 0xaa, 0x86, 0x3e, 0x2b, 0x3d, 0xa6, 0xbe, 0x77, 0x14, 0x59, 0x3e, 0xd6, 0x35, 0x77, 0x3e, 0x9f, 0x5d, 0x7b, 0xbe, 0x2e, 0x33, 0x0b, 0xbe, 0x13, 0xd9, 0x40, 0x3e, 0x21, 0x96, 0x81, 0x3e, 0x76, 0xa9, 0xbe, 0xbc, 0x33, 0xd6, 0x58, 0x3e, 0x59, 0x9b, 0x66, 0xbe, 0xa4, 0x85, 0xf4, 0x3d, 0x53, 0x83, 0x17, 0xbe, 0x19, 0x4e, 0x83, 0x3d, 0x62, 0xfc, 0x61, 0xbb, 0x58, 0x41, 0x10, 0xbe, 0x30, 0x4f, 0x89, 0x3e, 0xe5, 0xee, 0x4a, 0x3e, 0x12, 0x36, 0xc4, 0xbb, 0x69, 0x7b, 0x7a, 0x3e, 0x1a, 0xb7, 0xf6, 0xbd, 0x9d, 0x0e, 0xa1, 0xbd, 0x46, 0x2b, 0x90, 0xbe, 0xe1, 0x1a, 0xae, 0xbe, 0xf8, 0xfb, 0x2c, 0x3e, 0xe5, 0xd9, 0x53, 0x3e, 0x91, 0x94, 0x2f, 0x3e, 0x5a, 0x4b, 0x3e, 0xbd, 0xd4, 0x48, 0x3d, 0xbe, 0x2b, 0xdc, 0x6d, 0x3e, 0x29, 0xb9, 0x89, 0xbe, 0x76, 0x5b, 0x8e, 0xbd, 0x0b, 0x66, 0x95, 0xbe, 0xa8, 0x7c, 0xc7, 0x3d, 0x43, 0xcc, 0x73, 0xbe, 0x47, 0x91, 0x7a, 0xbe, 0x90, 0xcf, 0x64, 0xbe, 0x46, 0x9c, 0xaf, 0x3e, 0x0d, 0x60, 0x86, 0x3e, 0x2e, 0x31, 0x62, 0x3e, 0xbe, 0xbe, 0x9b, 0xbe, 0xfa, 0xfb, 0xaf, 0xbe, 0x24, 0x32, 0x3e, 0xbe, 0x82, 0xc9, 0x96, 0xbd, 0xd4, 0x21, 0x7d, 0xbe, 0xa0, 0x60, 0x97, 0xbe, 0xe8, 0x08, 0x3a, 0x3d, 0x1d, 0x5e, 0x8c, 0x3e, 0xab, 0x71, 0xa2, 0x3e, 0x77, 0x77, 0x9b, 0xbe, 0xad, 0x99, 0xa4, 0xbe, 0xa8, 0xf6, 0x80, 0x3e, 0x1a, 0x2d, 0x5d, 0xbd, 0x44, 0x96, 0xa5, 0xbd, 0xc9, 0x1d, 0x27, 0x3e, 0x0a, 0x23, 0x2f, 0xbc, 0xf7, 0x25, 0xaf, 0xbe, 0xc1, 0x28, 0x3a, 0xbe, 0x88, 0x3c, 0xb3, 0x3d, 0x94, 0x08, 0xb7, 0xbc, 0xc4, 0xa1, 0x2f, 0x3e, 0x77, 0x13, 0x16, 0xbe, 0x17, 0xc9, 0xaf, 0x3e, 0x0b, 0x5f, 0xf6, 0xbd, 0xdb, 0xb3, 0x2f, 0x3e, 0xe4, 0x22, 0x0d, 0xbe, 0xef, 0x79, 0x55, 0x3e, 0x2a, 0x54, 0x98, 0xbe, 0x35, 0xa3, 0xb7, 0xbd, 0x12, 0x40, 0x94, 0x3e, 0x32, 0x14, 0xfe, 0xbd, 0xf8, 0xfe, 0xa3, 0xbe, 0x95, 0x5b, 0x5d, 0xbe, 0x09, 0x20, 0xac, 0xbe, 0x55, 0x42, 0x1c, 0x3e, 0x01, 0x55, 0xda, 0xbd, 0x5a, 0xef, 0x43, 0xbe, 0x74, 0xfc, 0x1c, 0x3e, 0x58, 0x3a, 0x9a, 0xbe, 0x55, 0x5a, 0x39, 0xbd, 0x9c, 0xc4, 0xfa, 0xbd, 0x10, 0xef, 0x99, 0x3e, 0x86, 0x13, 0x76, 0x3e, 0x04, 0xe2, 0x98, 0xbe, 0x78, 0x9e, 0xfe, 0xbd, 0xea, 0x5d, 0x8a, 0xbe, 0x05, 0x96, 0x6f, 0x3e, 0x89, 0x6e, 0x36, 0xbe, 0x21, 0xf4, 0x8b, 0xbe, 0x35, 0xfe, 0x0f, 0xbe, 0x3e, 0x0f, 0x94, 0x3e, 0x99, 0xa3, 0x8a, 0xbe, 0x58, 0xae, 0x06, 0x3e, 0xbd, 0x81, 0x80, 0x3e, 0xb6, 0x73, 0xf9, 0x3c, 0x12, 0xc9, 0x7c, 0x3d, 0x4e, 0xc8, 0x7c, 0xbc, 0x4d, 0x7c, 0x38, 0xbe, 0x56, 0x61, 0x13, 0x3e, 0x11, 0x5e, 0xb9, 0xbd, 0xae, 0x07, 0x74, 0xbe, 0x58, 0xe3, 0xb4, 0xbd, 0x6c, 0xdd, 0x92, 0x3c, 0x3b, 0xd6, 0x8a, 0xbd, 0x7e, 0xf9, 0x85, 0x3e, 0x88, 0xab, 0x55, 0xbe, 0xc6, 0x29, 0x0d, 0x3e, 0xf0, 0xaa, 0xd3, 0xbd, 0x13, 0xee, 0x0a, 0x3d, 0xf0, 0x00, 0x42, 0x3e, 0xab, 0xb0, 0x86, 0xbe, 0x86, 0x94, 0xd3, 0xbc, 0x0e, 0xc4, 0x25, 0xbe, 0xac, 0x7e, 0x94, 0xbd, 0xa0, 0x12, 0x6c, 0xbe, 0x7a, 0xfe, 0x11, 0x3e, 0xb0, 0xba, 0x80, 0xbe, 0x64, 0xcb, 0x15, 0xbe, 0xee, 0x8f, 0xa3, 0x3d, 0xd0, 0x02, 0x85, 0xbe, 0x22, 0x3e, 0x60, 0x3e, 0x81, 0xa8, 0x9f, 0x3e, 0x1e, 0xe6, 0x72, 0x3e, 0xe1, 0x2f, 0x83, 0xbe, 0x5e, 0x74, 0x93, 0x3e, 0xbc, 0x93, 0x0a, 0xbb, 0x1e, 0x37, 0x3f, 0xbe, 0xa9, 0xa9, 0xd2, 0xbc, 0x47, 0xb3, 0xbd, 0x3c, 0x56, 0x1a, 0x25, 0x3c, 0xf6, 0xa3, 0xa1, 0x3e, 0x16, 0xcc, 0x8c, 0x3e, 0x0a, 0x08, 0x24, 0x3e, 0x60, 0xa8, 0x58, 0xbe, 0x27, 0x61, 0x25, 0x3e, 0x7d, 0xf8, 0xd7, 0x3b, 0x3e, 0xc9, 0xdd, 0x3d, 0xad, 0xa3, 0x99, 0xbe, 0x05, 0xda, 0x23, 0x3e, 0x7c, 0x10, 0x4f, 0x3e, 0x58, 0x41, 0x90, 0xbe, 0x78, 0xf8, 0x9c, 0x3e, 0x6c, 0x2b, 0x6d, 0xbe, 0x51, 0x4a, 0xf6, 0x3d, 0xe0, 0x94, 0x34, 0x3e, 0x98, 0x5a, 0x75, 0x3c, 0x4e, 0xcf, 0xea, 0x3b, 0x13, 0xe2, 0xab, 0x3e, 0xee, 0x0e, 0x97, 0x3e, 0xb2, 0x50, 0x38, 0xbe, 0x8d, 0x40, 0x13, 0x3d, 0xe5, 0xb5, 0x56, 0xbe, 0xd8, 0x69, 0xe2, 0x3d, 0x91, 0x2d, 0x1d, 0xbe, 0x5e, 0xec, 0x96, 0x3d, 0x73, 0x76, 0xfb, 0xbd, 0x70, 0xd4, 0xda, 0xbd, 0x1c, 0x8b, 0x8b, 0x3e, 0xa5, 0x39, 0xd1, 0xbd, 0x74, 0x36, 0x6a, 0xbc, 0xf6, 0xc6, 0x7a, 0x3e, 0x41, 0x01, 0x72, 0xbd, 0xf1, 0x64, 0x88, 0x3e, 0xa3, 0xcf, 0x76, 0xbe, 0x58, 0xc2, 0xa3, 0x39, 0x28, 0xa9, 0x99, 0x3d, 0x94, 0x24, 0xa9, 0x3e, 0x8b, 0x74, 0xfd, 0x3c, 0xd7, 0x79, 0x80, 0xbe, 0x29, 0xe7, 0x98, 0xbe, 0xf2, 0xe2, 0x6d, 0x3e, 0x26, 0xf8, 0xaa, 0xbe, 0xda, 0x04, 0x91, 0xbe, 0x67, 0x07, 0x1e, 0xbe, 0x9d, 0x68, 0xc7, 0xbc, 0x48, 0x50, 0xaa, 0x3d, 0x15, 0x20, 0x52, 0x3e, 0xa2, 0x2f, 0xaa, 0x3e, 0x49, 0x80, 0x8f, 0x3e, 0x03, 0x73, 0x07, 0xbe, 0xc5, 0x5a, 0xbd, 0xbd, 0x41, 0x96, 0x1a, 0xbe, 0xc6, 0x6c, 0x41, 0x3e, 0xba, 0x49, 0x46, 0x3e, 0x87, 0xfe, 0x9f, 0xbe, 0x1b, 0x30, 0x35, 0xbe, 0x24, 0x69, 0x15, 0xbe, 0xef, 0x4e, 0x05, 0xbe, 0x69, 0xf4, 0x93, 0xbe, 0xd4, 0xf9, 0x48, 0x3e, 0xa3, 0xd1, 0x83, 0xbe, 0x36, 0x5d, 0x9b, 0x3e, 0x84, 0xb5, 0x09, 0xbe, 0x37, 0xa8, 0x56, 0x3e, 0x03, 0x98, 0x49, 0x3e, 0x8f, 0xf9, 0x37, 0xbe, 0xfe, 0x0f, 0x8c, 0x3e, 0x5c, 0xae, 0x70, 0x3e, 0xc3, 0x42, 0x09, 0x3d, 0x23, 0x6e, 0x84, 0x3d, 0x27, 0xcf, 0x1d, 0xbe, 0x24, 0x9b, 0x59, 0x3e, 0x9a, 0x6e, 0x9c, 0x3d, 0xc4, 0x42, 0x73, 0xbe, 0x62, 0x55, 0x57, 0x3d, 0x28, 0xdb, 0x85, 0x3e, 0x90, 0x9d, 0x40, 0x3e, 0xf0, 0x20, 0x5b, 0x3e, 0x08, 0x58, 0x8d, 0x3e, 0x93, 0x71, 0xb9, 0xbe, 0x8f, 0x11, 0xd9, 0xbc, 0xd9, 0x5a, 0xe0, 0xbd, 0x08, 0x9c, 0xac, 0x3e, 0x5d, 0xa5, 0x54, 0x3b, 0x91, 0xa2, 0x13, 0x3e, 0x7e, 0x0d, 0x30, 0x3c, 0xe2, 0x28, 0xaa, 0x3e, 0x23, 0x77, 0xcc, 0x3c, 0xde, 0xa4, 0xad, 0x3d, 0x5b, 0xa4, 0x3c, 0x3e, 0x04, 0xe6, 0x85, 0x3d, 0x0f, 0xbe, 0x19, 0x3c, 0x34, 0x7c, 0x6b, 0x3e, 0xef, 0x94, 0x91, 0xbe, 0x92, 0x6b, 0xb0, 0x3d, 0x5a, 0x25, 0xc8, 0xbd, 0xf4, 0xa8, 0x35, 0xbe, 0x4d, 0x23, 0xba, 0xbe, 0x47, 0xdd, 0xad, 0xbe, 0x33, 0x24, 0x5d, 0xbe, 0x38, 0x70, 0x80, 0xbe, 0x1f, 0x7a, 0x2e, 0xbd, 0x9a, 0xe6, 0x4d, 0x3e, 0x2e, 0x64, 0x9c, 0xbe, 0x19, 0x7c, 0x75, 0xbe, 0xe7, 0xaa, 0x08, 0x3c, 0xcc, 0x83, 0xda, 0x3d, 0x3d, 0x47, 0xa9, 0xbe, 0x51, 0x9c, 0xe7, 0x3d, 0x84, 0x61, 0xaa, 0xbe, 0x14, 0x3e, 0x23, 0x3e, 0x18, 0x72, 0x97, 0x3e, 0x16, 0x57, 0x35, 0xbe, 0x63, 0xe9, 0x8e, 0xbe, 0x04, 0x52, 0x82, 0x3e, 0x10, 0xd8, 0xa7, 0xbc, 0x4c, 0x89, 0x67, 0xbe, 0x12, 0x19, 0x20, 0x3e, 0x60, 0x7b, 0xb9, 0x3d, 0xa8, 0x62, 0xa9, 0xbc, 0x90, 0x56, 0x3a, 0x3d, 0xf9, 0x51, 0xd3, 0x3d, 0x4a, 0x79, 0x35, 0xbe, 0x08, 0x73, 0xa8, 0x3d, 0x52, 0xee, 0x4f, 0x3e, 0x6e, 0x35, 0x13, 0x3e, 0x70, 0x2d, 0x27, 0xbe, 0x20, 0x08, 0x43, 0xbe, 0xb9, 0x57, 0xe8, 0xbd, 0x60, 0xe0, 0x1b, 0x3e, 0x5b, 0xaa, 0x89, 0xbe, 0xa8, 0xa8, 0x96, 0xbe, 0x5e, 0xf0, 0x25, 0xbe, 0x54, 0x61, 0x63, 0xbe, 0xd9, 0x99, 0x53, 0xbd, 0xdc, 0x40, 0x2c, 0x3e, 0x57, 0x02, 0xb0, 0xbe, 0xf2, 0xf7, 0xff, 0xff, 0x04, 0x00, 0x00, 0x00, 0x00, 0x03, 0x00, 0x00, 0xee, 0x16, 0x25, 0x3e, 0xc2, 0x06, 0xa6, 0xbe, 0x46, 0xc9, 0x8a, 0xbd, 0x7f, 0x06, 0xef, 0xbe, 0x40, 0xf7, 0x85, 0xbe, 0xaf, 0x95, 0xa2, 0x3e, 0x97, 0xe2, 0xc4, 0x3d, 0x8f, 0x66, 0xb1, 0x3e, 0x5b, 0xfa, 0x5c, 0xbe, 0x42, 0xca, 0xcb, 0xbd, 0x54, 0x6a, 0xfc, 0xbd, 0x7a, 0xa2, 0x74, 0x3e, 0x4f, 0xf2, 0x06, 0xbd, 0x8f, 0x4a, 0xf5, 0x3b, 0x19, 0xac, 0x8f, 0x3e, 0x2d, 0xd5, 0x4c, 0x3e, 0x80, 0xcd, 0xda, 0x3c, 0xf0, 0x74, 0xd8, 0xbd, 0x40, 0x26, 0x70, 0x3d, 0x60, 0xac, 0x4a, 0x3d, 0xb4, 0x1f, 0xa9, 0xbe, 0x7f, 0x10, 0xdf, 0xbe, 0xb8, 0x0a, 0xa3, 0xbe, 0x6c, 0xc0, 0x50, 0xbe, 0x5a, 0xc3, 0x21, 0xbe, 0x92, 0x8c, 0x82, 0xbe, 0x00, 0x87, 0xb1, 0xbd, 0xcd, 0x90, 0xae, 0xbe, 0x79, 0xac, 0xe4, 0xbe, 0x18, 0xf1, 0x90, 0x3e, 0x9c, 0x7e, 0x88, 0x3e, 0x18, 0x8a, 0x8c, 0xbe, 0x8d, 0x93, 0x2b, 0x3e, 0x66, 0xc8, 0x0f, 0x3e, 0x99, 0x1f, 0xb7, 0x3e, 0xe9, 0xa7, 0xee, 0xbe, 0x25, 0xc9, 0x89, 0xbe, 0xa5, 0xa0, 0xb6, 0x3e, 0x0d, 0xd6, 0x05, 0xbe, 0x97, 0x50, 0x0d, 0x3e, 0xf3, 0x4d, 0x98, 0x3e, 0xfe, 0x76, 0x19, 0xbe, 0x9f, 0x34, 0x81, 0x3a, 0x0f, 0xe8, 0xed, 0xbe, 0x23, 0x1c, 0xec, 0xbe, 0x0b, 0xc6, 0x60, 0x3e, 0x41, 0xd3, 0xcb, 0xbe, 0x45, 0x32, 0x3f, 0x3e, 0xf5, 0x2b, 0xa3, 0x3e, 0x6f, 0x1c, 0xdb, 0x3e, 0x9e, 0x52, 0x9e, 0x3d, 0xe3, 0x79, 0xd3, 0xbe, 0x49, 0x0e, 0xd4, 0x3b, 0xe3, 0x1f, 0x54, 0xbe, 0x1a, 0x02, 0xaf, 0xbb, 0x0a, 0x8c, 0x42, 0xbd, 0x37, 0x96, 0xa9, 0x3e, 0xa6, 0xcb, 0x77, 0xbe, 0x62, 0x53, 0xbc, 0xbe, 0xe0, 0x77, 0x9b, 0xbe, 0x42, 0x2a, 0xfb, 0x3d, 0x2c, 0xf7, 0x81, 0xbe, 0xec, 0x9e, 0x2d, 0x3c, 0xeb, 0x0c, 0xda, 0xbe, 0x30, 0xb6, 0x72, 0x3e, 0x2b, 0x76, 0x4e, 0xbe, 0x03, 0x80, 0xcc, 0xbe, 0x9e, 0x05, 0x87, 0x3e, 0x28, 0x3d, 0xb5, 0x3e, 0x4e, 0xf1, 0x05, 0x3d, 0xae, 0x43, 0x99, 0x3e, 0x38, 0xda, 0x3f, 0x3c, 0x18, 0xee, 0xa3, 0xbe, 0xd4, 0xda, 0xbe, 0xbe, 0x9c, 0x8b, 0xec, 0x3e, 0xb2, 0x19, 0x84, 0xbe, 0x37, 0xda, 0xfb, 0xbd, 0x07, 0xb2, 0xce, 0xbc, 0x11, 0x60, 0x26, 0x3e, 0xa8, 0x1a, 0x53, 0xbd, 0xe1, 0x4a, 0x72, 0xbe, 0xa7, 0x6e, 0x96, 0x3d, 0x83, 0x2d, 0x98, 0x3e, 0x7d, 0x93, 0x43, 0x3e, 0xed, 0x4f, 0xde, 0x3d, 0x86, 0x23, 0x9c, 0xbe, 0xac, 0xd3, 0xa5, 0xbe, 0x3c, 0xca, 0x1a, 0xbe, 0x7a, 0x97, 0xd5, 0xbe, 0x16, 0x16, 0xbb, 0x3d, 0x7b, 0xee, 0x12, 0xbe, 0x7d, 0x5b, 0x96, 0xbc, 0x69, 0xe9, 0xb6, 0xbd, 0x32, 0x28, 0x4c, 0x3c, 0x28, 0x7c, 0xde, 0xbe, 0x56, 0x3f, 0x11, 0xbe, 0xfb, 0xf2, 0xfb, 0xbd, 0x8c, 0x82, 0xc0, 0x3e, 0x69, 0xc3, 0x17, 0x3e, 0x48, 0xa9, 0x42, 0x3e, 0x9c, 0xcb, 0x2c, 0x3e, 0x2d, 0x1d, 0x39, 0x3e, 0x46, 0xf6, 0xc9, 0xbe, 0xca, 0xdf, 0x14, 0xbe, 0x7c, 0x66, 0x8f, 0x3b, 0x0e, 0xee, 0x1f, 0x3e, 0x19, 0x84, 0x73, 0x3e, 0x6b, 0x40, 0x88, 0xbe, 0xc9, 0xe9, 0xd6, 0xbe, 0x34, 0xb1, 0xd3, 0xbe, 0x49, 0x8b, 0xcf, 0x3e, 0x93, 0x10, 0x3a, 0xbe, 0xdd, 0x16, 0xe6, 0xbd, 0xe1, 0x4f, 0x8e, 0xbc, 0xbd, 0xf7, 0xc6, 0x3e, 0xa3, 0x29, 0xc6, 0x3e, 0x19, 0x5c, 0x28, 0x3e, 0x12, 0x1c, 0x30, 0x3e, 0xfe, 0x31, 0x18, 0xbb, 0x08, 0xa3, 0x13, 0xbe, 0x78, 0xcd, 0x93, 0xbe, 0x1a, 0x43, 0xa2, 0xbe, 0x9b, 0x7a, 0xf0, 0x3e, 0xb4, 0xa0, 0xa6, 0xbe, 0x87, 0xbb, 0xf0, 0x3d, 0x5e, 0xe7, 0x2c, 0x3e, 0x1c, 0x01, 0x0d, 0xbe, 0x8a, 0x5c, 0xe7, 0xbe, 0xa0, 0x42, 0x1f, 0x3d, 0x04, 0x19, 0x2c, 0xbe, 0x8b, 0xff, 0x00, 0x3d, 0x15, 0xc8, 0x13, 0xbe, 0x43, 0xc3, 0x31, 0xbe, 0x3a, 0xb5, 0x96, 0xbe, 0xaf, 0xc0, 0xca, 0x3e, 0xac, 0x99, 0x74, 0xbe, 0x7e, 0xc3, 0xe5, 0xbe, 0x21, 0x35, 0x57, 0xbe, 0x33, 0x04, 0xef, 0x3e, 0xb0, 0x84, 0xd2, 0xbe, 0xa3, 0x39, 0xc7, 0x3e, 0xd0, 0x1a, 0x07, 0xbd, 0x1e, 0x80, 0xe1, 0x3e, 0xf9, 0x01, 0x95, 0x3e, 0xfb, 0xe6, 0xd4, 0x3e, 0xd8, 0xa7, 0x74, 0x3e, 0x39, 0x82, 0x9e, 0xbe, 0xdf, 0xd4, 0xd5, 0x3c, 0x4c, 0x97, 0xac, 0xbe, 0x3f, 0x3a, 0x5a, 0x3e, 0xac, 0x45, 0xb8, 0x3e, 0xda, 0x8b, 0xa7, 0x3e, 0x72, 0x35, 0xa1, 0x3e, 0xe1, 0x95, 0xdb, 0x3d, 0x56, 0xf9, 0x9a, 0xbd, 0x23, 0x5d, 0xfb, 0xbc, 0x1c, 0x23, 0x91, 0x3e, 0x72, 0x7c, 0xca, 0xbe, 0x77, 0x0b, 0xfe, 0xbd, 0xd2, 0xff, 0xd1, 0xbd, 0x36, 0x98, 0x01, 0xbe, 0x6e, 0x77, 0x45, 0xbe, 0xb5, 0x00, 0xe8, 0xbe, 0x70, 0x50, 0xdd, 0xbd, 0x1a, 0xa9, 0x48, 0xbe, 0x90, 0x9f, 0x89, 0xbd, 0x5c, 0x4f, 0x14, 0xbe, 0x8c, 0x8e, 0xd2, 0xbe, 0xad, 0x1b, 0x71, 0xbe, 0xe4, 0x35, 0xcc, 0x3e, 0x7b, 0xff, 0xba, 0xbe, 0x0c, 0x27, 0x1d, 0x3e, 0x6c, 0x49, 0xe9, 0xbd, 0x88, 0xcc, 0x8d, 0x3d, 0x01, 0x66, 0xc7, 0xbe, 0xd4, 0x59, 0x38, 0x3e, 0x5e, 0x21, 0x94, 0x3e, 0x31, 0xc4, 0xa8, 0xbe, 0xba, 0x4f, 0xa0, 0xbe, 0xf6, 0x18, 0x45, 0xbe, 0xb8, 0x4f, 0xb9, 0xbe, 0x1d, 0xaf, 0xb0, 0xbe, 0x71, 0xce, 0xad, 0x3d, 0xd0, 0xcb, 0xe7, 0xbd, 0xbc, 0xdf, 0xb1, 0xbd, 0xb4, 0x60, 0xfe, 0x3c, 0x1b, 0x7e, 0x75, 0xbe, 0x8e, 0x6a, 0xfa, 0xbb, 0x71, 0x38, 0xc4, 0xbe, 0x93, 0xdd, 0xcd, 0x3e, 0x23, 0x4d, 0xb2, 0xbe, 0x08, 0x52, 0x1c, 0x3e, 0xfe, 0xfa, 0xff, 0xff, 0x04, 0x00, 0x00, 0x00, 0x20, 0x01, 0x00, 0x00, 0x37, 0x59, 0x1e, 0x3e, 0xec, 0x1a, 0x7c, 0xbe, 0xce, 0x7a, 0xe3, 0xbe, 0xfa, 0x73, 0x48, 0xbd, 0x7c, 0x5a, 0xa8, 0x3e, 0x40, 0xfc, 0xb2, 0x3e, 0x48, 0xe2, 0xf2, 0x3d, 0x0c, 0x8b, 0x93, 0x3e, 0xcf, 0x70, 0xd7, 0x3d, 0x60, 0x91, 0x04, 0x3f, 0x24, 0x42, 0x13, 0x3f, 0x18, 0x2a, 0xf5, 0xbd, 0x8f, 0xf4, 0x15, 0xbe, 0xf8, 0xdb, 0xd9, 0x3d, 0x00, 0x80, 0x50, 0x3d, 0x8e, 0x4e, 0x06, 0xbe, 0x5c, 0x7c, 0xe8, 0xbe, 0x4c, 0x52, 0xc3, 0x3e, 0xf8, 0xe9, 0x11, 0x3e, 0x70, 0xbd, 0xde, 0xbe, 0x4c, 0x56, 0x0b, 0xbe, 0x80, 0xe2, 0xa2, 0x3c, 0x4a, 0xb7, 0xcb, 0xbe, 0x2f, 0x4f, 0x9e, 0xbe, 0xd6, 0xe9, 0xa9, 0x3c, 0x4c, 0x29, 0xc8, 0x3e, 0x2e, 0x2e, 0x48, 0xbe, 0x27, 0x9a, 0x54, 0x3d, 0xe7, 0x1a, 0xe9, 0x3e, 0x22, 0x4f, 0xa5, 0x3e, 0x3e, 0x72, 0x4b, 0x3e, 0x1a, 0x59, 0x0b, 0xbe, 0x0d, 0x38, 0xc2, 0x3e, 0xdd, 0x20, 0x0c, 0xbb, 0xb4, 0xe5, 0xef, 0xbe, 0x94, 0x86, 0x33, 0xbe, 0x87, 0x1a, 0x51, 0xbe, 0x66, 0x0f, 0x29, 0xbe, 0xa1, 0x25, 0xfc, 0xbe, 0x87, 0xd2, 0xfa, 0xbd, 0x10, 0x45, 0x02, 0x3f, 0x60, 0x87, 0xf5, 0xbe, 0x52, 0x27, 0xf6, 0xbe, 0x1b, 0xef, 0x01, 0x3f, 0x13, 0x06, 0x5b, 0xbe, 0x61, 0x03, 0x03, 0xbf, 0xc0, 0x90, 0x33, 0xbd, 0x38, 0x17, 0xba, 0x3e, 0xf5, 0x6b, 0x29, 0x3e, 0x54, 0x84, 0xc5, 0xbd, 0x9a, 0xcb, 0xe6, 0xbd, 0x60, 0xf5, 0xea, 0x3e, 0x7e, 0xf2, 0x1a, 0x3e, 0x2b, 0xa8, 0x08, 0x3f, 0xd1, 0xde, 0x05, 0xbf, 0xad, 0x65, 0xf9, 0xbe, 0x05, 0x69, 0xb9, 0x3e, 0x2d, 0x57, 0xf4, 0x3d, 0x14, 0x19, 0xca, 0xbe, 0xe3, 0xa7, 0x43, 0x3e, 0xce, 0x18, 0x0a, 0x3f, 0x46, 0x8e, 0x3c, 0xbe, 0x7e, 0x8f, 0x55, 0x3d, 0x8f, 0xd9, 0x03, 0x3e, 0x66, 0xd2, 0x87, 0xbe, 0x7e, 0x8c, 0x97, 0x3e, 0xb9, 0x3d, 0x25, 0x3e, 0xa6, 0x53, 0x9e, 0xbe, 0x1d, 0x66, 0x44, 0xbe, 0x79, 0xa2, 0xb6, 0x3e, 0x35, 0xb6, 0xfa, 0xbe, 0x64, 0xd8, 0xe9, 0x3d, 0x2a, 0xfc, 0xff, 0xff, 0x04, 0x00, 0x00, 0x00, 0x30, 0x00, 0x00, 0x00, 0xfa, 0xd3, 0xba, 0xbd, 0x40, 0xa9, 0x13, 0xbc, 0xb7, 0x74, 0xa1, 0x3c, 0xcc, 0xf5, 0x20, 0x3e, 0x9f, 0x0f, 0xf2, 0xbe, 0xda, 0xb4, 0xb6, 0xbe, 0x42, 0x55, 0x7a, 0xbe, 0xf9, 0xdc, 0xaf, 0x3d, 0x32, 0xca, 0x35, 0x3e, 0x51, 0x84, 0x25, 0xbc, 0xda, 0xaa, 0x23, 0x3f, 0xf0, 0xc0, 0xec, 0xbe, 0x66, 0xfc, 0xff, 0xff, 0x04, 0x00, 0x00, 0x00, 0x30, 0x00, 0x00, 0x00, 0x81, 0x0b, 0xdd, 0xbe, 0x50, 0xd3, 0x69, 0x3d, 0x29, 0xa2, 0x55, 0x3d, 0x54, 0x11, 0xb3, 0x3e, 0xe9, 0x83, 0x19, 0xbe, 0x18, 0x08, 0x88, 0xbe, 0x9e, 0x43, 0x82, 0x3d, 0x44, 0x38, 0xf5, 0x3e, 0x7a, 0x6f, 0x33, 0xba, 0x05, 0x29, 0x2c, 0x3d, 0x24, 0xff, 0x95, 0x3e, 0x05, 0x15, 0x02, 0xbe, 0xa2, 0xfc, 0xff, 0xff, 0x04, 0x00, 0x00, 0x00, 0xc0, 0x00, 0x00, 0x00, 0x04, 0x54, 0x1d, 0xbf, 0x22, 0xde, 0x15, 0xbe, 0x95, 0x0c, 0x95, 0x3e, 0xe0, 0x38, 0x4c, 0x3e, 0xbc, 0x97, 0x29, 0xbe, 0xf4, 0xdf, 0xfe, 0xbd, 0x07, 0x0a, 0xfe, 0xbe, 0x26, 0xa9, 0x4f, 0xbd, 0xc4, 0xeb, 0x15, 0x3f, 0xc1, 0xdf, 0x10, 0xbf, 0xd0, 0x31, 0xbe, 0x3e, 0xc0, 0x04, 0x1e, 0xbf, 0x29, 0x11, 0xdc, 0x3e, 0xa0, 0x73, 0xa3, 0xbd, 0x15, 0x03, 0xc6, 0xbe, 0xe1, 0x61, 0xcf, 0x3e, 0x82, 0x18, 0x26, 0x3e, 0xa4, 0x0e, 0x65, 0xbe, 0xb3, 0xab, 0xc5, 0xbe, 0xa0, 0x56, 0x6e, 0xbe, 0xbe, 0x02, 0xc9, 0xbe, 0x81, 0xa0, 0x2b, 0xbe, 0xb0, 0x34, 0x68, 0x3d, 0x50, 0x15, 0x24, 0x3e, 0xc3, 0x35, 0xa2, 0x3e, 0xfa, 0xa6, 0x3b, 0xbe, 0x9c, 0x5f, 0x02, 0x3e, 0x63, 0x1e, 0xe1, 0x3e, 0xfb, 0x4c, 0x0e, 0xbf, 0x67, 0xc7, 0x8a, 0x3d, 0x10, 0x82, 0xcd, 0x3d, 0x42, 0x9e, 0x03, 0xbf, 0x21, 0x9c, 0xfe, 0x3e, 0x90, 0xb5, 0x48, 0xbe, 0xee, 0x60, 0xf4, 0x3e, 0x40, 0xc8, 0x16, 0xbf, 0x27, 0x5b, 0xd4, 0xbe, 0xd6, 0x89, 0xeb, 0x3e, 0x2f, 0x56, 0xb1, 0x3e, 0x98, 0x12, 0x4f, 0xbe, 0x27, 0xba, 0xb0, 0x3e, 0x03, 0x71, 0x8b, 0x3d, 0x81, 0xf3, 0x03, 0xbe, 0xe7, 0x01, 0xc0, 0xbd, 0x07, 0x01, 0x79, 0xbe, 0x54, 0xdd, 0x10, 0xbf, 0x80, 0xb4, 0x30, 0x3c, 0xbb, 0xc3, 0xff, 0x3e, 0x6e, 0xfd, 0xff, 0xff, 0x04, 0x00, 0x00, 0x00, 0x18, 0x00, 0x00, 0x00, 0x6e, 0xcf, 0x25, 0x3c, 0xfc, 0xa6, 0x2b, 0x3c, 0x6c, 0x52, 0x34, 0xbc, 0x28, 0xc9, 0x17, 0x3c, 0xd2, 0x1b, 0x34, 0xbc, 0x4c, 0x02, 0x32, 0xbc, 0x92, 0xfd, 0xff, 0xff, 0x04, 0x00, 0x00, 0x00, 0x04, 0x00, 0x00, 0x00, 0xb5, 0xb4, 0x2e, 0x3c, 0xa2, 0xfd, 0xff, 0xff, 0x04, 0x00, 0x00, 0x00, 0x04, 0x00, 0x00, 0x00, 0x57, 0x5c, 0x2c, 0x3c, 0xb2, 0xfd, 0xff, 0xff, 0x04, 0x00, 0x00, 0x00, 0x10, 0x00, 0x00, 0x00, 0xf4, 0x3b, 0x1b, 0x3c, 0xf5, 0x5e, 0xe9, 0xbb, 0x62, 0xd5, 0xa0, 0xbb, 0xb2, 0xf8, 0x8b, 0xba, 0xce, 0xfd, 0xff, 0xff, 0x04, 0x00, 0x00, 0x00, 0x40, 0x00, 0x00, 0x00, 0xfe, 0xd5, 0x2b, 0xbc, 0x10, 0x2e, 0xea, 0x3b, 0x2a, 0x96, 0x2b, 0x3c, 0x63, 0x36, 0x1b, 0x3c, 0x8c, 0xea, 0x2d, 0xbc, 0xd5, 0x01, 0x1c, 0xbc, 0xa4, 0x28, 0x1d, 0xbc, 0xe2, 0xd6, 0x27, 0xbc, 0x08, 0x53, 0x1b, 0xbc, 0x22, 0x3e, 0x27, 0xbc, 0x3e, 0xa8, 0xd7, 0x3b, 0xff, 0xcc, 0x97, 0xbb, 0x9e, 0xe5, 0x2a, 0x3c, 0x1a, 0xa4, 0x26, 0x3c, 0xf9, 0x61, 0x27, 0xbc, 0x9c, 0x51, 0x1b, 0xbc, 0x1a, 0xfe, 0xff, 0xff, 0x04, 0x00, 0x00, 0x00, 0x30, 0x00, 0x00, 0x00, 0xdc, 0xf1, 0x27, 0xbc, 0x00, 0x00, 0x00, 0x00, 0xa8, 0x12, 0x27, 0xbc, 0xa7, 0x68, 0x2a, 0x3c, 0xa6, 0x50, 0x31, 0xbc, 0x79, 0xec, 0x36, 0x3b, 0x4e, 0x1f, 0x66, 0xbb, 0x5e, 0x51, 0x29, 0x3c, 0x3b, 0xec, 0x01, 0xbc, 0x79, 0xff, 0x1a, 0xbc, 0x00, 0x00, 0x00, 0x00, 0x7c, 0x1b, 0x46, 0x3b, 0xb0, 0xf3, 0xff, 0xff, 0xb4, 0xf3, 0xff, 0xff, 0x0f, 0x00, 0x00, 0x00, 0x4d, 0x4c, 0x49, 0x52, 0x20, 0x43, 0x6f, 0x6e, 0x76, 0x65, 0x72, 0x74, 0x65, 0x64, 0x2e, 0x00, 0x01, 0x00, 0x00, 0x00, 0x14, 0x00, 0x00, 0x00, 0x00, 0x00, 0x0e, 0x00, 0x18, 0x00, 0x14, 0x00, 0x10, 0x00, 0x0c, 0x00, 0x08, 0x00, 0x04, 0x00, 0x0e, 0x00, 0x00, 0x00, 0x14, 0x00, 0x00, 0x00, 0x1c, 0x00, 0x00, 0x00, 0x7c, 0x02, 0x00, 0x00, 0x8c, 0x02, 0x00, 0x00, 0x90, 0x02, 0x00, 0x00, 0x04, 0x00, 0x00, 0x00, 0x6d, 0x61, 0x69, 0x6e, 0x00, 0x00, 0x00, 0x00, 0x0a, 0x00, 0x00, 0x00, 0x24, 0x02, 0x00, 0x00, 0xdc, 0x01, 0x00, 0x00, 0x94, 0x01, 0x00, 0x00, 0x60, 0x01, 0x00, 0x00, 0x24, 0x01, 0x00, 0x00, 0xe0, 0x00, 0x00, 0x00, 0xbc, 0x00, 0x00, 0x00, 0x7c, 0x00, 0x00, 0x00, 0x48, 0x00, 0x00, 0x00, 0x14, 0x00, 0x00, 0x00, 0x00, 0x00, 0x0e, 0x00, 0x18, 0x00, 0x14, 0x00, 0x10, 0x00, 0x0c, 0x00, 0x0b, 0x00, 0x04, 0x00, 0x0e, 0x00, 0x00, 0x00, 0x14, 0x00, 0x00, 0x00, 0x00, 0x00, 0x00, 0x09, 0x14, 0x00, 0x00, 0x00, 0x18, 0x00, 0x00, 0x00, 0x01, 0x00, 0x00, 0x00, 0x02, 0xff, 0xff, 0xff, 0x00, 0x00, 0x80, 0x3f, 0x01, 0x00, 0x00, 0x00, 0x18, 0x00, 0x00, 0x00, 0x01, 0x00, 0x00, 0x00, 0x17, 0x00, 0x00, 0x00, 0x96, 0xfe, 0xff, 0xff, 0x10, 0x00, 0x00, 0x00, 0x00, 0x00, 0x00, 0x08, 0x0c, 0x00, 0x00, 0x00, 0x10, 0x00, 0x00, 0x00, 0x88, 0xf4, 0xff, 0xff, 0x01, 0x00, 0x00, 0x00, 0x17, 0x00, 0x00, 0x00, 0x03, 0x00, 0x00, 0x00, 0x11, 0x00, 0x00, 0x00, 0x07, 0x00, 0x00, 0x00, 0x03, 0x00, 0x00, 0x00, 0xc6, 0xfe, 0xff, 0xff, 0x10, 0x00, 0x00, 0x00, 0x00, 0x00, 0x00, 0x08, 0x0c, 0x00, 0x00, 0x00, 0x10, 0x00, 0x00, 0x00, 0xb8, 0xf4, 0xff, 0xff, 0x01, 0x00, 0x00, 0x00, 0x16, 0x00, 0x00, 0x00, 0x03, 0x00, 0x00, 0x00, 0x11, 0x00, 0x00, 0x00, 0x08, 0x00, 0x00, 0x00, 0x04, 0x00, 0x00, 0x00, 0x00, 0x00, 0x0a, 0x00, 0x10, 0x00, 0x0c, 0x00, 0x08, 0x00, 0x04, 0x00, 0x0a, 0x00, 0x00, 0x00, 0x0c, 0x00, 0x00, 0x00, 0x10, 0x00, 0x00, 0x00, 0x02, 0x00, 0x00, 0x00, 0x01, 0x00, 0x00, 0x00, 0x15, 0x00, 0x00, 0x00, 0x01, 0x00, 0x00, 0x00, 0x14, 0x00, 0x00, 0x00, 0x22, 0xff, 0xff, 0xff, 0x10, 0x00, 0x00, 0x00, 0x00, 0x00, 0x00, 0x08, 0x0c, 0x00, 0x00, 0x00, 0x10, 0x00, 0x00, 0x00, 0x14, 0xf5, 0xff, 0xff, 0x01, 0x00, 0x00, 0x00, 0x14, 0x00, 0x00, 0x00, 0x03, 0x00, 0x00, 0x00, 0x11, 0x00, 0x00, 0x00, 0x09, 0x00, 0x00, 0x00, 0x05, 0x00, 0x00, 0x00, 0x00, 0x00, 0x0e, 0x00, 0x1a, 0x00, 0x14, 0x00, 0x10, 0x00, 0x0c, 0x00, 0x0b, 0x00, 0x04, 0x00, 0x0e, 0x00, 0x00, 0x00, 0x1c, 0x00, 0x00, 0x00, 0x00, 0x00, 0x00, 0x09, 0x1c, 0x00, 0x00, 0x00, 0x20, 0x00, 0x00, 0x00, 0x01, 0x00, 0x00, 0x00, 0x00, 0x00, 0x06, 0x00, 0x08, 0x00, 0x04, 0x00, 0x06, 0x00, 0x00, 0x00, 0x00, 0x00, 0x80, 0x3f, 0x01, 0x00, 0x00, 0x00, 0x13, 0x00, 0x00, 0x00, 0x01, 0x00, 0x00, 0x00, 0x12, 0x00, 0x00, 0x00, 0x9a, 0xff, 0xff, 0xff, 0x10, 0x00, 0x00, 0x00, 0x00, 0x00, 0x00, 0x08, 0x0c, 0x00, 0x00, 0x00, 0x10, 0x00, 0x00, 0x00, 0x8c, 0xf5, 0xff, 0xff, 0x01, 0x00, 0x00, 0x00, 0x12, 0x00, 0x00, 0x00, 0x03, 0x00, 0x00, 0x00, 0x11, 0x00, 0x00, 0x00, 0x0a, 0x00, 0x00, 0x00, 0x06, 0x00, 0x00, 0x00, 0xca, 0xff, 0xff, 0xff, 0x10, 0x00, 0x00, 0x00, 0x00, 0x00, 0x00, 0x08, 0x10, 0x00, 0x00, 0x00, 0x14, 0x00, 0x00, 0x00, 0x76, 0xff, 0xff, 0xff, 0x00, 0x00, 0x00, 0x01, 0x01, 0x00, 0x00, 0x00, 0x11, 0x00, 0x00, 0x00, 0x03, 0x00, 0x00, 0x00, 0x10, 0x00, 0x00, 0x00, 0x0b, 0x00, 0x00, 0x00, 0x01, 0x00, 0x00, 0x00, 0x00, 0x00, 0x0e, 0x00, 0x14, 0x00, 0x00, 0x00, 0x10, 0x00, 0x0c, 0x00, 0x0b, 0x00, 0x04, 0x00, 0x0e, 0x00, 0x00, 0x00, 0x10, 0x00, 0x00, 0x00, 0x00, 0x00, 0x00, 0x08, 0x10, 0x00, 0x00, 0x00, 0x14, 0x00, 0x00, 0x00, 0xba, 0xff, 0xff, 0xff, 0x00, 0x00, 0x00, 0x01, 0x01, 0x00, 0x00, 0x00, 0x10, 0x00, 0x00, 0x00, 0x03, 0x00, 0x00, 0x00, 0x0f, 0x00, 0x00, 0x00, 0x0c, 0x00, 0x00, 0x00, 0x02, 0x00, 0x00, 0x00, 0x00, 0x00, 0x0e, 0x00, 0x16, 0x00, 0x00, 0x00, 0x10, 0x00, 0x0c, 0x00, 0x0b, 0x00, 0x04, 0x00, 0x0e, 0x00, 0x00, 0x00, 0x18, 0x00, 0x00, 0x00, 0x00, 0x00, 0x00, 0x08, 0x18, 0x00, 0x00, 0x00, 0x1c, 0x00, 0x00, 0x00, 0x00, 0x00, 0x06, 0x00, 0x08, 0x00, 0x07, 0x00, 0x06, 0x00, 0x00, 0x00, 0x00, 0x00, 0x00, 0x01, 0x01, 0x00, 0x00, 0x00, 0x0f, 0x00, 0x00, 0x00, 0x03, 0x00, 0x00, 0x00, 0x00, 0x00, 0x00, 0x00, 0x0d, 0x00, 0x00, 0x00, 0x0e, 0x00, 0x00, 0x00, 0x04, 0x00, 0x00, 0x00, 0x13, 0x00, 0x00, 0x00, 0x15, 0x00, 0x00, 0x00, 0x16, 0x00, 0x00, 0x00, 0x18, 0x00, 0x00, 0x00, 0x01, 0x00, 0x00, 0x00, 0x00, 0x00, 0x00, 0x00, 0x19, 0x00, 0x00, 0x00, 0x4c, 0x09, 0x00, 0x00, 0xcc, 0x08, 0x00, 0x00, 0x4c, 0x08, 0x00, 0x00, 0x00, 0x08, 0x00, 0x00, 0xb4, 0x07, 0x00, 0x00, 0x68, 0x07, 0x00, 0x00, 0x1c, 0x07, 0x00, 0x00, 0xcc, 0x06, 0x00, 0x00, 0x78, 0x06, 0x00, 0x00, 0x24, 0x06, 0x00, 0x00, 0xd4, 0x05, 0x00, 0x00, 0x84, 0x05, 0x00, 0x00, 0x34, 0x05, 0x00, 0x00, 0xe8, 0x04, 0x00, 0x00, 0x84, 0x04, 0x00, 0x00, 0xf0, 0x03, 0x00, 0x00, 0x54, 0x03, 0x00, 0x00, 0xb8, 0x02, 0x00, 0x00, 0x38, 0x02, 0x00, 0x00, 0xec, 0x01, 0x00, 0x00, 0x68, 0x01, 0x00, 0x00, 0x1c, 0x01, 0x00, 0x00, 0xd0, 0x00, 0x00, 0x00, 0x50, 0x00, 0x00, 0x00, 0x04, 0x00, 0x00, 0x00, 0x2e, 0xf7, 0xff, 0xff, 0x00, 0x00, 0x00, 0x01, 0x14, 0x00, 0x00, 0x00, 0x1c, 0x00, 0x00, 0x00, 0x1c, 0x00, 0x00, 0x00, 0x19, 0x00, 0x00, 0x00, 0x24, 0x00, 0x00, 0x00, 0x02, 0x00, 0x00, 0x00, 0xff, 0xff, 0xff, 0xff, 0x04, 0x00, 0x00, 0x00, 0x18, 0xf7, 0xff, 0xff, 0x0a, 0x00, 0x00, 0x00, 0x49, 0x64, 0x65, 0x6e, 0x74, 0x69, 0x74, 0x79, 0x5f, 0x33, 0x00, 0x00, 0x02, 0x00, 0x00, 0x00, 0x01, 0x00, 0x00, 0x00, 0x04, 0x00, 0x00, 0x00, 0x76, 0xf7, 0xff, 0xff, 0x00, 0x00, 0x00, 0x01, 0x14, 0x00, 0x00, 0x00, 0x1c, 0x00, 0x00, 0x00, 0x1c, 0x00, 0x00, 0x00, 0x18, 0x00, 0x00, 0x00, 0x58, 0x00, 0x00, 0x00, 0x02, 0x00, 0x00, 0x00, 0xff, 0xff, 0xff, 0xff, 0x04, 0x00, 0x00, 0x00, 0x60, 0xf7, 0xff, 0xff, 0x3e, 0x00, 0x00, 0x00, 0x66, 0x75, 0x6e, 0x63, 0x74, 0x69, 0x6f, 0x6e, 0x61, 0x6c, 0x5f, 0x31, 0x2f, 0x73, 0x65, 0x76, 0x65, 0x72, 0x69, 0x74, 0x79, 0x5f, 0x31, 0x2f, 0x4d, 0x61, 0x74, 0x4d, 0x75, 0x6c, 0x3b, 0x66, 0x75, 0x6e, 0x63, 0x74, 0x69, 0x6f, 0x6e, 0x61, 0x6c, 0x5f, 0x31, 0x2f, 0x73, 0x65, 0x76, 0x65, 0x72, 0x69, 0x74, 0x79, 0x5f, 0x31, 0x2f, 0x42, 0x69, 0x61, 0x73, 0x41, 0x64, 0x64, 0x00, 0x00, 0x02, 0x00, 0x00, 0x00, 0x01, 0x00, 0x00, 0x00, 0x04, 0x00, 0x00, 0x00, 0xf2, 0xf7, 0xff, 0xff, 0x00, 0x00, 0x00, 0x01, 0x14, 0x00, 0x00, 0x00, 0x1c, 0x00, 0x00, 0x00, 0x1c, 0x00, 0x00, 0x00, 0x17, 0x00, 0x00, 0x00, 0x24, 0x00, 0x00, 0x00, 0x02, 0x00, 0x00, 0x00, 0xff, 0xff, 0xff, 0xff, 0x01, 0x00, 0x00, 0x00, 0xdc, 0xf7, 0xff, 0xff, 0x0a, 0x00, 0x00, 0x00, 0x49, 0x64, 0x65, 0x6e, 0x74, 0x69, 0x74, 0x79, 0x5f, 0x32, 0x00, 0x00, 0x02, 0x00, 0x00, 0x00, 0x01, 0x00, 0x00, 0x00, 0x01, 0x00, 0x00, 0x00, 0x3a, 0xf8, 0xff, 0xff, 0x00, 0x00, 0x00, 0x01, 0x14, 0x00, 0x00, 0x00, 0x1c, 0x00, 0x00, 0x00, 0x1c, 0x00, 0x00, 0x00, 0x16, 0x00, 0x00, 0x00, 0x24, 0x00, 0x00, 0x00, 0x02, 0x00, 0x00, 0x00, 0xff, 0xff, 0xff, 0xff, 0x01, 0x00, 0x00, 0x00, 0x24, 0xf8, 0xff, 0xff, 0x0a, 0x00, 0x00, 0x00, 0x49, 0x64, 0x65, 0x6e, 0x74, 0x69, 0x74, 0x79, 0x5f, 0x31, 0x00, 0x00, 0x02, 0x00, 0x00, 0x00, 0x01, 0x00, 0x00, 0x00, 0x01, 0x00, 0x00, 0x00, 0x82, 0xf8, 0xff, 0xff, 0x00, 0x00, 0x00, 0x01, 0x14, 0x00, 0x00, 0x00, 0x1c, 0x00, 0x00, 0x00, 0x1c, 0x00, 0x00, 0x00, 0x15, 0x00, 0x00, 0x00, 0x5c, 0x00, 0x00, 0x00, 0x02, 0x00, 0x00, 0x00, 0xff, 0xff, 0xff, 0xff, 0x01, 0x00, 0x00, 0x00, 0x6c, 0xf8, 0xff, 0xff, 0x42, 0x00, 0x00, 0x00, 0x66, 0x75, 0x6e, 0x63, 0x74, 0x69, 0x6f, 0x6e, 0x61, 0x6c, 0x5f, 0x31, 0x2f, 0x6c, 0x65, 0x61, 0x6b, 0x5f, 0x70, 0x72, 0x65, 0x73, 0x65, 0x6e, 0x74, 0x5f, 0x31, 0x2f, 0x4d, 0x61, 0x74, 0x4d, 0x75, 0x6c, 0x3b, 0x66, 0x75, 0x6e, 0x63, 0x74, 0x69, 0x6f, 0x6e, 0x61, 0x6c, 0x5f, 0x31, 0x2f, 0x6c, 0x65, 0x61, 0x6b, 0x5f, 0x70, 0x72, 0x65, 0x73, 0x65, 0x6e, 0x74, 0x5f, 0x31, 0x2f, 0x41, 0x64, 0x64, 0x00, 0x00, 0x02, 0x00, 0x00, 0x00, 0x01, 0x00, 0x00, 0x00, 0x01, 0x00, 0x00, 0x00, 0x02, 0xf9, 0xff, 0xff, 0x00, 0x00, 0x00, 0x01, 0x14, 0x00, 0x00, 0x00, 0x1c, 0x00, 0x00, 0x00, 0x1c, 0x00, 0x00, 0x00, 0x14, 0x00, 0x00, 0x00, 0x24, 0x00, 0x00, 0x00, 0x02, 0x00, 0x00, 0x00, 0xff, 0xff, 0xff, 0xff, 0x06, 0x00, 0x00, 0x00, 0xec, 0xf8, 0xff, 0xff, 0x08, 0x00, 0x00, 0x00, 0x49, 0x64, 0x65, 0x6e, 0x74, 0x69, 0x74, 0x79, 0x00, 0x00, 0x00, 0x00, 0x02, 0x00, 0x00, 0x00, 0x01, 0x00, 0x00, 0x00, 0x06, 0x00, 0x00, 0x00, 0x4a, 0xf9, 0xff, 0xff, 0x00, 0x00, 0x00, 0x01, 0x14, 0x00, 0x00, 0x00, 0x1c, 0x00, 0x00, 0x00, 0x1c, 0x00, 0x00, 0x00, 0x13, 0x00, 0x00, 0x00, 0x58, 0x00, 0x00, 0x00, 0x02, 0x00, 0x00, 0x00, 0xff, 0xff, 0xff, 0xff, 0x06, 0x00, 0x00, 0x00, 0x34, 0xf9, 0xff, 0xff, 0x3e, 0x00, 0x00, 0x00, 0x66, 0x75, 0x6e, 0x63, 0x74, 0x69, 0x6f, 0x6e, 0x61, 0x6c, 0x5f, 0x31, 0x2f, 0x67, 0x61, 0x73, 0x5f, 0x74, 0x79, 0x70, 0x65, 0x5f, 0x31, 0x2f, 0x4d, 0x61, 0x74, 0x4d, 0x75, 0x6c, 0x3b, 0x66, 0x75, 0x6e, 0x63, 0x74, 0x69, 0x6f, 0x6e, 0x61, 0x6c, 0x5f, 0x31, 0x2f, 0x67, 0x61, 0x73, 0x5f, 0x74, 0x79, 0x70, 0x65, 0x5f, 0x31, 0x2f, 0x42, 0x69, 0x61, 0x73, 0x41, 0x64, 0x64, 0x00, 0x00, 0x02, 0x00, 0x00, 0x00, 0x01, 0x00, 0x00, 0x00, 0x06, 0x00, 0x00, 0x00, 0xc6, 0xf9, 0xff, 0xff, 0x00, 0x00, 0x00, 0x01, 0x14, 0x00, 0x00, 0x00, 0x1c, 0x00, 0x00, 0x00, 0x1c, 0x00, 0x00, 0x00, 0x12, 0x00, 0x00, 0x00, 0x74, 0x00, 0x00, 0x00, 0x02, 0x00, 0x00, 0x00, 0xff, 0xff, 0xff, 0xff, 0x0c, 0x00, 0x00, 0x00, 0xb0, 0xf9, 0xff, 0xff, 0x58, 0x00, 0x00, 0x00, 0x66, 0x75, 0x6e, 0x63, 0x74, 0x69, 0x6f, 0x6e, 0x61, 0x6c, 0x5f, 0x31, 0x2f, 0x64, 0x65, 0x6e, 0x73, 0x65, 0x5f, 0x32, 0x5f, 0x31, 0x2f, 0x4d, 0x61, 0x74, 0x4d, 0x75, 0x6c, 0x3b, 0x66, 0x75, 0x6e, 0x63, 0x74, 0x69, 0x6f, 0x6e, 0x61, 0x6c, 0x5f, 0x31, 0x2f, 0x64, 0x65, 0x6e, 0x73, 0x65, 0x5f, 0x32, 0x5f, 0x31, 0x2f, 0x52, 0x65, 0x6c, 0x75, 0x3b, 0x66, 0x75, 0x6e, 0x63, 0x74, 0x69, 0x6f, 0x6e, 0x61, 0x6c, 0x5f, 0x31, 0x2f, 0x64, 0x65, 0x6e, 0x73, 0x65, 0x5f, 0x32, 0x5f, 0x31, 0x2f, 0x42, 0x69, 0x61, 0x73, 0x41, 0x64, 0x64, 0x00, 0x00, 0x00, 0x00, 0x02, 0x00, 0x00, 0x00, 0x01, 0x00, 0x00, 0x00, 0x0c, 0x00, 0x00, 0x00, 0x5e, 0xfa, 0xff, 0xff, 0x00, 0x00, 0x00, 0x01, 0x14, 0x00, 0x00, 0x00, 0x1c, 0x00, 0x00, 0x00, 0x1c, 0x00, 0x00, 0x00, 0x11, 0x00, 0x00, 0x00, 0x74, 0x00, 0x00, 0x00, 0x02, 0x00, 0x00, 0x00, 0xff, 0xff, 0xff, 0xff, 0x10, 0x00, 0x00, 0x00, 0x48, 0xfa, 0xff, 0xff, 0x58, 0x00, 0x00, 0x00, 0x66, 0x75, 0x6e, 0x63, 0x74, 0x69, 0x6f, 0x6e, 0x61, 0x6c, 0x5f, 0x31, 0x2f, 0x64, 0x65, 0x6e, 0x73, 0x65, 0x5f, 0x31, 0x5f, 0x32, 0x2f, 0x4d, 0x61, 0x74, 0x4d, 0x75, 0x6c, 0x3b, 0x66, 0x75, 0x6e, 0x63, 0x74, 0x69, 0x6f, 0x6e, 0x61, 0x6c, 0x5f, 0x31, 0x2f, 0x64, 0x65, 0x6e, 0x73, 0x65, 0x5f, 0x31, 0x5f, 0x32, 0x2f, 0x52, 0x65, 0x6c, 0x75, 0x3b, 0x66, 0x75, 0x6e, 0x63, 0x74, 0x69, 0x6f, 0x6e, 0x61, 0x6c, 0x5f, 0x31, 0x2f, 0x64, 0x65, 0x6e, 0x73, 0x65, 0x5f, 0x31, 0x5f, 0x32, 0x2f, 0x42, 0x69, 0x61, 0x73, 0x41, 0x64, 0x64, 0x00, 0x00, 0x00, 0x00, 0x02, 0x00, 0x00, 0x00, 0x01, 0x00, 0x00, 0x00, 0x10, 0x00, 0x00, 0x00, 0xf6, 0xfa, 0xff, 0xff, 0x00, 0x00, 0x00, 0x01, 0x14, 0x00, 0x00, 0x00, 0x1c, 0x00, 0x00, 0x00, 0x1c, 0x00, 0x00, 0x00, 0x10, 0x00, 0x00, 0x00, 0x6c, 0x00, 0x00, 0x00, 0x02, 0x00, 0x00, 0x00, 0xff, 0xff, 0xff, 0xff, 0x20, 0x00, 0x00, 0x00, 0xe0, 0xfa, 0xff, 0xff, 0x52, 0x00, 0x00, 0x00, 0x66, 0x75, 0x6e, 0x63, 0x74, 0x69, 0x6f, 0x6e, 0x61, 0x6c, 0x5f, 0x31, 0x2f, 0x64, 0x65, 0x6e, 0x73, 0x65, 0x5f, 0x31, 0x2f, 0x4d, 0x61, 0x74, 0x4d, 0x75, 0x6c, 0x3b, 0x66, 0x75, 0x6e, 0x63, 0x74, 0x69, 0x6f, 0x6e, 0x61, 0x6c, 0x5f, 0x31, 0x2f, 0x64, 0x65, 0x6e, 0x73, 0x65, 0x5f, 0x31, 0x2f, 0x52, 0x65, 0x6c, 0x75, 0x3b, 0x66, 0x75, 0x6e, 0x63, 0x74, 0x69, 0x6f, 0x6e, 0x61, 0x6c, 0x5f, 0x31, 0x2f, 0x64, 0x65, 0x6e, 0x73, 0x65, 0x5f, 0x31, 0x2f, 0x42, 0x69, 0x61, 0x73, 0x41, 0x64, 0x64, 0x00, 0x00, 0x02, 0x00, 0x00, 0x00, 0x01, 0x00, 0x00, 0x00, 0x20, 0x00, 0x00, 0x00, 0x02, 0xfc, 0xff, 0xff, 0x00, 0x00, 0x00, 0x01, 0x10, 0x00, 0x00, 0x00, 0x10, 0x00, 0x00, 0x00, 0x0f, 0x00, 0x00, 0x00, 0x44, 0x00, 0x00, 0x00, 0x60, 0xfb, 0xff, 0xff, 0x36, 0x00, 0x00, 0x00, 0x66, 0x75, 0x6e, 0x63, 0x74, 0x69, 0x6f, 0x6e, 0x61, 0x6c, 0x5f, 0x31, 0x2f, 0x64, 0x65, 0x6e, 0x73, 0x65, 0x5f, 0x31, 0x2f, 0x52, 0x65, 0x6c, 0x75, 0x3b, 0x66, 0x75, 0x6e, 0x63, 0x74, 0x69, 0x6f, 0x6e, 0x61, 0x6c, 0x5f, 0x31, 0x2f, 0x64, 0x65, 0x6e, 0x73, 0x65, 0x5f, 0x31, 0x2f, 0x42, 0x69, 0x61, 0x73, 0x41, 0x64, 0x64, 0x00, 0x00, 0x01, 0x00, 0x00, 0x00, 0x20, 0x00, 0x00, 0x00, 0x62, 0xfc, 0xff, 0xff, 0x00, 0x00, 0x00, 0x01, 0x10, 0x00, 0x00, 0x00, 0x10, 0x00, 0x00, 0x00, 0x0e, 0x00, 0x00, 0x00, 0x28, 0x00, 0x00, 0x00, 0xc0, 0xfb, 0xff, 0xff, 0x1b, 0x00, 0x00, 0x00, 0x66, 0x75, 0x6e, 0x63, 0x74, 0x69, 0x6f, 0x6e, 0x61, 0x6c, 0x5f, 0x31, 0x2f, 0x64, 0x65, 0x6e, 0x73, 0x65, 0x5f, 0x31, 0x2f, 0x4d, 0x61, 0x74, 0x4d, 0x75, 0x6c, 0x00, 0x02, 0x00, 0x00, 0x00, 0x20, 0x00, 0x00, 0x00, 0x08, 0x00, 0x00, 0x00, 0xaa, 0xfc, 0xff, 0xff, 0x00, 0x00, 0x00, 0x01, 0x10, 0x00, 0x00, 0x00, 0x10, 0x00, 0x00, 0x00, 0x0d, 0x00, 0x00, 0x00, 0x2c, 0x00, 0x00, 0x00, 0x08, 0xfc, 0xff, 0xff, 0x1d, 0x00, 0x00, 0x00, 0x66, 0x75, 0x6e, 0x63, 0x74, 0x69, 0x6f, 0x6e, 0x61, 0x6c, 0x5f, 0x31, 0x2f, 0x64, 0x65, 0x6e, 0x73, 0x65, 0x5f, 0x31, 0x5f, 0x32, 0x2f, 0x4d, 0x61, 0x74, 0x4d, 0x75, 0x6c, 0x00, 0x00, 0x00, 0x02, 0x00, 0x00, 0x00, 0x10, 0x00, 0x00, 0x00, 0x20, 0x00, 0x00, 0x00, 0xf6, 0xfc, 0xff, 0xff, 0x00, 0x00, 0x00, 0x01, 0x10, 0x00, 0x00, 0x00, 0x10, 0x00, 0x00, 0x00, 0x0c, 0x00, 0x00, 0x00, 0x2c, 0x00, 0x00, 0x00, 0x54, 0xfc, 0xff, 0xff, 0x1d, 0x00, 0x00, 0x00, 0x66, 0x75, 0x6e, 0x63, 0x74, 0x69, 0x6f, 0x6e, 0x61, 0x6c, 0x5f, 0x31, 0x2f, 0x64, 0x65, 0x6e, 0x73, 0x65, 0x5f, 0x32, 0x5f, 0x31, 0x2f, 0x4d, 0x61, 0x74, 0x4d, 0x75, 0x6c, 0x00, 0x00, 0x00, 0x02, 0x00, 0x00, 0x00, 0x0c, 0x00, 0x00, 0x00, 0x10, 0x00, 0x00, 0x00, 0x42, 0xfd, 0xff, 0xff, 0x00, 0x00, 0x00, 0x01, 0x10, 0x00, 0x00, 0x00, 0x10, 0x00, 0x00, 0x00, 0x0b, 0x00, 0x00, 0x00, 0x2c, 0x00, 0x00, 0x00, 0xa0, 0xfc, 0xff, 0xff, 0x1e, 0x00, 0x00, 0x00, 0x66, 0x75, 0x6e, 0x63, 0x74, 0x69, 0x6f, 0x6e, 0x61, 0x6c, 0x5f, 0x31, 0x2f, 0x67, 0x61, 0x73, 0x5f, 0x74, 0x79, 0x70, 0x65, 0x5f, 0x31, 0x2f, 0x4d, 0x61, 0x74, 0x4d, 0x75, 0x6c, 0x00, 0x00, 0x02, 0x00, 0x00, 0x00, 0x06, 0x00, 0x00, 0x00, 0x0c, 0x00, 0x00, 0x00, 0x8e, 0xfd, 0xff, 0xff, 0x00, 0x00, 0x00, 0x01, 0x10, 0x00, 0x00, 0x00, 0x10, 0x00, 0x00, 0x00, 0x0a, 0x00, 0x00, 0x00, 0x30, 0x00, 0x00, 0x00, 0xec, 0xfc, 0xff, 0xff, 0x22, 0x00, 0x00, 0x00, 0x66, 0x75, 0x6e, 0x63, 0x74, 0x69, 0x6f, 0x6e, 0x61, 0x6c, 0x5f, 0x31, 0x2f, 0x6c, 0x65, 0x61, 0x6b, 0x5f, 0x70, 0x72, 0x65, 0x73, 0x65, 0x6e, 0x74, 0x5f, 0x31, 0x2f, 0x4d, 0x61, 0x74, 0x4d, 0x75, 0x6c, 0x00, 0x00, 0x02, 0x00, 0x00, 0x00, 0x01, 0x00, 0x00, 0x00, 0x0c, 0x00, 0x00, 0x00, 0xde, 0xfd, 0xff, 0xff, 0x00, 0x00, 0x00, 0x01, 0x10, 0x00, 0x00, 0x00, 0x10, 0x00, 0x00, 0x00, 0x09, 0x00, 0x00, 0x00, 0x30, 0x00, 0x00, 0x00, 0x3c, 0xfd, 0xff, 0xff, 0x22, 0x00, 0x00, 0x00, 0x66, 0x75, 0x6e, 0x63, 0x74, 0x69, 0x6f, 0x6e, 0x61, 0x6c, 0x5f, 0x31, 0x2f, 0x70, 0x70, 0x6d, 0x5f, 0x65, 0x73, 0x74, 0x69, 0x6d, 0x61, 0x74, 0x65, 0x5f, 0x31, 0x2f, 0x4d, 0x61, 0x74, 0x4d, 0x75, 0x6c, 0x00, 0x00, 0x02, 0x00, 0x00, 0x00, 0x01, 0x00, 0x00, 0x00, 0x0c, 0x00, 0x00, 0x00, 0x2e, 0xfe, 0xff, 0xff, 0x00, 0x00, 0x00, 0x01, 0x10, 0x00, 0x00, 0x00, 0x10, 0x00, 0x00, 0x00, 0x08, 0x00, 0x00, 0x00, 0x2c, 0x00, 0x00, 0x00, 0x8c, 0xfd, 0xff, 0xff, 0x1e, 0x00, 0x00, 0x00, 0x66, 0x75, 0x6e, 0x63, 0x74, 0x69, 0x6f, 0x6e, 0x61, 0x6c, 0x5f, 0x31, 0x2f, 0x73, 0x65, 0x76, 0x65, 0x72, 0x69, 0x74, 0x79, 0x5f, 0x31, 0x2f, 0x4d, 0x61, 0x74, 0x4d, 0x75, 0x6c, 0x00, 0x00, 0x02, 0x00, 0x00, 0x00, 0x04, 0x00, 0x00, 0x00, 0x0c, 0x00, 0x00, 0x00, 0x7a, 0xfe, 0xff, 0xff, 0x00, 0x00, 0x00, 0x01, 0x10, 0x00, 0x00, 0x00, 0x10, 0x00, 0x00, 0x00, 0x07, 0x00, 0x00, 0x00, 0x2c, 0x00, 0x00, 0x00, 0xd8, 0xfd, 0xff, 0xff, 0x1f, 0x00, 0x00, 0x00, 0x66, 0x75, 0x6e, 0x63, 0x74, 0x69, 0x6f, 0x6e, 0x61, 0x6c, 0x5f, 0x31, 0x2f, 0x67, 0x61, 0x73, 0x5f, 0x74, 0x79, 0x70, 0x65, 0x5f, 0x31, 0x2f, 0x42, 0x69, 0x61, 0x73, 0x41, 0x64, 0x64, 0x00, 0x01, 0x00, 0x00, 0x00, 0x06, 0x00, 0x00, 0x00, 0xc2, 0xfe, 0xff, 0xff, 0x00, 0x00, 0x00, 0x01, 0x10, 0x00, 0x00, 0x00, 0x10, 0x00, 0x00, 0x00, 0x06, 0x00, 0x00, 0x00, 0x2c, 0x00, 0x00, 0x00, 0x20, 0xfe, 0xff, 0xff, 0x1f, 0x00, 0x00, 0x00, 0x66, 0x75, 0x6e, 0x63, 0x74, 0x69, 0x6f, 0x6e, 0x61, 0x6c, 0x5f, 0x31, 0x2f, 0x6c, 0x65, 0x61, 0x6b, 0x5f, 0x70, 0x72, 0x65, 0x73, 0x65, 0x6e, 0x74, 0x5f, 0x31, 0x2f, 0x41, 0x64, 0x64, 0x00, 0x01, 0x00, 0x00, 0x00, 0x01, 0x00, 0x00, 0x00, 0x0a, 0xff, 0xff, 0xff, 0x00, 0x00, 0x00, 0x01, 0x10, 0x00, 0x00, 0x00, 0x10, 0x00, 0x00, 0x00, 0x05, 0x00, 0x00, 0x00, 0x2c, 0x00, 0x00, 0x00, 0x68, 0xfe, 0xff, 0xff, 0x1f, 0x00, 0x00, 0x00, 0x66, 0x75, 0x6e, 0x63, 0x74, 0x69, 0x6f, 0x6e, 0x61, 0x6c, 0x5f, 0x31, 0x2f, 0x70, 0x70, 0x6d, 0x5f, 0x65, 0x73, 0x74, 0x69, 0x6d, 0x61, 0x74, 0x65, 0x5f, 0x31, 0x2f, 0x41, 0x64, 0x64, 0x00, 0x01, 0x00, 0x00, 0x00, 0x01, 0x00, 0x00, 0x00, 0x52, 0xff, 0xff, 0xff, 0x00, 0x00, 0x00, 0x01, 0x10, 0x00, 0x00, 0x00, 0x10, 0x00, 0x00, 0x00, 0x04, 0x00, 0x00, 0x00, 0x2c, 0x00, 0x00, 0x00, 0xb0, 0xfe, 0xff, 0xff, 0x1f, 0x00, 0x00, 0x00, 0x66, 0x75, 0x6e, 0x63, 0x74, 0x69, 0x6f, 0x6e, 0x61, 0x6c, 0x5f, 0x31, 0x2f, 0x73, 0x65, 0x76, 0x65, 0x72, 0x69, 0x74, 0x79, 0x5f, 0x31, 0x2f, 0x42, 0x69, 0x61, 0x73, 0x41, 0x64, 0x64, 0x00, 0x01, 0x00, 0x00, 0x00, 0x04, 0x00, 0x00, 0x00, 0x9a, 0xff, 0xff, 0xff, 0x00, 0x00, 0x00, 0x01, 0x10, 0x00, 0x00, 0x00, 0x10, 0x00, 0x00, 0x00, 0x03, 0x00, 0x00, 0x00, 0x48, 0x00, 0x00, 0x00, 0xf8, 0xfe, 0xff, 0xff, 0x3a, 0x00, 0x00, 0x00, 0x66, 0x75, 0x6e, 0x63, 0x74, 0x69, 0x6f, 0x6e, 0x61, 0x6c, 0x5f, 0x31, 0x2f, 0x64, 0x65, 0x6e, 0x73, 0x65, 0x5f, 0x31, 0x5f, 0x32, 0x2f, 0x52, 0x65, 0x6c, 0x75, 0x3b, 0x66, 0x75, 0x6e, 0x63, 0x74, 0x69, 0x6f, 0x6e, 0x61, 0x6c, 0x5f, 0x31, 0x2f, 0x64, 0x65, 0x6e, 0x73, 0x65, 0x5f, 0x31, 0x5f, 0x32, 0x2f, 0x42, 0x69, 0x61, 0x73, 0x41, 0x64, 0x64, 0x00, 0x00, 0x01, 0x00, 0x00, 0x00, 0x10, 0x00, 0x00, 0x00, 0x00, 0x00, 0x16, 0x00, 0x18, 0x00, 0x14, 0x00, 0x00, 0x00, 0x10, 0x00, 0x0c, 0x00, 0x08, 0x00, 0x00, 0x00, 0x00, 0x00, 0x00, 0x00, 0x07, 0x00, 0x16, 0x00, 0x00, 0x00, 0x00, 0x00, 0x00, 0x01, 0x10, 0x00, 0x00, 0x00, 0x10, 0x00, 0x00, 0x00, 0x02, 0x00, 0x00, 0x00, 0x48, 0x00, 0x00, 0x00, 0x74, 0xff, 0xff, 0xff, 0x3a, 0x00, 0x00, 0x00, 0x66, 0x75, 0x6e, 0x63, 0x74, 0x69, 0x6f, 0x6e, 0x61, 0x6c, 0x5f, 0x31, 0x2f, 0x64, 0x65, 0x6e, 0x73, 0x65, 0x5f, 0x32, 0x5f, 0x31, 0x2f, 0x52, 0x65, 0x6c, 0x75, 0x3b, 0x66, 0x75, 0x6e, 0x63, 0x74, 0x69, 0x6f, 0x6e, 0x61, 0x6c, 0x5f, 0x31, 0x2f, 0x64, 0x65, 0x6e, 0x73, 0x65, 0x5f, 0x32, 0x5f, 0x31, 0x2f, 0x42, 0x69, 0x61, 0x73, 0x41, 0x64, 0x64, 0x00, 0x00, 0x01, 0x00, 0x00, 0x00, 0x0c, 0x00, 0x00, 0x00, 0x00, 0x00, 0x16, 0x00, 0x1c, 0x00, 0x18, 0x00, 0x00, 0x00, 0x14, 0x00, 0x10, 0x00, 0x0c, 0x00, 0x00, 0x00, 0x00, 0x00, 0x08, 0x00, 0x07, 0x00, 0x16, 0x00, 0x00, 0x00, 0x00, 0x00, 0x00, 0x01, 0x14, 0x00, 0x00, 0x00, 0x20, 0x00, 0x00, 0x00, 0x20, 0x00, 0x00, 0x00, 0x01, 0x00, 0x00, 0x00, 0x2c, 0x00, 0x00, 0x00, 0x02, 0x00, 0x00, 0x00, 0xff, 0xff, 0xff, 0xff, 0x08, 0x00, 0x00, 0x00, 0x04, 0x00, 0x04, 0x00, 0x04, 0x00, 0x00, 0x00, 0x0c, 0x00, 0x00, 0x00, 0x73, 0x65, 0x6e, 0x73, 0x6f, 0x72, 0x5f, 0x69, 0x6e, 0x70, 0x75, 0x74, 0x00, 0x00, 0x00, 0x00, 0x02, 0x00, 0x00, 0x00, 0x01, 0x00, 0x00, 0x00, 0x08, 0x00, 0x00, 0x00, 0x03, 0x00, 0x00, 0x00, 0x30, 0x00, 0x00, 0x00, 0x14, 0x00, 0x00, 0x00, 0x04, 0x00, 0x00, 0x00, 0xe8, 0xff, 0xff, 0xff, 0x0e, 0x00, 0x00, 0x00, 0x00, 0x00, 0x00, 0x0e, 0xf4, 0xff, 0xff, 0xff, 0x19, 0x00, 0x00, 0x00, 0x00, 0x00, 0x00, 0x19, 0x0c, 0x00, 0x0c, 0x00, 0x0b, 0x00, 0x00, 0x00, 0x00, 0x00, 0x04, 0x00, 0x0c, 0x00, 0x00, 0x00, 0x09, 0x00, 0x00, 0x00, 0x00, 0x00, 0x00, 0x09};
const unsigned int model_tflite_len = 8576;
