unsigned char model_tflite[] = {
  0x1c, 0x00, 0x00, 0x00, 0x54, 0x46, 0x4c, 0x33, 0x14, 0x00, 0x20, 0x00,
  0x1c, 0x00, 0x18, 0x00, 0x14, 0x00, 0x10, 0x00, 0x0c, 0x00, 0x00, 0x00,
  0x08, 0x00, 0x04, 0x00, 0x14, 0x00, 0x00, 0x00, 0x1c, 0x00, 0x00, 0x00,
  0x98, 0x00, 0x00, 0x00, 0xf0, 0x00, 0x00, 0x00, 0xf4, 0x0d, 0x00, 0x00,
  0x04, 0x0e, 0x00, 0x00, 0x64, 0x12, 0x00, 0x00, 0x03, 0x00, 0x00, 0x00,
  0x01, 0x00, 0x00, 0x00, 0x10, 0x00, 0x00, 0x00, 0x00, 0x00, 0x0a, 0x00,
  0x10, 0x00, 0x0c, 0x00, 0x08, 0x00, 0x04, 0x00, 0x0a, 0x00, 0x00, 0x00,
  0x0c, 0x00, 0x00, 0x00, 0x1c, 0x00, 0x00, 0x00, 0x3c, 0x00, 0x00, 0x00,
  0x0f, 0x00, 0x00, 0x00, 0x73, 0x65, 0x72, 0x76, 0x69, 0x6e, 0x67, 0x5f,
  0x64, 0x65, 0x66, 0x61, 0x75, 0x6c, 0x74, 0x00, 0x01, 0x00, 0x00, 0x00,
  0x04, 0x00, 0x00, 0x00, 0x90, 0xff, 0xff, 0xff, 0x07, 0x00, 0x00, 0x00,
  0x04, 0x00, 0x00, 0x00, 0x08, 0x00, 0x00, 0x00, 0x6f, 0x75, 0x74, 0x70,
  0x75, 0x74, 0x5f, 0x30, 0x00, 0x00, 0x00, 0x00, 0x01, 0x00, 0x00, 0x00,
  0x04, 0x00, 0x00, 0x00, 0xf6, 0xf1, 0xff, 0xff, 0x04, 0x00, 0x00, 0x00,
  0x0e, 0x00, 0x00, 0x00, 0x6b, 0x65, 0x72, 0x61, 0x73, 0x5f, 0x74, 0x65,
  0x6e, 0x73, 0x6f, 0x72, 0x5f, 0x33, 0x00, 0x00, 0x02, 0x00, 0x00, 0x00,
  0x34, 0x00, 0x00, 0x00, 0x04, 0x00, 0x00, 0x00, 0xdc, 0xff, 0xff, 0xff,
  0x0a, 0x00, 0x00, 0x00, 0x04, 0x00, 0x00, 0x00, 0x13, 0x00, 0x00, 0x00,
  0x43, 0x4f, 0x4e, 0x56, 0x45, 0x52, 0x53, 0x49, 0x4f, 0x4e, 0x5f, 0x4d,
  0x45, 0x54, 0x41, 0x44, 0x41, 0x54, 0x41, 0x00, 0x08, 0x00, 0x0c, 0x00,
  0x08, 0x00, 0x04, 0x00, 0x08, 0x00, 0x00, 0x00, 0x09, 0x00, 0x00, 0x00,
  0x04, 0x00, 0x00, 0x00, 0x13, 0x00, 0x00, 0x00, 0x6d, 0x69, 0x6e, 0x5f,
  0x72, 0x75, 0x6e, 0x74, 0x69, 0x6d, 0x65, 0x5f, 0x76, 0x65, 0x72, 0x73,
  0x69, 0x6f, 0x6e, 0x00, 0x0b, 0x00, 0x00, 0x00, 0x00, 0x0d, 0x00, 0x00,
  0xf8, 0x0c, 0x00, 0x00, 0xe8, 0x09, 0x00, 0x00, 0xcc, 0x09, 0x00, 0x00,
  0xbc, 0x08, 0x00, 0x00, 0xac, 0x00, 0x00, 0x00, 0xa4, 0x00, 0x00, 0x00,
  0x9c, 0x00, 0x00, 0x00, 0x94, 0x00, 0x00, 0x00, 0x74, 0x00, 0x00, 0x00,
  0x04, 0x00, 0x00, 0x00, 0x9e, 0xf2, 0xff, 0xff, 0x04, 0x00, 0x00, 0x00,
  0x60, 0x00, 0x00, 0x00, 0x10, 0x00, 0x00, 0x00, 0x00, 0x00, 0x00, 0x00,
  0x08, 0x00, 0x0e, 0x00, 0x08, 0x00, 0x04, 0x00, 0x08, 0x00, 0x00, 0x00,
  0x10, 0x00, 0x00, 0x00, 0x24, 0x00, 0x00, 0x00, 0x00, 0x00, 0x06, 0x00,
  0x08, 0x00, 0x04, 0x00, 0x06, 0x00, 0x00, 0x00, 0x04, 0x00, 0x00, 0x00,
  0x00, 0x00, 0x00, 0x00, 0x0c, 0x00, 0x18, 0x00, 0x14, 0x00, 0x10, 0x00,
  0x0c, 0x00, 0x04, 0x00, 0x0c, 0x00, 0x00, 0x00, 0x06, 0xe0, 0x2d, 0xe0,
  0xc2, 0x3c, 0x64, 0x53, 0x02, 0x00, 0x00, 0x00, 0x02, 0x00, 0x00, 0x00,
  0x04, 0x00, 0x00, 0x00, 0x06, 0x00, 0x00, 0x00, 0x32, 0x2e, 0x31, 0x39,
  0x2e, 0x30, 0x00, 0x00, 0x0a, 0xf3, 0xff, 0xff, 0x04, 0x00, 0x00, 0x00,
  0x10, 0x00, 0x00, 0x00, 0x31, 0x2e, 0x35, 0x2e, 0x30, 0x00, 0x00, 0x00,
  0x00, 0x00, 0x00, 0x00, 0x00, 0x00, 0x00, 0x00, 0x74, 0xef, 0xff, 0xff,
  0x78, 0xef, 0xff, 0xff, 0x7c, 0xef, 0xff, 0xff, 0x32, 0xf3, 0xff, 0xff,
  0x04, 0x00, 0x00, 0x00, 0x00, 0x08, 0x00, 0x00, 0x55, 0xa9, 0xba, 0x3e,
  0xec, 0xeb, 0xc5, 0xbd, 0x51, 0x90, 0x0a, 0xbf, 0xaf, 0xe4, 0x30, 0xbb,
  0x11, 0xb5, 0xb1, 0x3e, 0x17, 0xd8, 0x30, 0x3e, 0x12, 0xae, 0xc2, 0xbd,
  0x18, 0x4e, 0x21, 0x3e, 0xa1, 0xdc, 0xa9, 0x3e, 0xd8, 0xe9, 0x4f, 0xbe,
  0xc8, 0x94, 0x00, 0x3f, 0xf0, 0xc7, 0xec, 0x3d, 0xdb, 0x84, 0x02, 0x3e,
  0x3e, 0x92, 0x93, 0x3d, 0x47, 0xa6, 0x39, 0x3c, 0x01, 0x85, 0xf8, 0xbd,
  0xf8, 0x72, 0x8b, 0x3e, 0x64, 0x74, 0x8d, 0xbd, 0x40, 0x19, 0xfa, 0xbe,
  0x9a, 0x34, 0x4e, 0x3e, 0x81, 0x9b, 0xb8, 0x3e, 0x05, 0x50, 0xcf, 0x3d,
  0xfd, 0x03, 0x39, 0xbe, 0x01, 0x81, 0x0b, 0x3e, 0xe8, 0x6d, 0xc4, 0xbd,
  0xd4, 0xf4, 0x1a, 0x3e, 0x6e, 0x9c, 0x8a, 0x3e, 0xe5, 0xc7, 0x81, 0x3d,
  0x86, 0x2d, 0x5e, 0xbe, 0x6c, 0x88, 0xd3, 0x3d, 0x6b, 0xe2, 0xdd, 0x3d,
  0xcd, 0xce, 0xda, 0x3d, 0xc7, 0xbe, 0x05, 0xbd, 0x29, 0x6e, 0x51, 0x3d,
  0x9d, 0x65, 0x10, 0xbf, 0x6b, 0x99, 0xd3, 0xbd, 0x45, 0xe7, 0x9b, 0x3e,
  0x54, 0x9a, 0xe3, 0x3c, 0x54, 0x32, 0x93, 0x3e, 0x9e, 0xcd, 0x12, 0x3e,
  0x89, 0x6f, 0xdd, 0xbd, 0xa0, 0xec, 0xc9, 0x3d, 0x60, 0x1f, 0x0a, 0x3e,
  0xbb, 0x3e, 0xc2, 0x3e, 0x2d, 0x98, 0xc2, 0x3e, 0x50, 0x1b, 0x1b, 0x3e,
  0x97, 0x0e, 0xa9, 0xbb, 0xbc, 0x6f, 0x43, 0x3e, 0x9f, 0x32, 0xc7, 0x3c,
  0xec, 0xdb, 0xbc, 0x3e, 0xd7, 0xfc, 0x45, 0x3e, 0x9c, 0xe5, 0x5c, 0x3c,
  0xdc, 0xfa, 0x84, 0xbc, 0xac, 0x62, 0x1f, 0x3e, 0xde, 0x02, 0x28, 0xbe,
  0x71, 0x90, 0x56, 0x3e, 0x45, 0x80, 0x90, 0xbd, 0xe1, 0xf5, 0x73, 0xbe,
  0x71, 0x4f, 0x55, 0xbe, 0x2d, 0xbd, 0x13, 0xbe, 0xa9, 0xd2, 0x21, 0xbd,
  0xa2, 0xbe, 0x48, 0xbe, 0x78, 0xa4, 0x7a, 0x3e, 0x3f, 0x27, 0xd0, 0xbd,
  0xad, 0xaa, 0xee, 0x3d, 0xd6, 0x2b, 0xcd, 0x3e, 0x3d, 0xc4, 0xd2, 0xbe,
  0xa3, 0x22, 0xc6, 0x3e, 0xca, 0x96, 0xd7, 0x3d, 0x9b, 0xfc, 0xe6, 0x3d,
  0x76, 0xf2, 0x03, 0x3e, 0xf2, 0xf9, 0x9d, 0xbe, 0x82, 0x9e, 0x65, 0xbd,
  0xe0, 0x9b, 0x87, 0xbe, 0xdf, 0x52, 0xf3, 0xbd, 0xf5, 0x8f, 0xf7, 0x3d,
  0x41, 0xd1, 0x1e, 0x3d, 0x74, 0x28, 0xe8, 0xbd, 0x05, 0xfb, 0x7e, 0xbe,
  0x4d, 0x70, 0xc4, 0xbe, 0x6f, 0x5f, 0xba, 0x3e, 0xa6, 0x8e, 0xc3, 0x3d,
  0xa4, 0xc2, 0x1b, 0xbe, 0x6d, 0x65, 0x35, 0x3e, 0x09, 0xe6, 0x9b, 0x3e,
  0x33, 0xb9, 0xd4, 0xbd, 0x3e, 0x0e, 0x4f, 0x3e, 0x39, 0x02, 0xb0, 0x3e,
  0x59, 0x5f, 0x8c, 0xbe, 0xda, 0x9b, 0x92, 0xbe, 0xb2, 0x69, 0x1e, 0xbe,
  0x4d, 0x88, 0x99, 0x3d, 0x57, 0x73, 0x38, 0xbe, 0x31, 0x84, 0x89, 0x3d,
  0x7b, 0x79, 0x90, 0x3d, 0xc6, 0xe7, 0x39, 0xbe, 0x79, 0xe6, 0x56, 0xbe,
  0x9c, 0xc6, 0xdb, 0xbc, 0x6f, 0x26, 0xb9, 0x3d, 0xfc, 0x05, 0x0b, 0xbe,
  0xf3, 0xea, 0x2b, 0xbd, 0x5e, 0xef, 0xf0, 0xbd, 0xc4, 0x00, 0xef, 0xbd,
  0xc7, 0xf9, 0x80, 0x3e, 0xa5, 0x63, 0xe6, 0xbd, 0x5c, 0x09, 0x13, 0x3e,
  0x07, 0xd1, 0x65, 0xbe, 0xf1, 0x9b, 0x89, 0xbe, 0xc4, 0xb9, 0xbb, 0xbe,
  0xca, 0xe8, 0x01, 0x3d, 0x28, 0xf5, 0x2f, 0xbb, 0x12, 0x9e, 0xc2, 0x3c,
  0x1e, 0x33, 0x4f, 0xbe, 0xc9, 0x76, 0x10, 0x3e, 0xb6, 0x57, 0x59, 0xbe,
  0xec, 0xd6, 0xca, 0xbd, 0x56, 0x30, 0xc4, 0xbc, 0xcb, 0x3c, 0x74, 0xbe,
  0xa0, 0x64, 0xa0, 0xbe, 0xe1, 0xc8, 0x86, 0xbd, 0xe8, 0xb5, 0x12, 0xbc,
  0xdc, 0x6b, 0x23, 0x3d, 0xcd, 0xaa, 0xbe, 0xbe, 0x0c, 0x46, 0x44, 0xbe,
  0x23, 0xb3, 0x85, 0xbe, 0x21, 0xcc, 0xbc, 0xbe, 0xbf, 0x36, 0x79, 0xbe,
  0x6a, 0x7b, 0x0d, 0x3e, 0xe1, 0xb0, 0x3b, 0xbe, 0x6f, 0xa5, 0xba, 0x3e,
  0xf2, 0xa3, 0x9e, 0xbe, 0x6b, 0xcc, 0xb9, 0x3e, 0xe5, 0x27, 0x09, 0x3e,
  0x72, 0xee, 0x5e, 0xbe, 0x19, 0x12, 0x8c, 0x3d, 0x86, 0x99, 0xb2, 0x3d,
  0x0e, 0x4a, 0x08, 0xbd, 0xf6, 0x33, 0x10, 0xbe, 0x64, 0x97, 0x02, 0x3f,
  0x27, 0xb2, 0x25, 0xbd, 0x97, 0xbb, 0x8a, 0x3d, 0x85, 0x8a, 0xd9, 0x3d,
  0x42, 0x34, 0x42, 0x3e, 0x27, 0x98, 0x2d, 0x3e, 0x20, 0x9f, 0x80, 0xbd,
  0x91, 0xc8, 0x35, 0x3d, 0x73, 0x26, 0x1d, 0xbf, 0xbd, 0x87, 0xfd, 0x3e,
  0x8e, 0x5b, 0x03, 0x3f, 0x32, 0x1c, 0x56, 0xbe, 0x39, 0xd6, 0x3b, 0xbd,
  0x70, 0x17, 0x8c, 0x3e, 0xd0, 0xba, 0x5d, 0x3b, 0xc2, 0xd8, 0x5b, 0x3e,
  0xda, 0x0d, 0xbe, 0x3e, 0x9f, 0xcf, 0x73, 0x3d, 0xed, 0x89, 0x13, 0xbe,
  0xf5, 0x90, 0x46, 0x3e, 0x28, 0x22, 0xb3, 0xbd, 0xe5, 0xe0, 0x92, 0x3e,
  0xc8, 0xf3, 0x5e, 0x3e, 0xb6, 0xa1, 0x1a, 0xbe, 0x49, 0x02, 0x17, 0x3f,
  0xfa, 0x94, 0x1a, 0x3c, 0xaa, 0x4f, 0x81, 0xbd, 0x8b, 0xd8, 0xa0, 0x3e,
  0x74, 0x3d, 0xcc, 0x3e, 0x06, 0xd1, 0x20, 0x3e, 0x9a, 0x9e, 0x85, 0x3b,
  0xf1, 0x32, 0x59, 0x3e, 0x61, 0xf1, 0x83, 0x3e, 0x28, 0xf5, 0x23, 0xbe,
  0x76, 0xb4, 0x37, 0xbe, 0x6d, 0x08, 0xdb, 0x3d, 0x39, 0xa5, 0x9e, 0x3d,
  0xc8, 0xb4, 0x70, 0x3e, 0xba, 0xbb, 0x1f, 0xbc, 0x1b, 0x28, 0xd9, 0xbd,
  0x29, 0x8e, 0x2f, 0x3c, 0x91, 0x89, 0x53, 0xbd, 0x26, 0x38, 0x28, 0xbe,
  0x60, 0x7e, 0x8b, 0xbe, 0xdb, 0x5d, 0xb0, 0xbe, 0xc0, 0xb8, 0x79, 0xbe,
  0xd8, 0x20, 0x80, 0x3d, 0xb8, 0x44, 0x3b, 0xbe, 0x13, 0x05, 0xc8, 0xbd,
  0x57, 0x48, 0x04, 0xbe, 0x03, 0x3b, 0x41, 0xbe, 0xe2, 0xca, 0x3d, 0xbe,
  0x48, 0xea, 0xc3, 0x3c, 0x5e, 0xde, 0x39, 0xbd, 0x52, 0x50, 0x6d, 0xbe,
  0x72, 0x1b, 0x37, 0xbe, 0xe7, 0x50, 0xa4, 0x3e, 0xf4, 0x23, 0xef, 0xbd,
  0x67, 0xf0, 0xb2, 0xbd, 0x3f, 0x57, 0xc6, 0xbd, 0x32, 0xdb, 0xeb, 0x3c,
  0x59, 0x52, 0x19, 0xbc, 0xb7, 0x21, 0xa5, 0xbe, 0x94, 0x2a, 0x7a, 0x3e,
  0x0f, 0x3a, 0xfd, 0xbc, 0x74, 0x5d, 0x86, 0x3e, 0x5c, 0x68, 0xbb, 0xbc,
  0xad, 0x6d, 0x31, 0x3d, 0xf5, 0xc3, 0xc9, 0x3d, 0x27, 0xc6, 0x13, 0xbc,
  0xc5, 0xfe, 0xfb, 0xbd, 0xe0, 0x69, 0x32, 0xbd, 0xce, 0x94, 0x1a, 0x3e,
  0x40, 0x7d, 0x02, 0xbe, 0x11, 0xfe, 0x09, 0xbe, 0xf0, 0x88, 0xa7, 0x3c,
  0x90, 0x75, 0x57, 0xbe, 0x03, 0x7c, 0x60, 0x3e, 0xeb, 0xc9, 0xdc, 0xbe,
  0x0e, 0x4f, 0xc5, 0xbe, 0x5c, 0x89, 0x67, 0xbe, 0x20, 0xc3, 0x05, 0xbe,
  0x02, 0x65, 0xa9, 0xbe, 0x18, 0xa1, 0x8c, 0xbe, 0x3a, 0x69, 0x30, 0xbe,
  0x67, 0xf7, 0x90, 0xbd, 0x3c, 0xd1, 0x8b, 0x3e, 0x6a, 0x0c, 0xa0, 0xbd,
  0xa5, 0xdf, 0x27, 0x3e, 0xb4, 0x8f, 0xbb, 0x3e, 0xf9, 0x20, 0x92, 0x3e,
  0x34, 0x1f, 0x4f, 0x3d, 0x4e, 0x9a, 0xce, 0x3e, 0xe1, 0xc5, 0xcb, 0x3e,
  0x4c, 0xdd, 0x1c, 0xbd, 0xa8, 0xdf, 0xf1, 0xba, 0xf9, 0xb9, 0x50, 0xbe,
  0x29, 0xdb, 0xda, 0xbd, 0xf8, 0x0a, 0x0b, 0xbe, 0x4b, 0x3e, 0x13, 0xbd,
  0xcb, 0xbd, 0x1d, 0x3e, 0xfd, 0x8c, 0x87, 0x3e, 0x79, 0xcd, 0x36, 0x3e,
  0x0d, 0x0f, 0x8f, 0xbe, 0xc9, 0x93, 0x93, 0x3e, 0x7d, 0x6d, 0x21, 0x3e,
  0xb0, 0xca, 0x9f, 0x3d, 0x9c, 0x34, 0x2b, 0x3e, 0x16, 0xbb, 0x37, 0xbd,
  0x9b, 0x0c, 0xce, 0xbc, 0x7c, 0x95, 0xd9, 0x3d, 0x3f, 0xe7, 0x26, 0xbe,
  0x75, 0xde, 0xcc, 0x3e, 0x7a, 0xbc, 0x46, 0x3d, 0x30, 0xa2, 0xd3, 0xbc,
  0xd5, 0x89, 0xc5, 0x3e, 0x1b, 0xc1, 0x9b, 0x3e, 0x1a, 0x5c, 0x75, 0x3e,
  0x9a, 0xf0, 0xb7, 0x3e, 0x1c, 0x3b, 0x49, 0xbe, 0x2d, 0x15, 0xb0, 0x3e,
  0x6f, 0xe9, 0x53, 0xbd, 0x6a, 0x90, 0x55, 0xbe, 0xaa, 0x72, 0x8f, 0x3e,
  0x9b, 0x9b, 0xb0, 0x3e, 0x35, 0xd2, 0x52, 0xbc, 0xe1, 0xbc, 0x79, 0x3e,
  0x43, 0xa7, 0x57, 0xbe, 0x48, 0x17, 0x63, 0x3e, 0x1d, 0x7c, 0x0d, 0xbe,
  0xe6, 0xdb, 0xbf, 0x3d, 0x67, 0xdc, 0x99, 0x3e, 0x9a, 0x54, 0xba, 0x3d,
  0x0d, 0xd9, 0xbe, 0x3d, 0x58, 0x54, 0x60, 0x3e, 0x26, 0xdd, 0x7c, 0xbe,
  0x9f, 0x1e, 0x7f, 0x3e, 0x36, 0x27, 0xf6, 0x3d, 0xb2, 0xd6, 0x19, 0xbe,
  0x01, 0x8e, 0x46, 0xbc, 0x6f, 0x1c, 0x46, 0x3e, 0xc2, 0x19, 0x2b, 0x3e,
  0x93, 0x6c, 0x54, 0x3d, 0xb3, 0x52, 0x1c, 0xbe, 0x3a, 0x95, 0x00, 0xbe,
  0xee, 0x2a, 0xdf, 0x3d, 0x95, 0x35, 0x39, 0xbe, 0xd9, 0xf6, 0x3c, 0xbd,
  0xa3, 0x6f, 0x78, 0x3e, 0x3c, 0x7c, 0xc3, 0x3c, 0xa2, 0x82, 0xf1, 0x3d,
  0xdd, 0x8d, 0x69, 0x3e, 0x58, 0xe7, 0xb4, 0x3d, 0xf8, 0x36, 0x04, 0xbe,
  0xba, 0x98, 0x99, 0xbd, 0xe6, 0x6e, 0x64, 0x3e, 0x83, 0x86, 0x9d, 0x3d,
  0xd9, 0xe6, 0xfb, 0x3d, 0x9a, 0xb7, 0xa2, 0x3e, 0xb7, 0x62, 0xae, 0x3e,
  0x11, 0x57, 0x17, 0xbf, 0xc3, 0xa3, 0xb7, 0x3e, 0xf7, 0xe0, 0xa8, 0x3e,
  0x14, 0xbf, 0x87, 0xbd, 0x6e, 0x11, 0x47, 0x3e, 0x73, 0x72, 0x5f, 0xbe,
  0x42, 0x20, 0x18, 0x3e, 0x56, 0x98, 0xb6, 0x3d, 0x99, 0xb5, 0x33, 0xbe,
  0x3e, 0x04, 0x89, 0x3e, 0xfc, 0x06, 0x1a, 0x3e, 0xca, 0x14, 0x56, 0x3e,
  0x29, 0x5f, 0x00, 0x3b, 0x09, 0x36, 0x82, 0x3e, 0xa8, 0xe4, 0xfc, 0xbd,
  0x4d, 0x80, 0xa5, 0xbc, 0xba, 0x62, 0x40, 0xbe, 0x4c, 0xd5, 0xbe, 0x3e,
  0xec, 0xc7, 0x83, 0x3e, 0x80, 0x5f, 0x59, 0x3d, 0xa4, 0x95, 0xac, 0xbe,
  0x2f, 0x8f, 0xf7, 0x3d, 0x17, 0xc8, 0x01, 0xbe, 0x17, 0xc6, 0xc4, 0xbd,
  0x46, 0x19, 0xab, 0x3e, 0x08, 0xa0, 0x8d, 0x3e, 0x32, 0xc9, 0xea, 0x3d,
  0xb6, 0x41, 0x75, 0x3e, 0xf9, 0xd6, 0xe3, 0xbd, 0x86, 0x3c, 0x0c, 0xbd,
  0x14, 0xc6, 0x62, 0x3d, 0xd3, 0x5e, 0x0f, 0xbe, 0xc2, 0xcd, 0x8c, 0xbe,
  0x72, 0x54, 0xbe, 0x3e, 0x00, 0x90, 0xb1, 0x3e, 0xab, 0x1e, 0x04, 0x3e,
  0x0a, 0xc6, 0xbb, 0x3e, 0x4a, 0x67, 0xe6, 0x3d, 0xc9, 0x89, 0x7b, 0xbe,
  0xd4, 0xf6, 0xac, 0xbe, 0xe5, 0x76, 0xb0, 0xbe, 0x75, 0xee, 0x32, 0xbe,
  0x34, 0x5b, 0x2e, 0xbe, 0x5c, 0xc9, 0x0b, 0xbe, 0x91, 0xba, 0xf0, 0x3c,
  0x0f, 0x8c, 0x3f, 0xbd, 0x1a, 0x4f, 0xbc, 0xbe, 0xa5, 0x78, 0xba, 0x3d,
  0x17, 0xea, 0x11, 0x3e, 0xf2, 0x64, 0xf4, 0xba, 0xce, 0xfc, 0x0a, 0xbd,
  0xff, 0xbd, 0x50, 0xbe, 0xfc, 0xe2, 0x2a, 0x3e, 0x04, 0x0a, 0x6c, 0xbe,
  0xff, 0xca, 0x8d, 0x3e, 0xce, 0x5b, 0x6b, 0x3e, 0xa3, 0x6d, 0xd9, 0x3c,
  0xde, 0x60, 0x0c, 0xbd, 0x9d, 0x75, 0x5f, 0x3e, 0x7f, 0xcb, 0xd3, 0xbd,
  0x05, 0x53, 0x61, 0x3d, 0xd4, 0x89, 0x35, 0x3e, 0x87, 0xaa, 0xb9, 0xbe,
  0x03, 0x45, 0xc5, 0xbe, 0x8b, 0x86, 0x6d, 0xbe, 0x84, 0x42, 0x55, 0xbe,
  0x07, 0x8f, 0x47, 0xbd, 0x64, 0x18, 0x91, 0xbe, 0xb1, 0x61, 0xd6, 0xbd,
  0x96, 0xa8, 0xdf, 0xbd, 0x8c, 0xf4, 0xb9, 0x3c, 0xac, 0xec, 0xf9, 0xbd,
  0x95, 0x81, 0x8f, 0xbe, 0x31, 0xc5, 0xab, 0xbd, 0x86, 0x92, 0x04, 0x3d,
  0x5d, 0x3b, 0xf8, 0x3d, 0x57, 0x08, 0x55, 0x3e, 0xe9, 0x44, 0x60, 0x3e,
  0x30, 0x11, 0x25, 0x3e, 0x49, 0xcb, 0xd1, 0xbd, 0x75, 0x66, 0x9c, 0x3d,
  0x93, 0x14, 0x57, 0x3e, 0x3e, 0xf1, 0xa0, 0xbc, 0x83, 0xe8, 0x02, 0xbc,
  0x75, 0x88, 0xc9, 0x3e, 0x33, 0xac, 0xba, 0x3e, 0xd4, 0xb2, 0xb9, 0xbb,
  0xbf, 0x1e, 0x08, 0x3e, 0x2e, 0x6a, 0x58, 0x3e, 0x78, 0x23, 0x24, 0xbe,
  0x78, 0xe6, 0xe4, 0xbd, 0x71, 0xec, 0x8e, 0x3e, 0x0d, 0x05, 0xbc, 0xbd,
  0x28, 0xf9, 0x3b, 0x3e, 0x15, 0x08, 0xa4, 0x3b, 0xf2, 0x29, 0x91, 0x3e,
  0x07, 0xf5, 0x19, 0xbf, 0x9d, 0x3f, 0xda, 0x3e, 0x79, 0x4e, 0x7c, 0x3d,
  0x45, 0x8f, 0x54, 0x3e, 0xbe, 0x28, 0xff, 0xbd, 0x08, 0xee, 0x92, 0x3d,
  0xe9, 0xa2, 0xdd, 0x3d, 0x54, 0xa0, 0xa3, 0xbe, 0xd1, 0x79, 0x95, 0xbe,
  0xf4, 0xf1, 0xad, 0xbd, 0x4a, 0x34, 0x12, 0x3e, 0x0b, 0xe6, 0xf3, 0x3d,
  0x16, 0xe4, 0x2b, 0xbe, 0xf2, 0xa5, 0x8f, 0xbe, 0x07, 0x02, 0xde, 0x3d,
  0xfe, 0x49, 0x56, 0xbd, 0x22, 0xe4, 0x66, 0x3e, 0xf5, 0x1c, 0x61, 0xbb,
  0x39, 0xb3, 0x1e, 0xbe, 0x8d, 0x68, 0x56, 0xbd, 0x93, 0xd9, 0x8d, 0x3e,
  0x8d, 0x6c, 0x8a, 0x3e, 0x0c, 0x7f, 0x06, 0x3d, 0x67, 0x5d, 0x49, 0x3e,
  0x60, 0xcf, 0x21, 0x3e, 0xf7, 0x38, 0x29, 0xbe, 0x41, 0xdd, 0x55, 0xbd,
  0xef, 0x4e, 0x41, 0xbe, 0xc8, 0x61, 0x2d, 0xbe, 0xf0, 0x27, 0x78, 0x3e,
  0x60, 0x95, 0x96, 0x3d, 0xca, 0xd8, 0x3a, 0x3e, 0xa4, 0x36, 0x19, 0xbf,
  0x61, 0x35, 0xe1, 0xbd, 0xe0, 0x44, 0x97, 0x3e, 0x8a, 0x4c, 0xc1, 0xbd,
  0x76, 0xd4, 0x69, 0x3e, 0x23, 0xd3, 0xa8, 0x3e, 0x00, 0xa2, 0x2a, 0x3e,
  0x14, 0x71, 0x8f, 0xbe, 0x63, 0xb7, 0x15, 0xbe, 0x45, 0x7f, 0x2e, 0xbe,
  0x19, 0x63, 0x3b, 0xbe, 0x6b, 0x3f, 0xc8, 0xbe, 0x33, 0xd0, 0x9d, 0x3d,
  0xfb, 0x49, 0xae, 0xbe, 0x44, 0xee, 0xb4, 0xbd, 0xe8, 0x47, 0x59, 0x3e,
  0xa2, 0x7f, 0x7c, 0x3b, 0x0c, 0x02, 0xb5, 0x3e, 0xa3, 0x91, 0x95, 0x3e,
  0xdf, 0xe1, 0xfe, 0x3d, 0xd2, 0x0b, 0xc6, 0x3e, 0x93, 0xa5, 0x8d, 0x3e,
  0x98, 0xa7, 0xaa, 0x3e, 0x0e, 0xbf, 0xc0, 0x3d, 0x2f, 0x15, 0xac, 0xbd,
  0x10, 0x00, 0xc4, 0xbc, 0xb8, 0x91, 0x31, 0xbe, 0xfd, 0x80, 0x80, 0x3e,
  0xc4, 0xec, 0x46, 0xbe, 0xbd, 0x02, 0xe1, 0xbd, 0x83, 0x4c, 0xcf, 0xbe,
  0xf9, 0x34, 0x4f, 0xbe, 0x05, 0x08, 0x78, 0xbe, 0xd6, 0x29, 0x83, 0xbe,
  0xb7, 0x7f, 0x5f, 0xbe, 0x45, 0xc5, 0xdc, 0x3b, 0xcc, 0xd7, 0x61, 0xbe,
  0xa5, 0x69, 0xc4, 0xbe, 0x86, 0x2d, 0x29, 0x3e, 0x5b, 0xe3, 0xfa, 0xbd,
  0x4e, 0xef, 0xe0, 0x3e, 0x24, 0x4b, 0xc7, 0xbd, 0xf4, 0xe7, 0xd6, 0x3d,
  0x3f, 0x56, 0x46, 0x3e, 0x89, 0x1a, 0x44, 0xbe, 0x9a, 0x94, 0x75, 0x3e,
  0x67, 0xf0, 0xae, 0x3e, 0xc2, 0x3f, 0xa2, 0x3e, 0x03, 0xba, 0x3d, 0xbe,
  0x57, 0xaf, 0x80, 0x3e, 0xe6, 0x52, 0x3f, 0x3e, 0x5c, 0x1f, 0x14, 0x3e,
  0x63, 0xe1, 0x6f, 0xbe, 0x05, 0x52, 0x5d, 0xbe, 0x4d, 0x21, 0xd1, 0xbe,
  0x5e, 0xd4, 0x41, 0xbe, 0x85, 0x09, 0x71, 0x3d, 0x5b, 0x35, 0x37, 0xbe,
  0x26, 0xa7, 0x5d, 0xbe, 0xd3, 0x8b, 0xd6, 0xbe, 0xe4, 0x89, 0xaa, 0xbe,
  0x79, 0x90, 0x75, 0xbe, 0xad, 0x4c, 0x22, 0xbe, 0x6e, 0x03, 0x9b, 0x3d,
  0xcd, 0x44, 0x0f, 0xbf, 0xe2, 0x4b, 0xd6, 0x3e, 0xa3, 0xb7, 0xd3, 0x3d,
  0xb6, 0xca, 0x1e, 0xbe, 0x6b, 0x23, 0xb7, 0x3e, 0x0b, 0xc6, 0x70, 0x3e,
  0x72, 0x69, 0x0c, 0xbe, 0x42, 0xbf, 0x05, 0x3e, 0x6e, 0x1d, 0x49, 0x3e,
  0xf2, 0x5d, 0x2d, 0xbe, 0xc5, 0x5b, 0x10, 0xbd, 0xa8, 0x36, 0xe4, 0xbd,
  0xe5, 0xeb, 0xa8, 0x3d, 0xa0, 0xe0, 0xbb, 0xbe, 0xfa, 0x70, 0x38, 0x3e,
  0x75, 0x8c, 0xbf, 0x3a, 0xf2, 0x56, 0x07, 0x3f, 0x59, 0x07, 0x01, 0xbe,
  0xb6, 0x02, 0x23, 0x3d, 0xc6, 0x7f, 0x73, 0x3e, 0xf5, 0x71, 0xdc, 0x3e,
  0xbf, 0x47, 0xa5, 0xbd, 0x3e, 0xfb, 0xff, 0xff, 0x04, 0x00, 0x00, 0x00,
  0x00, 0x01, 0x00, 0x00, 0x53, 0x5d, 0x29, 0x3e, 0x0e, 0xb9, 0x1c, 0xbc,
  0x35, 0x75, 0xe4, 0x3d, 0x6d, 0x73, 0x39, 0xbd, 0x20, 0x56, 0x60, 0x3e,
  0x47, 0x0d, 0x11, 0x3e, 0x1f, 0x44, 0xcd, 0x3d, 0xe3, 0x00, 0x40, 0xbd,
  0xb8, 0x56, 0x6e, 0x3e, 0x27, 0x40, 0xda, 0x3d, 0xbb, 0xce, 0xf7, 0x3d,
  0x0b, 0xdb, 0xdb, 0x3d, 0xb6, 0x94, 0x7f, 0xbd, 0xb7, 0x43, 0x34, 0xbc,
  0x27, 0xcd, 0x1e, 0x3d, 0xb1, 0xfd, 0xc5, 0x3d, 0x55, 0x90, 0xf4, 0x3d,
  0x9d, 0x3c, 0x4f, 0xbb, 0xf9, 0x14, 0x55, 0x3e, 0x26, 0xfb, 0x91, 0xbd,
  0x75, 0x19, 0xef, 0xbd, 0xc4, 0x4a, 0x90, 0xbd, 0xe2, 0xb3, 0xee, 0x3d,
  0x9a, 0xa3, 0x0c, 0xbd, 0x20, 0xa4, 0x40, 0xbd, 0x83, 0x07, 0xed, 0xbc,
  0x88, 0x59, 0x56, 0xbd, 0xe0, 0x84, 0x26, 0x3e, 0xfd, 0xac, 0x17, 0x3e,
  0x15, 0xdb, 0x8f, 0xbd, 0xbc, 0x01, 0x88, 0xbd, 0x47, 0x17, 0x48, 0x3d,
  0x7e, 0x24, 0xee, 0x3c, 0x45, 0x33, 0x84, 0xbd, 0x31, 0x2c, 0x61, 0xbd,
  0x76, 0x35, 0x84, 0xbd, 0x46, 0xbb, 0x90, 0x3d, 0xc5, 0x61, 0x25, 0x3e,
  0xb3, 0x50, 0xa3, 0x3d, 0xef, 0xe5, 0xa2, 0x3d, 0xaa, 0x15, 0x07, 0x3d,
  0x43, 0xc4, 0x15, 0x3e, 0x30, 0xc3, 0x09, 0x3e, 0xd4, 0xba, 0x86, 0xbc,
  0x9c, 0x44, 0x69, 0xbc, 0x64, 0xea, 0x23, 0x3e, 0x80, 0x5b, 0x01, 0x3c,
  0x06, 0x66, 0xd7, 0x3b, 0x95, 0x4e, 0x26, 0x39, 0xf8, 0x6c, 0x26, 0x3e,
  0x16, 0x96, 0x3c, 0xbc, 0x82, 0x32, 0xaf, 0xbd, 0xad, 0xbf, 0x3d, 0xbd,
  0x45, 0xef, 0x18, 0x3e, 0x83, 0x0c, 0x12, 0x3e, 0xb7, 0x92, 0x0b, 0x3e,
  0x77, 0x7c, 0x95, 0xb7, 0x5a, 0xb5, 0x22, 0x3e, 0x7d, 0xe8, 0x18, 0xbd,
  0xca, 0x35, 0x0a, 0x3e, 0x22, 0xb3, 0x09, 0x3e, 0xc1, 0x6c, 0x3c, 0x3e,
  0xe8, 0xf1, 0xd5, 0xbc, 0x36, 0xd2, 0x4c, 0x3d, 0x4a, 0xfc, 0xff, 0xff,
  0x04, 0x00, 0x00, 0x00, 0x0c, 0x00, 0x00, 0x00, 0x2b, 0x7b, 0xe0, 0xbc,
  0xfe, 0xd5, 0xba, 0xbd, 0xbc, 0xd7, 0x05, 0x3e, 0x62, 0xfc, 0xff, 0xff,
  0x04, 0x00, 0x00, 0x00, 0x00, 0x03, 0x00, 0x00, 0x31, 0x71, 0x97, 0xbe,
  0x8a, 0xb6, 0x90, 0xbe, 0xa9, 0x11, 0xcb, 0xbd, 0xd9, 0xbb, 0x80, 0x3d,
  0x7a, 0xaf, 0xdc, 0xbc, 0x37, 0x3f, 0x97, 0xbd, 0x5d, 0xc6, 0x00, 0xbf,
  0xbe, 0x61, 0x4b, 0x3d, 0x03, 0xe3, 0xac, 0x3d, 0xd4, 0x4b, 0xe2, 0x3e,
  0xb1, 0xae, 0xa6, 0xbe, 0x90, 0x55, 0x5a, 0x3e, 0x4a, 0x78, 0x3e, 0xbe,
  0x03, 0x12, 0xb2, 0x3e, 0xbd, 0xe9, 0xde, 0x3e, 0x9c, 0x8b, 0x9f, 0x3e,
  0xa7, 0x9f, 0x3f, 0xbe, 0x0f, 0xfd, 0x46, 0xbe, 0xdc, 0x89, 0x07, 0xbd,
  0xa9, 0xb1, 0xc1, 0xbd, 0xc4, 0x59, 0x11, 0x3d, 0x57, 0x74, 0x64, 0x3e,
  0x60, 0xcb, 0xcf, 0x3d, 0x29, 0x1b, 0x13, 0xbc, 0xdb, 0x2a, 0x0c, 0xbe,
  0x2b, 0x76, 0x31, 0x3e, 0x44, 0xe8, 0x73, 0x3d, 0x64, 0x6d, 0x4b, 0x3e,
  0x83, 0x48, 0xc4, 0x3c, 0x18, 0x05, 0x5d, 0xbe, 0x6e, 0xf0, 0xcc, 0x3d,
  0x98, 0x19, 0xb7, 0xbe, 0x17, 0x87, 0x9a, 0xbe, 0x89, 0x6a, 0xc6, 0xbc,
  0xc0, 0x69, 0x70, 0x3e, 0x22, 0x30, 0x88, 0xbe, 0x5a, 0x70, 0xd0, 0xbe,
  0x15, 0xa0, 0xbc, 0xbe, 0x91, 0xb9, 0xbe, 0xbe, 0x55, 0xb5, 0x67, 0x3d,
  0xd7, 0x94, 0xa4, 0xbe, 0x18, 0xc6, 0x39, 0xbe, 0x3b, 0xcb, 0x44, 0x3d,
  0xaa, 0xc5, 0x7d, 0x3e, 0x95, 0x40, 0x80, 0xbe, 0xd6, 0xce, 0xa4, 0x3e,
  0x13, 0xf1, 0x5c, 0x3e, 0x1a, 0x23, 0x1a, 0xbd, 0xa9, 0x9c, 0x0a, 0xbe,
  0x2a, 0x85, 0xb4, 0x3c, 0x9d, 0x05, 0xc8, 0x3e, 0xd3, 0x00, 0x4b, 0x3e,
  0x01, 0xfa, 0x1c, 0xbe, 0x66, 0x68, 0xc4, 0xbe, 0xb4, 0x5a, 0x08, 0x3e,
  0x5e, 0x76, 0xac, 0xbe, 0xe5, 0xd7, 0xb0, 0xbd, 0x32, 0x54, 0x79, 0x3e,
  0xaf, 0xcf, 0x45, 0x3e, 0x91, 0x5b, 0xa3, 0xbc, 0xf7, 0x33, 0xc0, 0xbd,
  0x4c, 0x57, 0xaf, 0xbe, 0x9f, 0x77, 0x17, 0x3e, 0x67, 0x4a, 0xc6, 0xbe,
  0x31, 0x0e, 0xe8, 0xbe, 0x67, 0xa5, 0x94, 0x3e, 0x44, 0xe0, 0xe9, 0xbe,
  0xdd, 0x81, 0x0d, 0x3b, 0xa3, 0x06, 0xe4, 0xbd, 0xb7, 0xc3, 0xbf, 0x3e,
  0x6d, 0x5f, 0xd6, 0x3e, 0x74, 0x03, 0xe7, 0x3c, 0x8a, 0x74, 0x1e, 0xbd,
  0x40, 0xc2, 0x17, 0xbe, 0x43, 0xd6, 0x84, 0x3d, 0x2c, 0xdd, 0xa9, 0xbe,
  0x54, 0xfe, 0x2e, 0xbe, 0x6d, 0xfd, 0x8f, 0xbd, 0xd0, 0xc0, 0xab, 0xbd,
  0x70, 0x72, 0x86, 0xbe, 0x3d, 0x8a, 0xbe, 0xbe, 0x08, 0x6e, 0x3d, 0x3e,
  0x92, 0xc2, 0xb2, 0xbe, 0x7d, 0xb5, 0xcb, 0x3e, 0xd2, 0x64, 0x86, 0x3e,
  0xa7, 0x2b, 0x0d, 0x3e, 0x6f, 0x8d, 0xb5, 0xbe, 0x56, 0x06, 0x52, 0x3c,
  0x47, 0x96, 0x0d, 0xbe, 0xe9, 0x61, 0x7b, 0xbe, 0x68, 0x70, 0xdd, 0x3d,
  0xf3, 0xb3, 0xe3, 0x3c, 0x29, 0xc9, 0xb0, 0x3e, 0xb4, 0xed, 0x02, 0xbe,
  0xd7, 0x80, 0xa9, 0xbc, 0xd8, 0xbb, 0xcd, 0x3e, 0xce, 0x6e, 0x95, 0x3e,
  0x82, 0xe5, 0xf8, 0x3e, 0xef, 0x1f, 0xb5, 0x3c, 0xae, 0xf1, 0x3c, 0x3e,
  0x27, 0x31, 0xd9, 0x3e, 0xad, 0xe7, 0xb8, 0xbe, 0x6b, 0x3e, 0x12, 0xbe,
  0x2b, 0xc2, 0x38, 0xbe, 0x07, 0x98, 0xf0, 0x3e, 0x78, 0xa0, 0xd2, 0x3d,
  0xb6, 0x88, 0x07, 0xbf, 0xea, 0x54, 0xf1, 0xbd, 0xce, 0x50, 0x13, 0x3e,
  0x4b, 0xb0, 0x20, 0x3e, 0xd3, 0xe2, 0x14, 0xbe, 0xa6, 0x34, 0xad, 0x3e,
  0x93, 0x9b, 0x23, 0x3e, 0x9d, 0x1f, 0xe2, 0xbe, 0x84, 0x5b, 0x32, 0xbd,
  0x7b, 0x23, 0xae, 0x3e, 0x83, 0x52, 0xe3, 0xbc, 0x54, 0x43, 0x05, 0xbf,
  0xb7, 0x26, 0x95, 0xbd, 0xc0, 0xb9, 0x04, 0xbd, 0x02, 0x97, 0x7d, 0x3a,
  0xa0, 0x08, 0x8b, 0x3d, 0x07, 0x2d, 0x81, 0x3d, 0x59, 0x90, 0x13, 0xbe,
  0x67, 0xd0, 0xb7, 0xbe, 0x0c, 0xbd, 0x34, 0xbe, 0xb2, 0x22, 0x58, 0xbe,
  0xf5, 0xfa, 0x18, 0x3e, 0x94, 0x2d, 0x07, 0x3f, 0xb1, 0x8d, 0x10, 0xbf,
  0x24, 0xcc, 0x8b, 0x3e, 0x34, 0xf5, 0x02, 0xbf, 0x63, 0xb4, 0xf0, 0x3e,
  0xd4, 0x17, 0xa1, 0x3e, 0x97, 0x28, 0xa4, 0x3d, 0xd9, 0x58, 0x47, 0xbe,
  0x89, 0x01, 0x28, 0x3f, 0x84, 0x5c, 0x3b, 0xbd, 0xea, 0x14, 0x76, 0x3e,
  0x96, 0x56, 0xae, 0xbe, 0x83, 0xdf, 0x3e, 0x3e, 0xfd, 0xb7, 0xd7, 0xbc,
  0xb2, 0x0a, 0x44, 0xbc, 0xba, 0x9d, 0x5d, 0xbe, 0x74, 0x5d, 0xa4, 0x3d,
  0xc1, 0x87, 0x24, 0xbf, 0xff, 0x28, 0x0c, 0x3f, 0x0b, 0xc0, 0xf4, 0xbe,
  0xb9, 0x6f, 0x0f, 0xbe, 0xbd, 0x4c, 0x83, 0xbe, 0x1d, 0x70, 0x8d, 0xbc,
  0x57, 0xba, 0xac, 0xbe, 0xbd, 0x2e, 0x35, 0xbe, 0xaf, 0x55, 0xf0, 0x3d,
  0x60, 0x02, 0xf4, 0xbd, 0x48, 0x2a, 0x97, 0xbe, 0x7c, 0xbe, 0x89, 0x3e,
  0xfe, 0x54, 0x1d, 0xbe, 0x5b, 0x7b, 0xbb, 0xbe, 0x89, 0x38, 0x7b, 0xbe,
  0x01, 0x3c, 0xe9, 0xbe, 0xdd, 0x5f, 0xe4, 0xbe, 0x16, 0xe8, 0x5a, 0xbe,
  0x31, 0x4c, 0x8f, 0xbd, 0x0e, 0x9f, 0xad, 0x3d, 0x80, 0x5b, 0x9b, 0x3e,
  0x55, 0x0f, 0xbb, 0xbd, 0x01, 0x1c, 0xfd, 0x3e, 0x73, 0xd7, 0xfd, 0xbe,
  0x94, 0x1f, 0xf3, 0x3e, 0x23, 0x50, 0xa0, 0xbe, 0x3c, 0xa9, 0x60, 0x3e,
  0x36, 0x0a, 0x29, 0xbe, 0x20, 0x1d, 0xad, 0xbe, 0x2e, 0x5f, 0x56, 0x3e,
  0x68, 0xf9, 0x98, 0x3d, 0x12, 0xc1, 0x88, 0xbe, 0x5f, 0x83, 0xb4, 0x3e,
  0x5f, 0x2f, 0x0b, 0xbe, 0xa4, 0x75, 0x9d, 0xbd, 0xfc, 0xb9, 0xdf, 0xbd,
  0x37, 0x89, 0xf3, 0x3e, 0x61, 0x67, 0x68, 0xbc, 0x00, 0x11, 0xcd, 0x3d,
  0x77, 0xfc, 0x35, 0x3e, 0x98, 0xb1, 0x86, 0xbe, 0x8d, 0x71, 0x06, 0xbf,
  0xa1, 0xe9, 0xda, 0x3e, 0xe9, 0xe3, 0xa3, 0xbe, 0x2a, 0x40, 0x08, 0x3f,
  0xa5, 0x54, 0x1f, 0x3d, 0x1e, 0x6f, 0xc2, 0xbe, 0xbc, 0xfb, 0xff, 0xff,
  0xc0, 0xfb, 0xff, 0xff, 0x0f, 0x00, 0x00, 0x00, 0x4d, 0x4c, 0x49, 0x52,
  0x20, 0x43, 0x6f, 0x6e, 0x76, 0x65, 0x72, 0x74, 0x65, 0x64, 0x2e, 0x00,
  0x01, 0x00, 0x00, 0x00, 0x14, 0x00, 0x00, 0x00, 0x00, 0x00, 0x0e, 0x00,
  0x18, 0x00, 0x14, 0x00, 0x10, 0x00, 0x0c, 0x00, 0x08, 0x00, 0x04, 0x00,
  0x0e, 0x00, 0x00, 0x00, 0x14, 0x00, 0x00, 0x00, 0x1c, 0x00, 0x00, 0x00,
  0xec, 0x00, 0x00, 0x00, 0xf0, 0x00, 0x00, 0x00, 0xf4, 0x00, 0x00, 0x00,
  0x04, 0x00, 0x00, 0x00, 0x6d, 0x61, 0x69, 0x6e, 0x00, 0x00, 0x00, 0x00,
  0x03, 0x00, 0x00, 0x00, 0x94, 0x00, 0x00, 0x00, 0x50, 0x00, 0x00, 0x00,
  0x14, 0x00, 0x00, 0x00, 0x00, 0x00, 0x0e, 0x00, 0x1a, 0x00, 0x14, 0x00,
  0x10, 0x00, 0x0c, 0x00, 0x0b, 0x00, 0x04, 0x00, 0x0e, 0x00, 0x00, 0x00,
  0x1c, 0x00, 0x00, 0x00, 0x00, 0x00, 0x00, 0x09, 0x1c, 0x00, 0x00, 0x00,
  0x20, 0x00, 0x00, 0x00, 0x01, 0x00, 0x00, 0x00, 0x00, 0x00, 0x06, 0x00,
  0x08, 0x00, 0x04, 0x00, 0x06, 0x00, 0x00, 0x00, 0x00, 0x00, 0x80, 0x3f,
  0x01, 0x00, 0x00, 0x00, 0x07, 0x00, 0x00, 0x00, 0x01, 0x00, 0x00, 0x00,
  0x06, 0x00, 0x00, 0x00, 0xce, 0xff, 0xff, 0xff, 0x10, 0x00, 0x00, 0x00,
  0x00, 0x00, 0x00, 0x08, 0x0c, 0x00, 0x00, 0x00, 0x10, 0x00, 0x00, 0x00,
  0x80, 0xfc, 0xff, 0xff, 0x01, 0x00, 0x00, 0x00, 0x06, 0x00, 0x00, 0x00,
  0x03, 0x00, 0x00, 0x00, 0x05, 0x00, 0x00, 0x00, 0x01, 0x00, 0x00, 0x00,
  0x02, 0x00, 0x00, 0x00, 0x00, 0x00, 0x0e, 0x00, 0x16, 0x00, 0x00, 0x00,
  0x10, 0x00, 0x0c, 0x00, 0x0b, 0x00, 0x04, 0x00, 0x0e, 0x00, 0x00, 0x00,
  0x18, 0x00, 0x00, 0x00, 0x00, 0x00, 0x00, 0x08, 0x18, 0x00, 0x00, 0x00,
  0x1c, 0x00, 0x00, 0x00, 0x00, 0x00, 0x06, 0x00, 0x08, 0x00, 0x07, 0x00,
  0x06, 0x00, 0x00, 0x00, 0x00, 0x00, 0x00, 0x01, 0x01, 0x00, 0x00, 0x00,
  0x05, 0x00, 0x00, 0x00, 0x03, 0x00, 0x00, 0x00, 0x00, 0x00, 0x00, 0x00,
  0x04, 0x00, 0x00, 0x00, 0x03, 0x00, 0x00, 0x00, 0x01, 0x00, 0x00, 0x00,
  0x07, 0x00, 0x00, 0x00, 0x01, 0x00, 0x00, 0x00, 0x00, 0x00, 0x00, 0x00,
  0x08, 0x00, 0x00, 0x00, 0xdc, 0x02, 0x00, 0x00, 0x84, 0x02, 0x00, 0x00,
  0x30, 0x02, 0x00, 0x00, 0xd4, 0x01, 0x00, 0x00, 0x84, 0x01, 0x00, 0x00,
  0xe4, 0x00, 0x00, 0x00, 0x60, 0x00, 0x00, 0x00, 0x04, 0x00, 0x00, 0x00,
  0x5a, 0xfd, 0xff, 0xff, 0x00, 0x00, 0x00, 0x01, 0x14, 0x00, 0x00, 0x00,
  0x1c, 0x00, 0x00, 0x00, 0x1c, 0x00, 0x00, 0x00, 0x08, 0x00, 0x00, 0x00,
  0x34, 0x00, 0x00, 0x00, 0x02, 0x00, 0x00, 0x00, 0xff, 0xff, 0xff, 0xff,
  0x03, 0x00, 0x00, 0x00, 0x44, 0xfd, 0xff, 0xff, 0x1b, 0x00, 0x00, 0x00,
  0x53, 0x74, 0x61, 0x74, 0x65, 0x66, 0x75, 0x6c, 0x50, 0x61, 0x72, 0x74,
  0x69, 0x74, 0x69, 0x6f, 0x6e, 0x65, 0x64, 0x43, 0x61, 0x6c, 0x6c, 0x5f,
  0x31, 0x3a, 0x30, 0x00, 0x02, 0x00, 0x00, 0x00, 0x01, 0x00, 0x00, 0x00,
  0x03, 0x00, 0x00, 0x00, 0xb2, 0xfd, 0xff, 0xff, 0x00, 0x00, 0x00, 0x01,
  0x14, 0x00, 0x00, 0x00, 0x1c, 0x00, 0x00, 0x00, 0x1c, 0x00, 0x00, 0x00,
  0x07, 0x00, 0x00, 0x00, 0x5c, 0x00, 0x00, 0x00, 0x02, 0x00, 0x00, 0x00,
  0xff, 0xff, 0xff, 0xff, 0x03, 0x00, 0x00, 0x00, 0x9c, 0xfd, 0xff, 0xff,
  0x40, 0x00, 0x00, 0x00, 0x73, 0x65, 0x71, 0x75, 0x65, 0x6e, 0x74, 0x69,
  0x61, 0x6c, 0x5f, 0x31, 0x5f, 0x31, 0x2f, 0x64, 0x65, 0x6e, 0x73, 0x65,
  0x5f, 0x33, 0x5f, 0x31, 0x2f, 0x4d, 0x61, 0x74, 0x4d, 0x75, 0x6c, 0x3b,
  0x73, 0x65, 0x71, 0x75, 0x65, 0x6e, 0x74, 0x69, 0x61, 0x6c, 0x5f, 0x31,
  0x5f, 0x31, 0x2f, 0x64, 0x65, 0x6e, 0x73, 0x65, 0x5f, 0x33, 0x5f, 0x31,
  0x2f, 0x42, 0x69, 0x61, 0x73, 0x41, 0x64, 0x64, 0x00, 0x00, 0x00, 0x00,
  0x02, 0x00, 0x00, 0x00, 0x01, 0x00, 0x00, 0x00, 0x03, 0x00, 0x00, 0x00,
  0x32, 0xfe, 0xff, 0xff, 0x00, 0x00, 0x00, 0x01, 0x14, 0x00, 0x00, 0x00,
  0x1c, 0x00, 0x00, 0x00, 0x1c, 0x00, 0x00, 0x00, 0x06, 0x00, 0x00, 0x00,
  0x78, 0x00, 0x00, 0x00, 0x02, 0x00, 0x00, 0x00, 0xff, 0xff, 0xff, 0xff,
  0x40, 0x00, 0x00, 0x00, 0x1c, 0xfe, 0xff, 0xff, 0x5e, 0x00, 0x00, 0x00,
  0x73, 0x65, 0x71, 0x75, 0x65, 0x6e, 0x74, 0x69, 0x61, 0x6c, 0x5f, 0x31,
  0x5f, 0x31, 0x2f, 0x64, 0x65, 0x6e, 0x73, 0x65, 0x5f, 0x32, 0x5f, 0x31,
  0x2f, 0x4d, 0x61, 0x74, 0x4d, 0x75, 0x6c, 0x3b, 0x73, 0x65, 0x71, 0x75,
  0x65, 0x6e, 0x74, 0x69, 0x61, 0x6c, 0x5f, 0x31, 0x5f, 0x31, 0x2f, 0x64,
  0x65, 0x6e, 0x73, 0x65, 0x5f, 0x32, 0x5f, 0x31, 0x2f, 0x52, 0x65, 0x6c,
  0x75, 0x3b, 0x73, 0x65, 0x71, 0x75, 0x65, 0x6e, 0x74, 0x69, 0x61, 0x6c,
  0x5f, 0x31, 0x5f, 0x31, 0x2f, 0x64, 0x65, 0x6e, 0x73, 0x65, 0x5f, 0x32,
  0x5f, 0x31, 0x2f, 0x42, 0x69, 0x61, 0x73, 0x41, 0x64, 0x64, 0x00, 0x00,
  0x02, 0x00, 0x00, 0x00, 0x01, 0x00, 0x00, 0x00, 0x40, 0x00, 0x00, 0x00,
  0x22, 0xff, 0xff, 0xff, 0x00, 0x00, 0x00, 0x01, 0x10, 0x00, 0x00, 0x00,
  0x10, 0x00, 0x00, 0x00, 0x05, 0x00, 0x00, 0x00, 0x2c, 0x00, 0x00, 0x00,
  0xa8, 0xfe, 0xff, 0xff, 0x1f, 0x00, 0x00, 0x00, 0x73, 0x65, 0x71, 0x75,
  0x65, 0x6e, 0x74, 0x69, 0x61, 0x6c, 0x5f, 0x31, 0x5f, 0x31, 0x2f, 0x64,
  0x65, 0x6e, 0x73, 0x65, 0x5f, 0x32, 0x5f, 0x31, 0x2f, 0x4d, 0x61, 0x74,
  0x4d, 0x75, 0x6c, 0x00, 0x02, 0x00, 0x00, 0x00, 0x40, 0x00, 0x00, 0x00,
  0x08, 0x00, 0x00, 0x00, 0x6e, 0xff, 0xff, 0xff, 0x00, 0x00, 0x00, 0x01,
  0x10, 0x00, 0x00, 0x00, 0x10, 0x00, 0x00, 0x00, 0x04, 0x00, 0x00, 0x00,
  0x3c, 0x00, 0x00, 0x00, 0xf4, 0xfe, 0xff, 0xff, 0x2f, 0x00, 0x00, 0x00,
  0x73, 0x65, 0x71, 0x75, 0x65, 0x6e, 0x74, 0x69, 0x61, 0x6c, 0x5f, 0x31,
  0x5f, 0x31, 0x2f, 0x64, 0x65, 0x6e, 0x73, 0x65, 0x5f, 0x32, 0x5f, 0x31,
  0x2f, 0x42, 0x69, 0x61, 0x73, 0x41, 0x64, 0x64, 0x2f, 0x52, 0x65, 0x61,
  0x64, 0x56, 0x61, 0x72, 0x69, 0x61, 0x62, 0x6c, 0x65, 0x4f, 0x70, 0x00,
  0x01, 0x00, 0x00, 0x00, 0x40, 0x00, 0x00, 0x00, 0xc6, 0xff, 0xff, 0xff,
  0x00, 0x00, 0x00, 0x01, 0x10, 0x00, 0x00, 0x00, 0x10, 0x00, 0x00, 0x00,
  0x03, 0x00, 0x00, 0x00, 0x1c, 0x00, 0x00, 0x00, 0x4c, 0xff, 0xff, 0xff,
  0x0f, 0x00, 0x00, 0x00, 0x61, 0x72, 0x69, 0x74, 0x68, 0x2e, 0x63, 0x6f,
  0x6e, 0x73, 0x74, 0x61, 0x6e, 0x74, 0x31, 0x00, 0x01, 0x00, 0x00, 0x00,
  0x03, 0x00, 0x00, 0x00, 0x00, 0x00, 0x16, 0x00, 0x18, 0x00, 0x14, 0x00,
  0x00, 0x00, 0x10, 0x00, 0x0c, 0x00, 0x08, 0x00, 0x00, 0x00, 0x00, 0x00,
  0x00, 0x00, 0x07, 0x00, 0x16, 0x00, 0x00, 0x00, 0x00, 0x00, 0x00, 0x01,
  0x10, 0x00, 0x00, 0x00, 0x10, 0x00, 0x00, 0x00, 0x02, 0x00, 0x00, 0x00,
  0x1c, 0x00, 0x00, 0x00, 0x9c, 0xff, 0xff, 0xff, 0x0e, 0x00, 0x00, 0x00,
  0x61, 0x72, 0x69, 0x74, 0x68, 0x2e, 0x63, 0x6f, 0x6e, 0x73, 0x74, 0x61,
  0x6e, 0x74, 0x00, 0x00, 0x02, 0x00, 0x00, 0x00, 0x03, 0x00, 0x00, 0x00,
  0x40, 0x00, 0x00, 0x00, 0x00, 0x00, 0x16, 0x00, 0x1c, 0x00, 0x18, 0x00,
  0x00, 0x00, 0x14, 0x00, 0x10, 0x00, 0x0c, 0x00, 0x00, 0x00, 0x00, 0x00,
  0x08, 0x00, 0x07, 0x00, 0x16, 0x00, 0x00, 0x00, 0x00, 0x00, 0x00, 0x01,
  0x14, 0x00, 0x00, 0x00, 0x20, 0x00, 0x00, 0x00, 0x20, 0x00, 0x00, 0x00,
  0x01, 0x00, 0x00, 0x00, 0x40, 0x00, 0x00, 0x00, 0x02, 0x00, 0x00, 0x00,
  0xff, 0xff, 0xff, 0xff, 0x08, 0x00, 0x00, 0x00, 0x04, 0x00, 0x04, 0x00,
  0x04, 0x00, 0x00, 0x00, 0x20, 0x00, 0x00, 0x00, 0x73, 0x65, 0x72, 0x76,
  0x69, 0x6e, 0x67, 0x5f, 0x64, 0x65, 0x66, 0x61, 0x75, 0x6c, 0x74, 0x5f,
  0x6b, 0x65, 0x72, 0x61, 0x73, 0x5f, 0x74, 0x65, 0x6e, 0x73, 0x6f, 0x72,
  0x5f, 0x33, 0x3a, 0x30, 0x00, 0x00, 0x00, 0x00, 0x02, 0x00, 0x00, 0x00,
  0x01, 0x00, 0x00, 0x00, 0x08, 0x00, 0x00, 0x00, 0x02, 0x00, 0x00, 0x00,
  0x20, 0x00, 0x00, 0x00, 0x04, 0x00, 0x00, 0x00, 0xf4, 0xff, 0xff, 0xff,
  0x19, 0x00, 0x00, 0x00, 0x00, 0x00, 0x00, 0x19, 0x0c, 0x00, 0x0c, 0x00,
  0x0b, 0x00, 0x00, 0x00, 0x00, 0x00, 0x04, 0x00, 0x0c, 0x00, 0x00, 0x00,
  0x09, 0x00, 0x00, 0x00, 0x00, 0x00, 0x00, 0x09
};
unsigned int model_tflite_len = 4808;
